<unk>	0
<s>	0
</s>	0
▁	-3.32854
၊	-3.99735
.	-4.07732
/	-4.33171
="	-4.35758
doc	-4.3689
>	-4.36945
▁<	-4.36945
)	-4.4864
▁(	-4.62411
သည်	-4.64379
"	-4.81158
d	-4.97258
တွင်	-5.00524
ကို	-5.02436
wiki	-5.0516
my	-5.05814
org	-5.0602
?	-5.0606
://	-5.06109
https	-5.06188
curi	-5.06235
▁title	-5.06239
url	-5.06241
wikipedia	-5.06244
▁id	-5.06251
ရွာ၊	-5.15669
နှင့်	-5.24548
▁ဖြစ်သည်။	-5.27255
၌	-5.37998
ကျေးရွာအုပ်စု	-5.39943
▁ဦး၊	-5.51333
၏	-5.60889
▁မ	-5.66956
▁တည်ရှိသည်။	-5.76918
က	-5.84926
▁ရွာနေရာကုတ်မှာ	-5.86164
မြို့နယ်	-5.89735
မှ	-5.95111
များ	-5.97785
▁သ	-6.04234
သော	-6.06144
▁()	-6.06479
ရွာ	-6.06795
-	-6.10591
မှာ	-6.125
▁၂၀၁၄	-6.1323
န်းခေါင်စာရင်းအရ	-6.16537
▁ကျား	-6.16954
▁လူဦးရေ	-6.1795
▁စုစုပေါင်း	-6.1995
၍	-6.31135
ခဲ့သည်။	-6.34336
▁ဦးနေထိုင်သည်။	-6.34427
(	-6.34874
များကို	-6.36701
သည်။	-6.38458
မြို့နယ်၊	-6.56968
ကြီး	-6.57711
▁သည်	-6.58728
▁နှင့်	-6.5959
ပြီး	-6.62748
အား	-6.64205
မ	-6.64891
သည့်	-6.65416
;	-6.65728
သို့	-6.66833
ကာ	-6.6716
▁ထို	-6.67285
၁	-6.67359
။	-6.71888
ဖြင့်	-6.72976
ခြင်း	-6.74582
▁အ	-6.75763
,	-6.76903
ရန်	-6.7776
ရှိ	-6.79197
ဖြစ်သည်။	-6.81248
▁ရှမ်းပြည်နယ်	-6.81355
▁ခုနှစ်	-6.85481
လည်း	-6.85749
တိုင်းဒေသကြီး၊	-6.86894
&	-6.88339
▁ခုနှစ်တွင်	-6.89293
▁ဦး	-6.89339
▁"	-6.89549
အ	-6.94325
ရာ	-6.9552
တောင်	-6.98841
ပင်	-7.00946
အဖြစ်	-7.00951
▁MMR	-7.07204
▁-	-7.07715
▁ကို	-7.08151
ဟု	-7.10273
တို့	-7.12047
▁တွင်	-7.15052
သာ	-7.151
မြောက်	-7.15904
lt	-7.17285
gt	-7.20975
s	-7.2221
ရ	-7.2244
၂	-7.2473
မှု	-7.272
ပါ	-7.34896
▁က	-7.37297
ရေး	-7.40901
အတွက်	-7.41889
အရှေ့	-7.42023
▁ရက်။	-7.45696
()	-7.46936
▁ရှိသည်။	-7.5025
များသည်	-7.50634
ဝ	-7.5108
တ	-7.51386
▁ဤ	-7.51976
သူ	-7.53098
တော်	-7.5379
လာ	-7.53894
မြို့	-7.53921
ကြသည်။	-7.54271
▁သို့မဟုတ်	-7.57041
▁အခြား	-7.59483
တို့ကို	-7.59759
အောင်	-7.60686
များနှင့်	-7.61576
များတွင်	-7.63029
▁မြန်မာနိုင်ငံ	-7.63727
စ	-7.64492
▁စစ်ကိုင်း	-7.65703
'	-7.65712
တို့သည်	-7.6704
ခရိုင်၊	-7.70675
ကုန်းရွာ၊	-7.71824
▁ဟု	-7.71833
၃	-7.72647
ခြင်း၊	-7.72656
▁မြန်မာ	-7.73315
တာ	-7.73368
တို့၏	-7.73507
၏။	-7.73872
လ	-7.74161
ဦး	-7.74998
▁မန္တလေး	-7.77274
▁&	-7.7807
”	-7.79469
▁မှ	-7.79692
▁ယင်း	-7.79796
ခဲ့ပြီး	-7.80157
လျှင်	-7.80806
▁၂	-7.81009
လေသည်။	-7.82493
▁the	-7.82926
ခ	-7.83324
▁သို့သော်	-7.84223
▁ရက်နေ့တွင်	-7.84316
ပုံ	-7.84557
ကား	-7.84728
▁၏	-7.85174
လေး	-7.85307
နေ	-7.85453
▁ရေ	-7.85535
ပေါင်း	-7.86387
▁“	-7.87034
ြီး	-7.87233
သ	-7.88589
▁အဖြစ်	-7.89175
▁၁	-7.90247
အနောက်	-7.90289
ခဲ့ကြသည်။	-7.91077
များ၊	-7.91172
▁နှစ်	-7.9127
▁ပဲခူးတိုင်းဒေသက	-7.91705
ဖြစ်သော	-7.91951
နီ	-7.92604
၄	-7.93647
မင်း	-7.94474
လျက်	-7.95054
စွာ	-7.95258
▁တ	-7.95277
သား	-7.95366
နိုင်သည်။	-7.96116
▁နေထိုင်သည်။	-7.97039
▁၃	-7.97924
▁အမေရိကန်	-7.9883
ကုန်း	-7.99723
ဆိုင်ရာ	-7.99938
သဖြင့်	-8.00044
▁of	-8.001
အတွင်း	-8.00544
ချောင်း	-8.01387
ကြောင့်	-8.02759
▁'	-8.0296
၅	-8.02979
တစ်ခု	-8.03144
▁လူ	-8.03296
▁၄	-8.03823
ရေ	-8.03832
များမှာ	-8.03951
ထက်	-8.04934
နိုင်	-8.0587
▁မကွေး	-8.06483
▁ခုနှစ်၊	-8.06503
ထားသော	-8.06601
ရှိသည်။	-8.06688
ပ	-8.07132
နာ	-8.07527
ရသည်။	-8.0827
ဖြစ်	-8.09203
ဖြစ်ပြီး	-8.09622
▁သူ၏	-8.10142
▁Ward	-8.10341
စီ	-8.11306
း	-8.11457
ကြောင်း	-8.11855
အထိ	-8.12905
နိုင်ငံ	-8.13224
▁ကျိုင်းတုံ	-8.1328
▁သည်။	-8.13371
ပြီးနောက်	-8.13376
▁စတင်	-8.1449
မျိုး	-8.14575
တိုင်း	-8.1461
▁ရှိ	-8.1466
တဲ့	-8.14903
▁ရွှေ	-8.15274
:	-8.16081
ခဲ့သော	-8.16286
▁နိုင်ငံ	-8.16911
များ၏	-8.1719
ခေါ်	-8.17389
ရင်း	-8.17605
ကောင်း	-8.17725
နှစ်	-8.18023
တင်	-8.1837
▁အမှတ်	-8.18513
ကန်	-8.18568
▁၅	-8.19501
;/	-8.19855
လေ	-8.20267
▁ရက်	-8.20903
အရ	-8.21083
တစ်	-8.216
စ်	-8.22043
ရာတွင်	-8.22267
သွား	-8.23119
2	-8.23166
မူ	-8.24385
တန်း	-8.24921
▁တောင်	-8.25129
နေသော	-8.25393
▁အဓိက	-8.25521
▁အသက်	-8.25908
သစ်	-8.26066
ထားသည်။	-8.26095
နဲ့	-8.26293
▁ပြန်လည်	-8.26513
စာ	-8.26587
▁ဒုတိယ	-8.26707
▁သော	-8.26956
သုံး	-8.27393
▁။	-8.27585
ကျွန်း	-8.28489
ထား	-8.28497
ဝါ	-8.29124
န	-8.29126
လ်	-8.29494
▁Town	-8.30375
တွေ	-8.30513
3	-8.31023
ပေါက်	-8.31083
တိုက်	-8.31495
လုံး	-8.31626
စား	-8.32136
ကျော်	-8.32166
လို	-8.32596
▁အမျိုးသား	-8.32731
ပေး	-8.32825
၆	-8.33146
ဟာ	-8.33574
ဂ	-8.33652
ဝင်	-8.34183
မာ	-8.342
ကိုလည်း	-8.34538
လိုက်	-8.34689
ခံ	-8.34819
သော်လည်း	-8.34836
▁၎င်း	-8.35472
▁ထို့နောက်	-8.35576
တော	-8.36209
့	-8.3623
▁၆	-8.36833
▁အလွန်	-8.37549
၇	-8.37979
▁ဖြစ်	-8.3869
ရှင်	-8.39456
ဟူ၍	-8.39568
လီ	-8.39628
တို	-8.39842
ကျောင်း	-8.39901
1	-8.40402
▁မင်း	-8.40421
4	-8.40909
ကျ	-8.41356
▁−	-8.41397
ရီ	-8.41406
▁တစ်	-8.41559
ရှိသော	-8.41974
▁ခု	-8.42026
ခဲ့	-8.42233
▁တည်ရှိသည့်	-8.42373
လက်	-8.4243
သောအခါ	-8.42616
အားဖြင့်	-8.42633
ပြင်	-8.4265
ဘဲ	-8.42959
5	-8.43533
ကြ	-8.43693
▁ပထမဆုံး	-8.4391
တို့တွင်	-8.44083
▁and	-8.44229
▁ဤရွာ	-8.44676
▁၁၀	-8.44805
▁စီးပွားရေး	-8.44912
ကလေး	-8.45065
▁အတွက်	-8.45345
ချက်	-8.4573
သည်ဟု	-8.45841
▁၇	-8.45861
e	-8.4589
ဖြစ်၍	-8.46067
စု	-8.46204
မီ	-8.46355
များက	-8.46377
တက်	-8.46805
▁လ	-8.46826
ငယ်	-8.47101
6	-8.47149
မြို့တွင်	-8.47202
▁အစိုးရ	-8.47845
▁ထို့ကြောင့်	-8.47956
▁အိမ်	-8.48044
▁လက်	-8.48332
မိ	-8.48513
▁ပထမ	-8.48921
လူ	-8.49354
ပန်း	-8.49671
များဖြင့်	-8.49695
ပြန်	-8.49962
▁ဂျပန်နိုင်ငံ၊	-8.50006
ခဲ့လေသည်။	-8.50142
▁ကျောက်	-8.5043
ရက်	-8.50804
စုရွာ၊	-8.50988
ဒ	-8.51122
▁ပေ	-8.51347
▁သူသည်	-8.51361
▁နိုင်ငံရေး	-8.51432
▁၁၅	-8.51602
ခြင်းကို	-8.51703
ဘ	-8.51843
ရွှေ	-8.51939
ကွင်း	-8.52047
▁ထိုသို့	-8.52271
8	-8.52375
▁စ	-8.52454
▁ရ	-8.52572
ဒီ	-8.5263
▁မတ်လ	-8.52681
ချင်း	-8.52706
▁နောက်	-8.53385
မျှ	-8.5343
▁ရန်ကုန်	-8.53615
တိုင်	-8.53775
ပြီးလျှင်	-8.53935
၈	-8.54241
ကဲ့သို့	-8.54291
▁အထိ	-8.54609
▁စစ်	-8.54649
စစ်	-8.55216
▁တို့	-8.55228
▁ပြည်ထောင်စု	-8.55527
▁ရပ်ကွက်	-8.56043
▁ရေး	-8.56281
▁နေ	-8.56324
ရင်	-8.56389
တော့	-8.56481
ဖြူ	-8.56583
7	-8.56589
ယူ	-8.56623
y	-8.56662
▁ပ	-8.5712
တပ်	-8.5714
▁ပါဝင်	-8.57349
ပဲ	-8.57359
ဆင်	-8.574
နည်း	-8.57557
လှ	-8.57814
အောက်	-8.57916
များအား	-8.58097
▁မိမိ	-8.58394
တန်	-8.58762
▁၁၂	-8.58764
▁တိမ်ကောသွားပြီ	-8.59151
9	-8.59432
0	-8.59535
လူဦးရေစုစုပေါင်း	-8.59725
▁ကျော်	-8.59925
t	-8.59964
▁ငါး	-8.60072
မှုကို	-8.6011
နယ်	-8.6031
လမ်း	-8.60968
▁၁၄	-8.6176
▁ကချင်ပြည်နယ်၊	-8.61858
မြေ	-8.61892
▁၈	-8.61926
စဉ်	-8.62403
▁ခေါ်	-8.62501
▁ဆောင်ရွက်	-8.62648
ရိုး	-8.62741
ဆုံး	-8.62788
▁၃၀	-8.63424
▁တရုတ်	-8.63515
၁၈	-8.63612
ဒါ	-8.63642
▁ဝ	-8.63988
▁နေရာ	-8.64083
သံ	-8.64092
▁နောင်	-8.64286
ရပ်ကွက်	-8.64386
▁အား	-8.64441
▁အင်္ဂလိပ်	-8.64503
ထားသည့်	-8.64604
▁ဖြစ်ပြီး	-8.64631
▁အသုံးပြု	-8.65001
စေ	-8.65142
▁=	-8.65405
▁ဆရာ	-8.66395
ယာ	-8.66587
မှုများ	-8.66737
▁ဘူတာတစ်ခု	-8.67082
▁နိုင်ငံတော်	-8.67241
ပေါ်	-8.67255
နား	-8.67427
ပြု	-8.67472
ခန့်	-8.67994
▁ပါဝင်သည်။	-8.68092
▁A	-8.6817
▁ကျောင်း	-8.68208
ခဲ့သည့်	-8.68244
ဆို	-8.68255
ခွဲ	-8.68341
▁၂၅	-8.68503
ယ	-8.68559
ချောင်းရွာ	-8.68764
▁၂၄	-8.68769
တီ	-8.6954
▁ကိုယ်ပိုင်	-8.69907
၁၉	-8.70179
ထွက်	-8.7043
ဆောင်	-8.70623
၁၂	-8.70691
ပိုင်း	-8.70757
▁တက္ကသိုလ်	-8.70784
▁သို့	-8.70839
▁အဲခိ	-8.71075
▁သုံး	-8.71304
▁မြေ	-8.71439
တူ	-8.71616
▁အာ	-8.71648
တို့က	-8.71655
▁၁၁	-8.7176
ဘုရား	-8.72023
အဖွဲ့	-8.72074
)"	-8.72248
သော်	-8.72323
▁ပါ	-8.72378
သောကြောင့်	-8.7252
▁၉	-8.7267
ခဲ့ရာ	-8.72744
ချ	-8.72797
▁စာ	-8.72913
၉	-8.73186
▁ပြုလုပ်	-8.73246
များမှ	-8.73496
▁စိတ်	-8.73917
ပေ	-8.74068
▁အချို့	-8.7407
ဆာ	-8.741
ရပ်	-8.74388
ပေါ်တွင်	-8.744
▁ကောင်း	-8.74656
ခေတ်	-8.74657
▁မဟာ	-8.7493
▁ဘုရား	-8.74983
▁ဆက်လက်	-8.75344
▁ဆင်	-8.75403
လုပ်	-8.7541
ပြ	-8.75856
ဒေသ	-8.76197
▁မိုင်	-8.7652
▁ပန်	-8.76615
နိုင်သော	-8.76641
▁အတွင်း	-8.76847
ing	-8.76875
ရာ၌	-8.76939
▁The	-8.77112
▁၂၂	-8.77124
ရဲ့	-8.77217
ဆေး	-8.77265
▁ကမ္ဘာ့	-8.77299
၁၀	-8.77303
သည်လည်း	-8.77349
▁in	-8.77633
ဆန်	-8.77734
▁ဝင်ရောက်	-8.77919
ထ	-8.78233
▁၂၃	-8.78277
▁ထို့ပြင်	-8.78455
လို့	-8.78484
လုပ်ငန်း	-8.78515
▁များ	-8.78544
in	-8.78565
▁အထူး	-8.78607
စေရန်	-8.79008
ခုနှစ်တွင်	-8.79021
ဟောင်း	-8.79156
▁၂၇	-8.79321
▁မောင်	-8.79695
▁၁၆	-8.80007
▁")	-8.80196
▁S	-8.80342
▁သူ	-8.8052
တတ်	-8.80575
▁No	-8.80643
ဘာ	-8.80817
ပွဲ	-8.80851
ကုန်	-8.80958
အို	-8.81318
▁ရုပ်ရှင်	-8.81357
駅	-8.81382
▁၂၆	-8.81456
ဆီ	-8.81514
▁ခန့်	-8.81578
ဆ	-8.8161
စိတ်	-8.82263
o	-8.82488
ဇ	-8.82602
▁လေ	-8.82667
▁နား	-8.82948
▁သူ့	-8.8353
ကျောက်	-8.83617
ချိန်	-8.83896
▁ထိုအခါ	-8.84077
၁၁	-8.8438
▁မေလ	-8.8447
နေရာ	-8.84488
သီး	-8.8456
ခဲ့ရသည်။	-8.84852
ထုတ်	-8.8492
’	-8.8498
လဲ	-8.85246
မန်	-8.85308
လျက်ရှိသည်။	-8.85357
နှင့်အတူ	-8.85948
▁ဂျပန်	-8.86129
န်	-8.86134
မည့်	-8.86262
ဟန်	-8.86348
▁မြို့	-8.8636
▁အရှင်	-8.86377
ဖြစ်သည့်	-8.86474
▁နမ့်	-8.86749
▁ကရင်ပြည်နယ်	-8.8693
▁တနင်္သာရီ	-8.8709
သိ	-8.8715
▁သမိုင်း	-8.87168
၁၅	-8.87281
ဖို့	-8.87449
ခုနှစ်	-8.87547
al	-8.88507
▁အခြေခံ	-8.88614
▁ငွေ	-8.88638
ချုပ်ခွင့်ရဒေသ	-8.88975
▁ရေးသား	-8.89155
▁ဒီ	-8.89308
▁to	-8.89322
များအတွက်	-8.89373
မြင့်	-8.89715
နိုင်ရန်	-8.89728
▁တစ်ခု	-8.89839
▁သံ	-8.90059
ကြား	-8.90233
▁အောက်	-8.90364
▁ပန်း	-8.90402
ရသော	-8.9072
လင်း	-8.90783
ခင်	-8.90791
▁ဧပြီလ	-8.90893
▁နတ်	-8.90986
▁သို့ရာတွင်	-8.90993
လေ့ရှိသည်။	-8.90998
ပန်	-8.91095
▁ရှင်	-8.91185
ခဲ့၏။	-8.91323
▁ရက်တွင်	-8.91381
ပညာ	-8.91486
ထိ	-8.9159
▁၂၈	-8.91611
တွင်း	-8.91708
▁အဆိုပါ	-8.918
စက်	-8.9189
ဆက်	-8.91899
▁ပညာ	-8.91917
n	-8.92247
▁လုပ်ငန်း	-8.92311
အနေဖြင့်	-8.92353
ပိုင်	-8.92402
er	-8.92443
လူမျိုး	-8.9268
အတိုင်း	-8.92747
အပေါ်	-8.92749
▁၂၀	-8.92766
▁ရောက်	-8.92773
မြစ်	-8.92826
▁ဗြိတိသျှ	-8.92869
▁ကိုယ်ပိုင်အုပ်	-8.92877
လောက်	-8.92923
▁မန်	-8.93074
၁၄	-8.93248
▁ဇွန်လ	-8.93251
ဟူသော	-8.93535
၂၀	-8.93832
မည်	-8.93846
၁၃	-8.93918
▁a	-8.93925
ဘူတာ	-8.94016
၁၆	-8.9402
ငွေ	-8.94125
▁မိုင်းပျဉ်း	-8.94143
သေ	-8.94149
S	-8.94167
▁မိုး	-8.9432
ပါက	-8.94389
ဖ	-8.94404
53"	-8.94528
▁စာပေ	-8.94544
▁ဖြစ်၏။	-8.94588
လုံ	-8.94733
▁C	-8.9479
52"	-8.95068
၁၇	-8.95243
61"	-8.95424
▁ဖွဲ့စည်း	-8.95594
54"	-8.95661
နို	-8.95728
▁ပိုမို	-8.95821
85"	-8.95862
51"	-8.95961
မီး	-8.95979
▁ဩဂုတ်လ	-8.95997
စေသည်။	-8.96138
87"	-8.96173
48"	-8.96222
63"	-8.96237
▁၁၃	-8.96267
▁သန်း	-8.96302
▁ဟူ၍	-8.96463
စနစ်	-8.96503
▁သမ္မတ	-8.9658
65"	-8.9661
46"	-8.96682
ခြင်းနှင့်	-8.9675
ရစ်	-8.96804
99"	-8.96867
67"	-8.96976
▁လေး	-8.97052
နတ်	-8.97097
03"	-8.97101
55"	-8.97125
%	-8.97219
59"	-8.97226
42"	-8.97333
69"	-8.97337
တည်း	-8.97402
09"	-8.97427
▁ယခုအခါ	-8.9743
29"	-8.97495
16"	-8.97503
မောင်	-8.97512
83"	-8.97527
73"	-8.97531
30"	-8.9762
79"	-8.97644
သူများ	-8.97662
62"	-8.9772
12"	-8.97737
28"	-8.97743
94"	-8.97785
19"	-8.97827
33"	-8.97836
86"	-8.98013
70"	-8.98014
39"	-8.98015
72"	-8.98029
60"	-8.98035
40"	-8.98051
14"	-8.98078
43"	-8.98095
ဝန်	-8.98157
64"	-8.98157
36"	-8.98213
44"	-8.98233
47"	-8.98293
04"	-8.98309
10"	-8.98348
နောင်	-8.98356
15"	-8.984
i	-8.98403
89"	-8.98433
78"	-8.98434
68"	-8.98518
24"	-8.98541
57"	-8.98545
ရောက်	-8.98551
50"	-8.98588
▁စသည့်	-8.98614
95"	-8.98633
23"	-8.98729
07"	-8.98738
လာသည်။	-8.98746
32"	-8.98759
45"	-8.98772
35"	-8.9882
ဖြစ်၏။	-8.98827
ထဲတွင်	-8.98909
နန်း	-8.98911
ခွင့်	-8.98982
49"	-8.9903
41"	-8.99053
ထိုး	-8.99069
82"	-8.99085
ရည်	-8.99097
▁ပြောင်းလဲ	-8.99109
80"	-8.99109
75"	-8.99142
31"	-8.99153
76"	-8.99194
71"	-8.99251
81"	-8.99319
13"	-8.9934
21"	-8.99421
08"	-8.99456
02"	-8.99459
93"	-8.99466
88"	-8.9949
01"	-8.99505
▁အိန္ဒိယ	-8.99531
77"	-8.99568
97"	-8.99583
မြန်မာ	-8.99615
▁မီး	-8.99647
58"	-8.9972
96"	-8.99743
37"	-8.99809
74"	-8.99881
▁ယဉ်ကျေးမှု	-8.99927
11"	-8.99935
18"	-8.99956
၀၀၀	-8.99979
▁ဟူသော	-8.99985
ခု	-9.0002
25"	-9.00056
90"	-9.001
92"	-9.00202
66"	-9.00219
ဆု	-9.00362
38"	-9.00424
27"	-9.00426
20"	-9.00442
▁တော်	-9.00575
▁ယခု	-9.00663
▁ဇန်နဝါရီလ	-9.00749
▁ဆေး	-9.00758
▁၁၈	-9.0077
ပြည်နယ်	-9.00774
98"	-9.00893
06"	-9.01022
05"	-9.01052
ပါ။	-9.01063
▁ဝမ်	-9.01102
34"	-9.01188
ပြည်	-9.01204
22"	-9.01381
91"	-9.01405
ဇာ	-9.01441
ed	-9.01503
84"	-9.0152
▁လွိုင်လင်ခရိုင်	-9.01565
မိုး	-9.01622
ဆရာတော်	-9.01648
c	-9.01672
T	-9.01784
▁၎င်း၏	-9.01879
▁ဤသို့	-9.02098
ကုန်းရွာ	-9.02244
56"	-9.02415
▁သွား	-9.02546
▁သား	-9.02574
▁H	-9.0263
26"	-9.0268
▁အောင်	-9.02719
▁မြန်မာ့	-9.02835
အင်း	-9.02942
▁သာယာဝတီခရိုင်	-9.0296
br	-9.02968
အကြောင်း	-9.02994
လေ့	-9.03064
အိုင်	-9.03083
▁တော	-9.03124
ခန်း	-9.03179
▁ဥပဒေ	-9.03201
▁ဖြစ်ကြသည်။	-9.03233
များစွာ	-9.03314
ဟ	-9.03456
x	-9.03494
▁ပြည်နယ်	-9.03596
ရဲ	-9.03603
17"	-9.03772
▁ပြန်	-9.03783
ရန်အတွက်	-9.04112
B	-9.04124
▁ဆို	-9.04242
တရား	-9.04294
ပစ်	-9.04401
▁ဖေဖော်ဝါရီလ	-9.04596
ပါး	-9.05062
တို့မှ	-9.05228
00"	-9.05308
အုပ်ချုပ်ခွင့်ရ	-9.05314
▁ဇူလိုင်လ	-9.0536
▁များစွာ	-9.05472
▁အထက်	-9.05483
▁လုပ်	-9.05582
ကင်း	-9.05744
▁တိုက်ခိုက်	-9.05762
နက်	-9.05841
▁၂၉	-9.05941
▁အောက်တိုဘာလ	-9.06166
လယ်	-9.06233
သန်း	-9.06361
▁စက်တင်ဘာလ	-9.06373
ရမည်။	-9.06385
ရို	-9.06521
ခြင်းဖြင့်	-9.06526
စီး	-9.06626
▁ဒေသ	-9.06699
ဘုရင်	-9.06735
ဘက်	-9.06759
▁ဒီဇင်ဘာလ	-9.06879
အိမ်	-9.06979
ဥ	-9.06984
▁ခ	-9.07054
ဗ	-9.07364
▁ဒေါ်	-9.07435
▁ဆိုသည်။	-9.07438
▁င	-9.07627
နိုင်ခဲ့သည်။	-9.07982
ရှာ	-9.08186
နောက်	-9.08355
▁အကြောင်း	-9.08444
အာ	-9.0856
ဝင်း	-9.0858
ချီ	-9.08713
်	-9.08755
မဲ	-9.08897
ပုံစံ	-9.09114
▁တွေ့ရသည်။	-9.09186
များကိုလည်း	-9.09453
▁ဖြင့်	-9.09457
▁စသော	-9.09557
▁မည်သည့်	-9.09585
▁ကန်	-9.09746
▁အချိန်	-9.09757
▁သိ	-9.09874
ကူး	-9.10097
ပါသည်။	-9.10162
▁နောက်ဆုံး	-9.10283
▁B	-9.1031
ဆရာ	-9.10406
သည့်အခါ	-9.10462
ငှက်	-9.1055
ဆိုင်	-9.10661
▁လည်းကောင်း၊	-9.10747
ဂါ	-9.10848
▁ဘ	-9.10939
စကား	-9.10946
ဒ်	-9.11038
▁အမျိုးသမီး	-9.11128
တွင်လည်း	-9.1122
▁နိုဝင်ဘာလ	-9.11276
▁၁၉	-9.11653
၃၀	-9.11714
ရှည်	-9.11767
ကျမ်း	-9.11995
A	-9.11998
▁ပြု	-9.12017
ပတ်	-9.12038
▁‘	-9.12106
▁အင်	-9.12218
▁သက္ကရာဇ်	-9.12329
m	-9.12363
▁အထူးသဖြင့်	-9.12599
နေသည်။	-9.12773
▁တရား	-9.12827
အထက်	-9.12943
▁စိုက်ပျိုး	-9.13087
ဝမ်	-9.1322
ရုံ	-9.13249
တိုင်း၊	-9.13428
တို့နှင့်	-9.13742
ငါး	-9.13843
a	-9.13892
သုတ်	-9.13989
▁ဥ	-9.14064
လွယ်	-9.14139
တို့မှာ	-9.14411
▁သွေး	-9.14436
ခဲ့သော်လည်း	-9.14443
ရောင်	-9.14451
r	-9.14479
▁ဆိုသည်မှာ	-9.14612
▁ကလေး	-9.14738
ရော	-9.14745
တတ်သည်။	-9.14789
မှုကြောင့်	-9.14828
▁ရောဂါ	-9.1494
▁မာ	-9.14958
▁ကိုယ်	-9.15042
▁ပို၍	-9.15104
P	-9.1536
ဘာသာစကား	-9.15417
ဖက်	-9.15485
၂၅	-9.15515
နေ့	-9.15621
တို့ဖြင့်	-9.15716
▁စကား	-9.1575
ခဲ	-9.15792
▁နိုင်ငံတကာ	-9.15919
မွန်	-9.15977
▁၃၁	-9.16076
၂၄	-9.16078
▁P	-9.16544
ပါတယ်။	-9.16584
▁လားရှိုးခရိုင်	-9.16624
▁အခြားသော	-9.16739
ကပ်	-9.1676
▁ကွတ်ခိုင်	-9.16789
စံ	-9.16892
▁အမည်	-9.16906
တိုး	-9.16946
ဘီ	-9.17111
▁ရှမ်း	-9.17243
▁အနောက်	-9.1734
▁ဂီတ	-9.17358
▁လေ့လာ	-9.17415
▁ကိုးကား	-9.17514
▁ဝါ	-9.17651
C	-9.17949
ကောင်	-9.18005
▁မြင်း	-9.18042
▁၁၇	-9.1805
▁တပ်မတော်	-9.18219
▁မြောက်	-9.18241
အထူးဒေသ	-9.18249
▁အသံ	-9.18321
မ်	-9.18349
ပို	-9.18455
လိုက်သည်။	-9.18649
ပြား	-9.18755
▁စာအုပ်	-9.1882
တစ်ဦး	-9.18833
▁ဘုရင်	-9.1886
▁ပြော	-9.19031
▁သတ်မှတ်	-9.19115
အုပ်	-9.19215
လောင်း	-9.19622
▁ဗိုလ်ချုပ်	-9.19757
▁န	-9.19802
▁တိုက်	-9.1984
▁ပြည်သူ့	-9.19861
မဲ့	-9.19995
▁K	-9.20023
ာ	-9.20085
လာခဲ့သည်။	-9.20105
▁သစ်	-9.20138
နေသည့်	-9.20142
များလည်း	-9.20202
▁ဒေါက်တာ	-9.20207
▁၁ဝ	-9.20222
င	-9.20278
▁လမ်း	-9.20578
▁ဗိုလ်	-9.20595
တက္ကသိုလ်	-9.20694
▁မူလ	-9.20695
▁ယူ	-9.20726
▁ဆ	-9.20727
▁ရာခိုင်နှုန်း	-9.20801
ဖူး	-9.20909
ဘဝ	-9.21054
▁ပညာရေး	-9.21064
အပြင်	-9.21119
ကြ၏။	-9.21175
ံ	-9.21205
▁တာ	-9.21235
ညို	-9.21257
ထောင်	-9.21331
အိုး	-9.21342
▁ဘဝ	-9.21421
ဝေ	-9.21452
id	-9.21453
ပစ္စည်း	-9.21479
ချုပ်	-9.21572
မိုင်	-9.21578
▁အများဆုံး	-9.21774
▁သခင်	-9.21779
▁ခေါင်းဆောင်	-9.21808
တ်	-9.21815
▁ပြင်သစ်	-9.21899
ကွဲ	-9.22064
ရှိပြီး	-9.22142
▁ထို့အပြင်	-9.22179
▁ပေါက်	-9.22315
▁တရားဝင်	-9.22487
▁နေထိုင်	-9.22566
ကံ	-9.22822
ကာလ	-9.22888
ခေါင်း	-9.22911
လင်	-9.22983
▁နန်း	-9.2301
ရောဂါ	-9.23142
ည	-9.23148
E	-9.23155
▁သဘာဝ	-9.23209
▁ဖော်ပြ	-9.23254
▁ရန်ကုန်မြို့	-9.23624
▁လုပ်ကိုင်	-9.23793
ခို	-9.23911
▁F	-9.23941
▁ပါတီ	-9.2406
▁အရ	-9.24079
ချင်	-9.24168
အစိုးရ	-9.24264
▁အဖွဲ့ဝင်	-9.24265
ဝါး	-9.24285
▁အလုပ်	-9.24313
မှစ၍	-9.24331
ကလည်း	-9.24334
▁ရွေးချယ်	-9.24534
▁ဥက္ကဋ္ဌ	-9.24654
▁မျိုး	-9.24724
စိန်	-9.2485
▁လက်ရှိ	-9.24854
မှာလည်း	-9.24978
▁ကျန်	-9.24987
▁NGC	-9.25049
ရုံး	-9.25149
တို့အား	-9.25195
လွန်	-9.25288
▁ရရှိခဲ့သည်။	-9.25389
▁ပြည်	-9.25443
တော်မူ	-9.25753
▁ကျောင်းသား	-9.25846
အေး	-9.25884
တံ	-9.25944
နိုင်သည့်	-9.2609
▁Ma	-9.26246
▁ပြည်ခရိုင်	-9.26354
မော်	-9.26445
▁စက်	-9.26512
လန်	-9.26552
ပူ	-9.2676
▁မိုင်းမော	-9.26763
က်	-9.26777
မယ်	-9.26842
ဘာသာ	-9.26872
တွဲ	-9.27079
▁ကမ္ဘာ	-9.27125
၂၆	-9.27138
ပြည်ထောင်စု	-9.27446
လည်	-9.27529
ထံ	-9.27642
၄၀	-9.27749
▁ပြည့်နှစ်	-9.2776
၂၃	-9.27808
၂၁	-9.27881
▁တော်လှန်ရေး	-9.2801
▁D	-9.2802
တည်	-9.28043
ဆောင်ရွက်	-9.28091
ဓာတ်	-9.28168
ပီ	-9.28201
▁လည်း	-9.28226
ဌာန	-9.28316
ဖြစ်စေ	-9.28469
စရာ	-9.28512
▁ရှေး	-9.2857
ကြည့်	-9.28583
▁ဆောင်	-9.28707
ဂျီ	-9.28736
ခရိုင်	-9.28738
▁၃၅	-9.28891
▁မြစ်ကြီးနား	-9.2908
သတ်	-9.29089
တန့်ယန်းမြို့နယ်	-9.29627
ကြလေသည်။	-9.29879
▁အုပ်ချုပ်ရေး	-9.29942
▁ပင်လယ်	-9.29947
ရိ	-9.30021
တောင်း	-9.30394
▁တက်	-9.30424
ပါတီ	-9.30499
ကြာ	-9.30608
▁အင်း	-9.30629
မေ	-9.30707
ပြော	-9.30709
▁ဟို	-9.30731
▁၂၀၁၀	-9.3086
မြတ်	-9.30877
ns	-9.30971
▁ခေါ်သည်။	-9.31008
▁ဥရောပ	-9.31013
▁မိုင်းဆတ်	-9.31021
▁ပေး	-9.31029
▁မိမိတို့	-9.31155
g	-9.31186
▁၂၁	-9.31325
▁မော်လမြိုင်	-9.31332
▁ယောက်	-9.31363
၂၈	-9.3139
တိ	-9.31432
▁E	-9.31546
▁လာ	-9.31584
သင်	-9.31839
▁သူတို့	-9.31887
▁များကို	-9.31889
▁M	-9.31892
▁ပါဝင်သော	-9.31906
ထွန်း	-9.31953
တီး	-9.32051
▁ဆာ	-9.32088
▁ကာ	-9.32123
၂၉	-9.32133
အဆင့်	-9.32205
ဆိုသည်မှာ	-9.32255
K	-9.32257
▁မဲ	-9.32298
အပြည်ပြည်ဆိုင်ရာ	-9.324
▁ကျန်းမာရေး	-9.32619
▁ပင်လောင်း	-9.32624
ရေးသား	-9.32627
▁ဗဟို	-9.32713
▁ပေါင်း	-9.32907
▁လက်ခံ	-9.32947
▁ပုံ	-9.33038
မတ်	-9.33056
နု	-9.33115
▁ဂ	-9.33147
စာပေ	-9.33276
▁ရှိပြီး	-9.33306
▁အဆင့်	-9.33333
L	-9.33365
ခါ	-9.33451
▁အပင်	-9.33462
ထားပြီး	-9.33481
ဆင်း	-9.3351
ဝိုင်း	-9.33511
၂၇	-9.33815
▁ထည့်သွင်း	-9.3385
၀	-9.33948
▁အို	-9.3401
စင်	-9.34055
▁ဝါး	-9.34067
စပ်	-9.34108
▁အမျိုးအစား	-9.3411
သကဲ့သို့	-9.34121
▁တို့ကို	-9.34129
▁အဖွဲ့	-9.34444
၂၂	-9.34629
ရွက်	-9.34882
▁နောက်ပိုင်းတွင်	-9.35126
▁အရှေ့	-9.35263
အမှတ်	-9.35266
ကောက်	-9.35365
▁ပြည်တွင်း	-9.3543
▁ချင်းပြည်နယ်၊	-9.35435
▁တောင်ငူခရိုင်၊	-9.35568
စေခဲ့သည်။	-9.35657
ကူ	-9.35772
▁ပဲခူးခရိုင်	-9.35857
ဆန်း	-9.35898
ရက်နေ့တွင်	-9.3599
▁သီပေါမြို့နယ်	-9.36079
သီ	-9.36135
လည်းကောင်း၊	-9.36208
▁ကရင်	-9.36247
▁သမိုင်းကြောင်း	-9.36265
တောရွာ	-9.36362
▁ကုန်း	-9.36488
▁ကျ	-9.36495
▁မြို့တော်	-9.36585
▁တပ်	-9.36603
▁အောင်မြင်	-9.3661
ရိုက်	-9.36626
ခြင်းဖြစ်သည်။	-9.3664
▁ကွန်ပျူတာ	-9.36641
မြို့၊	-9.36733
ဆွဲ	-9.36736
ပျက်	-9.36809
▁ဝက်	-9.36813
▁ပအိုဝ်း	-9.36865
▁ဝင်	-9.36942
အင်	-9.36971
ဖွယ်	-9.37011
▁ဝန်ကြီးချုပ်	-9.37021
▁အမျိုးမျိုး	-9.37045
▁လေသည်။	-9.37128
▁ဖြစ်သော	-9.37166
▁ခုနှစ်မှ	-9.37176
တောင်ကြီးခရိုင်၊	-9.37517
ပါဝင်	-9.37571
ဖြစ်သူ	-9.37577
ပိုး	-9.37599
▁စား	-9.3761
ဒို	-9.37714
▁ဗုဒ္ဓဘာသာ	-9.37761
▁ရာစု	-9.3782
အမည်	-9.37875
များ၌	-9.37978
▁တတိယ	-9.37979
▁တည်	-9.38025
▁ဖြစ်လေသည်။	-9.38076
ဘူး	-9.38109
▁တင်	-9.38276
ကိုယ်	-9.38351
▁အိန္ဒိယနိုင်ငံ	-9.3844
ရှိသည့်	-9.38448
▁သတင်းစာ	-9.38528
▁ငှက်	-9.38585
▁အချို့သော	-9.38593
k	-9.38643
h	-9.38743
F	-9.38797
▁အခန်း	-9.38804
▁metal	-9.38967
▁ကျွန်း	-9.38989
▁အာရှ	-9.39027
သက်	-9.39087
သင့်	-9.39146
ပု	-9.3917
▁ညောင်ရွှေ	-9.39284
▁ထင်ရှားသော	-9.39345
▁ရရှိ	-9.39365
ဆိပ်	-9.39389
ဆိုး	-9.39412
▁ဆရာတော်	-9.39444
▁ခု၊	-9.39498
ထို	-9.39507
]]	-9.39539
▁နာရီ	-9.39578
ဗာ	-9.39731
▁အောက်ပါအတိုင်း	-9.39822
G	-9.39822
▁ရခိုင်	-9.40039
▁မြစ်	-9.4012
▁၃၂	-9.4017
D	-9.40299
▁အပါအဝင်	-9.40329
ကိုသာ	-9.40361
ဘွဲ့	-9.40389
▁အခါ	-9.40433
ခြောက်	-9.40469
ခင်း	-9.40485
▁လွယ်	-9.40515
H	-9.40614
ခဲ့ခြင်း	-9.4086
▁၂၀၁၅	-9.40878
စေတီ	-9.41035
▁ပန်ဆန်း	-9.41092
၅၀	-9.41153
စခန်း	-9.4121
▁မွန်	-9.41266
▁မေ	-9.41312
အသင်း	-9.41328
စုံ	-9.41442
ခြင်းသည်	-9.4164
▁ကျောက်မဲခရိုင်	-9.41799
▁သေ	-9.41802
စော	-9.41901
ထဲသို့	-9.4198
▁၎င်းသည်	-9.42005
▁ဘာသာစကား	-9.42033
ပ်	-9.42073
တစ်မျိုး	-9.42199
▁ဆီ	-9.42219
M	-9.42414
ကော်	-9.42539
ရုပ်ရှင်	-9.42628
▁မှာ	-9.42631
တွေကို	-9.42721
▁သွားရောက်	-9.42756
ဖာ	-9.42939
လစ်	-9.43006
▁ထပ်မံ	-9.43135
p	-9.43149
▁မှတ်တမ်း	-9.43183
စတင်	-9.43184
ပေးခဲ့သည်။	-9.43208
လား	-9.43379
မြင်	-9.43466
ပေသည်။	-9.43472
▁သင်္ဘော	-9.43568
မို	-9.43581
▁၅၀	-9.43632
▁ယခင်	-9.43646
နိ	-9.43758
▁ရက်နေ့	-9.4376
▁တိုင်းရင်းသား	-9.43865
▁ရှေးဟောင်း	-9.43889
ဖြစ်စေ၊	-9.44024
▁ဘာ	-9.44051
▁ကွန်	-9.44105
▁သတင်း	-9.44165
ရသည့်	-9.4419
▁လည်းကောင်း	-9.44205
time	-9.44246
it	-9.44393
၄၅	-9.4462
▁သာ	-9.44707
ထားခြင်း	-9.44718
င်	-9.44727
▁[[	-9.44737
▁ထွက်	-9.44752
ရာမှ	-9.44777
ဝါဒ	-9.44787
▁ကိုယ်စားလှယ်	-9.44828
ကိုင်	-9.44864
▁ပူးပေါင်း	-9.44936
▁သီချင်း	-9.44963
▁နှစ်ပေါင်း	-9.44973
▁မွန်ပြည်နယ်၊	-9.45011
ေ	-9.45188
▁သို့သော်လည်း	-9.45225
▁ဆန်	-9.45255
▁၂၀၁၆	-9.45308
သမား	-9.45311
▁တိုးတက်	-9.45543
▁ဘီစီ	-9.45562
ရ်	-9.45658
▁အင်တာနက်	-9.45759
လည်းကောင်း	-9.4576
▁အနုပညာ	-9.45983
▁တိုင်းပြည်	-9.4601
▁ဘားအံမြို့နယ်	-9.46051
ဝယ်	-9.46176
▁တာဝန်ထမ်းဆောင်	-9.46207
ဖျား	-9.46221
တယ်	-9.46334
ရေးအတွက်	-9.46449
တစ်ခုကို	-9.46462
အနက်	-9.46475
▁ကံ	-9.46521
ဖတ်	-9.46543
သွားသည်။	-9.4659
▁သရုပ်ဆောင်	-9.4661
မရှိ	-9.46761
U	-9.46766
ခြင်းကြောင့်	-9.46885
အပ်	-9.46951
သမိုင်း	-9.46987
အလယ်	-9.47192
အသုံးပြု	-9.47252
▁ခေါင်း	-9.47303
▁မင်းသား	-9.47336
▁ထိုကြောင့်	-9.47466
ခေါင်းဆောင်	-9.47564
ကြီးကို	-9.47624
▁တာဝန်	-9.47885
ကြီးများ	-9.47934
လော	-9.47999
လားရှိုးမြို့နယ်	-9.48047
▁ထောင်	-9.48071
▁သူတို့၏	-9.48201
ယား	-9.48247
ပြုလုပ်	-9.48261
နေစဉ်	-9.48339
▁ပုံစံ	-9.48438
▁၄၀	-9.48455
ရုပ်	-9.48493
ခုံ	-9.48506
၃၃	-9.48612
▁ဗုဒ္ဓ	-9.48726
▁တည်ဆောက်	-9.488
တို့၌	-9.48802
▁မြင်	-9.48818
▁အုပ်ချုပ်	-9.48961
ပန်ခမ်း	-9.48986
▁G	-9.49138
▁အိမ်ခြေပေါင်း	-9.49219
▁မီတာ	-9.49349
▁အကြီးဆုံး	-9.49408
▁၃၃	-9.49495
ဖွဲ့	-9.49521
▁ဆက်	-9.49762
▁စော	-9.49801
▁အနည်းငယ်	-9.50043
၃၆	-9.50122
▁သားတော်	-9.50147
▁လိုက်	-9.50241
တုံး	-9.50302
ပေ။	-9.50333
▁တောင်ကြီး	-9.50337
▁ကား	-9.50358
ကြိုး	-9.50533
▁ကြာ	-9.50589
format	-9.50636
နမ့်	-9.50682
များကြောင့်	-9.50769
▁၂၀၁၁	-9.50865
၃၂	-9.50883
ီ	-9.50972
မြ	-9.50975
▁ရဟန်း	-9.50991
▁ထိုနောက်	-9.51011
▁ချောင်း	-9.51027
▁လူထု	-9.51122
▁၂၀၀၈	-9.5123
ချေ။	-9.51234
သို့မဟုတ်	-9.51294
ဆဲ	-9.51409
▁တိုင်း	-9.51485
▁ခေတ်	-9.51537
တွေ့	-9.51565
▁အလယ်	-9.5157
▁ပစ္စည်း	-9.51584
မှူး	-9.51593
အမျိုးသား	-9.51628
မှန်	-9.51674
၉၈	-9.51712
၉၉	-9.518
▁၁။	-9.51803
▁ပြောင်းရွှေ့	-9.51831
▁ထိုင်းနိုင်ငံ	-9.5192
an	-9.52043
▁ရှိသော	-9.52299
▁ပခုက္ကူခရိုင်	-9.5231
text	-9.52486
ကောင်စီ	-9.52502
▁ကိုယ်တိုင်	-9.52507
▁အက်	-9.52551
ဟို	-9.52624
▁အောက်ပါ	-9.52738
▁ယခင်က	-9.52779
ပေးရန်	-9.5282
▁၎င်းတို့၏	-9.52832
အတွင်းရှိ	-9.52867
ရှိ၍	-9.52887
လာကြသည်။	-9.52942
ဆယ်	-9.52948
ကြည်	-9.53034
အလိုက်	-9.53046
စာအုပ်	-9.5315
|	-9.53233
၈၅	-9.53332
ခြေ	-9.53407
▁အဓိပ္ပာယ်	-9.53454
တစ်ခုဖြစ်သည်။	-9.53542
▁အင်အား	-9.53604
▁ရွှေတောင်	-9.53625
▁ထင်ရှား	-9.5368
လတ်	-9.53697
▁ရွှေဘိုခရိုင်၊	-9.53727
သဘော	-9.53753
သွေး	-9.53778
ပွင့်	-9.53815
▁ပြောင်း	-9.53823
▁ထိန်းသိမ်း	-9.54019
▁အကောင်းဆုံး	-9.54104
ပြည့်	-9.5432
ကြရသည်။	-9.54328
▁များသောအားဖြင့်	-9.5449
၉၅	-9.54502
▁အီ	-9.54525
၃၄	-9.54681
ကြပြီး	-9.54769
ဆောင်ရွက်ခဲ့သည်။	-9.54782
▁ဗ	-9.54786
▁ရှိကာ၊	-9.54824
▁လွိုင်ကော်	-9.54916
ဝိ	-9.55009
တိုက်ခိုက်	-9.55069
▁ပါး	-9.55089
ကန်ရွာ	-9.55131
▁ဟာ	-9.55131
▁ကဗျာ	-9.55161
မျိုးကို	-9.55203
▁လွတ်လပ်ရေး	-9.55212
စိုး	-9.55219
ဘို	-9.55296
တောင်ရွာ၊	-9.55314
သိန်း	-9.5557
▁၂၀၂၀	-9.55598
▁ည	-9.55639
၃၁	-9.55685
မြို့သည်	-9.55775
▁အလုပ်သမား	-9.55803
▁ဥပမာ	-9.55804
၇၅	-9.55828
▁မိသားစု	-9.55958
ပြောင်း	-9.55987
▁တစ်ဦး	-9.56033
▁တည်ထောင်	-9.56185
▁ကီလိုမီတာ	-9.56237
▁ဘားအံခရိုင်	-9.56251
▁ပြောဆို	-9.56268
မင်းသား	-9.56352
၅၉	-9.56393
၈၆	-9.56411
model	-9.56666
O	-9.56674
▁ကင်း	-9.56709
စွဲ	-9.56791
▁၂၀၁၂	-9.56824
ချိန်တွင်	-9.56825
၃၉	-9.56846
▁ဝတ္ထု	-9.56866
▁ကျေးသီးမြို့နယ်	-9.56967
▁အခြေအနေ	-9.5699
အုပ်စု	-9.57082
ချောင်	-9.57091
မဟာ	-9.57133
▁လုံး	-9.57139
▁L	-9.57147
၈၈	-9.57149
▁အရောင်	-9.57207
▁အစိတ်အပိုင်း	-9.57256
၆၉	-9.57297
▁၂၀၁၇	-9.57299
th	-9.5734
အမျိုးအစား	-9.57353
ကိုင်း	-9.57487
▁တွေ့	-9.57588
ထပ်	-9.57685
▁လုပ်ဆောင်	-9.57753
ခဲ့သည်	-9.57757
၉၆	-9.57943
▁တက်ရောက်	-9.5799
ရွာသစ်ရွာ၊	-9.58115
▁အနက်	-9.5812
▁ကာလ	-9.58173
▁I	-9.58184
▁T	-9.58321
▁သီးခြား	-9.58371
▁ကုမ္ပဏီ	-9.58402
တယ်။	-9.58452
▁နှစ်စဉ်	-9.58536
▁စီ	-9.58561
လိ	-9.58884
▁မိမိ၏	-9.5896
သီချင်း	-9.58966
ly	-9.58971
▁၂။	-9.59059
လာသော	-9.59157
stamp	-9.59353
ဖြစ်ကာ	-9.5936
၈၉	-9.59362
▁ဗမာပြည်	-9.59366
၄၂	-9.59387
▁လူမျိုး	-9.59401
ချို	-9.59422
▁တို့သည်	-9.59422
၆၈	-9.59482
သေး	-9.59488
contributor	-9.59512
▁မရှိ	-9.59538
၉၀	-9.59558
▁သမီး	-9.59672
▁မကွေးခရိုင်	-9.59699
ကီ	-9.59731
ကွက်	-9.59985
▁rock	-9.60053
၀၀	-9.60081
▁ကြိုးစား	-9.60145
ဥပဒေ	-9.60194
၎င်း	-9.60243
▁မူဆယ်ခရိုင်	-9.60244
အမျိုးမျိုး	-9.60261
၄၆	-9.60337
▁စိန်	-9.60402
▁ဖြစ်လာ	-9.60438
ကျင်း	-9.60524
ခဲ့သည်ဟု	-9.60575
ကဏ္ဍ	-9.60602
စသော	-9.60638
နီး	-9.60758
▁လွှတ်တော်	-9.60776
ဘုံ	-9.60793
▁အဖွဲ့အစည်း	-9.60796
▁လာရောက်	-9.6084
▁မြန်မာနိုင်ငံ၏	-9.60883
▁သုံးစွဲ	-9.60893
ခတ်	-9.60973
▁ခရိုင်	-9.61125
ခိုင်	-9.61182
ခ်	-9.61315
▁မတ်	-9.61317
▁၃၈	-9.6133
၃၇	-9.6139
ထဲ	-9.61396
ထဲမှ	-9.61399
▁၃၄	-9.61455
▁နိုင်ငံခြား	-9.61462
မန်း	-9.61539
၇၄	-9.61551
▁ဒေါ်လာ	-9.61564
or	-9.61568
ရှိ၏။	-9.61589
▁လက်မ	-9.61593
▁သင်ကြား	-9.61625
▁အရှေ့တောင်အာရှ	-9.61628
ကြီးရွာ	-9.61711
သွင်း	-9.61751
ရလေသည်။	-9.61755
၃၅	-9.61757
တူး	-9.61775
ဝတ်	-9.61808
တဲ	-9.61893
လိပ်	-9.6203
၈၀	-9.62067
l	-9.6211
ချစ်	-9.62111
▁ရှာဖွေ	-9.62136
▁ကော့	-9.62199
ဂူ	-9.62213
▁လက်နက်	-9.62222
▁အသင်း	-9.62229
၄၉	-9.62282
▁ပြည့်နှစ်တွင်	-9.62293
▁ရွေးကောက်ပွဲ	-9.62299
▁မြန်မာပြည်	-9.62349
▁အေ	-9.62356
▁နည်းပညာ	-9.62369
▁ယင်းသို့	-9.62501
ဂို	-9.62503
ရမည်	-9.62565
▁ခြေ	-9.62583
▁လှိုင်းဘွဲ့	-9.62642
ကွန်	-9.62644
▁ပဲခူး	-9.627
ကပင်	-9.6272
▁ပြင်ဦးလွင်	-9.62771
နွယ်	-9.62779
⁠	-9.62806
၅၄	-9.62838
ရှင်း	-9.6288
▁ဆက်သွယ်	-9.62888
၅၇	-9.63005
▁နေ့	-9.63012
▁တီထွင်	-9.63024
တိုင်းဒေသကြီး	-9.63037
▁ဟ	-9.63043
▁ထိုင်း	-9.6305
username	-9.63057
ဇာတ်	-9.63113
▁ရာသီဥတု	-9.63222
▁ဓမ္မ	-9.63243
▁မိုင်း	-9.63295
၅၅	-9.63425
▁ချင်း	-9.63427
လိုင်း	-9.63478
=	-9.63493
▁လျှပ်စစ်	-9.63513
ရယ်	-9.63668
▁၁၉၉၀	-9.63681
စေ့	-9.63812
လွန်း	-9.63849
မည်ဟု	-9.63982
ကျေးရွာ	-9.64
၇၃	-9.6404
ထီး	-9.6408
▁အိုင်	-9.64234
အားကစားပြိုင်ပွဲ	-9.64253
▁for	-9.64254
▁၂၀၀၇	-9.64272
▁ဒုတိယကမ္ဘာစစ်	-9.64298
▁အထွေထွေ	-9.64314
▁ကမ္ဘာပေါ်တွင်	-9.64336
▁ငါ	-9.64342
▁မင်းလှမြို့နယ်	-9.64358
▁အနက်အဓိပ္ပာယ်	-9.64413
]	-9.64482
၇၉	-9.64491
f	-9.64515
ခဲ့ကာ	-9.64648
၆၃	-9.64778
ခဲ့သူ	-9.64785
parent	-9.64835
ra	-9.64901
▁အများအပြား	-9.64918
▁ခုနှစ်အထိ	-9.64971
▁အာဏာ	-9.65001
သာလျှင်	-9.65072
ရှား	-9.65126
အပါအဝင်	-9.65161
▁မြောက်ဘက်	-9.65179
၄၄	-9.65313
▁ထ	-9.65315
▁စနစ်	-9.65411
၀၇	-9.65421
▁တိုက်ရိုက်	-9.65444
▁ရဲ	-9.6551
ဝက်	-9.65557
▁သရက်ခရိုင်	-9.65571
ကြသော	-9.6559
▁အသား	-9.65595
▁ကြောင့်	-9.6562
၆၇	-9.65639
▁အပြင်	-9.65674
▁၂၀၁၃	-9.65676
၇၀	-9.65758
▁ဆောက်လုပ်	-9.65784
u	-9.65789
ကိုး	-9.65822
▁အရွက်	-9.65896
▁၂၀၀၉	-9.65897
၆၄	-9.659
ဤ	-9.65956
၉၂	-9.65957
ပေါင်းများစွာ	-9.65973
▁ဓာတ်	-9.6598
▁တိရစ္ဆာန်	-9.66009
၆၂	-9.66061
မြန်မာနိုင်ငံ	-9.66081
၄၈	-9.66177
▁ညောင်	-9.66306
ဂီတ	-9.66311
၃၈	-9.66331
▁ဒီမိုကရေစီ	-9.66391
▁ထိုစဉ်က	-9.66402
ဿ	-9.66421
▁ပို	-9.6646
▁မိုင်းကိုင်	-9.66538
မှုများကို	-9.66617
တင်း	-9.6671
us	-9.6671
▁မြတ်စွာဘုရား၏	-9.66723
ဈေး	-9.66765
▁အတူ	-9.66796
၀၄	-9.66848
▁ရှာဖွေတွေ့ရှိ	-9.66886
▁ဝန်ကြီးဌာန	-9.66923
▁ဒီဇင်ဘာ	-9.6693
ပေါင်	-9.66959
၉၃	-9.66962
▁မိဖုရား	-9.67024
ကော့	-9.67051
▁ငွေကြေး	-9.67068
ဖို	-9.6707
▁ကောင်းစွာ	-9.67096
ဆိုင်း	-9.67196
ရု	-9.67243
▁အောက်တိုဘာ	-9.67258
▁ဂျာမန်	-9.67263
▁ကာကွယ်	-9.67284
ma	-9.67358
လု	-9.67452
▁R	-9.67473
ရံ	-9.67517
ပြီ	-9.67531
၇၇	-9.67603
▁မိုင်းယန်း	-9.67613
▁၎င်းတို့	-9.67624
မှတ်	-9.67694
▁ကြက်	-9.67724
▁ပြုပြင်	-9.67736
▁ပုဂံ	-9.67769
▁ဖန်တီး	-9.67818
▁ရေးဆွဲ	-9.67856
နှစ်ခု	-9.67892
▁ခြောက်	-9.67897
ဖြစ်သည်	-9.67907
ယို	-9.6797
နံ	-9.67989
▁ဒါရိုက်တာ	-9.68099
et	-9.6817
▁ပြ	-9.68228
၀၉	-9.68406
ဖော်	-9.68476
ပို့	-9.68583
၀၈	-9.68584
၇၈	-9.68643
▁မိတ္ထီလာခရိုင်၊	-9.68654
လေ့လာ	-9.68669
ပေးသည်။	-9.68761
▁၂ဝ	-9.6877
▁ရှိကြသည်။	-9.68908
es	-9.68916
▁ဂေါတမမြတ်စွာ	-9.69052
▁သက်ဆိုင်ရာ	-9.69176
မော	-9.69209
၆၆	-9.69268
▁၃။	-9.6935
▁အိုး	-9.69357
လုပ်ကိုင်	-9.69367
▁ပုဒ်မ	-9.694
▁နွား	-9.69459
ကျောက်ပန်းတောင်း	-9.6947
သည်ကို	-9.6956
၅၂	-9.69563
▁ဖြစ်ပေါ်	-9.69638
ရှ	-9.69701
▁ရဟန်းတို့	-9.69761
၉၇	-9.69844
ကမ္ဘာ	-9.69846
အချိန်	-9.69862
▁ယောင်	-9.69902
▁ချစ်	-9.69967
▁မြောက်ပိုင်း	-9.70031
စိုက်	-9.70089
ဘေး	-9.70198
၈၃	-9.70222
လုပ်ငန်းများ	-9.7027
၈၄	-9.70283
▁နာ	-9.70324
လွတ်	-9.7033
ဇ်	-9.70345
ဗီ	-9.70464
▁စသည်တို့	-9.70562
▁ဖြစ်ပွား	-9.70678
နယ်မြေ	-9.70712
စွန်း	-9.70901
▁ဆား	-9.70976
ကျား	-9.71035
တပ်မတော်	-9.71077
ခေါင်	-9.71112
▁၂၀၁၈	-9.71158
၈၂	-9.71198
▁ဖ	-9.71202
ပြန်သည်။	-9.71224
ကျန်	-9.71296
▁ခုတွင်	-9.71315
▁အင်ဂျန်းယန်	-9.71367
▁၃၆	-9.71506
၅၆	-9.71531
▁တောင်ဘက်	-9.7162
▁၂၀၀၀	-9.71681
ရှမ်း	-9.71805
▁စာရေးဆရာ	-9.71847
▁၃၇	-9.71871
▁N	-9.71939
▁ဆိုဗီယက်	-9.72017
ကလေးများ	-9.72053
ဖြတ်	-9.72154
ယဉ်ကျေးမှု	-9.72162
▁တူ	-9.72199
ဝေး	-9.72253
▁တောင်တွင်းကြီး	-9.72295
အဖွဲ့အစည်း	-9.72303
▁ကြား	-9.7233
▁ဒ	-9.72422
ထူး	-9.72426
▁ကျင်းပ	-9.72473
ရမည့်	-9.72486
▁အမိ	-9.72614
▁ကျောက်တံခါး	-9.72664
▁သဲ	-9.72724
▁ဝန်ကြီး	-9.72861
ခဲ့၍	-9.72897
နေထိုင်	-9.72914
w	-9.72952
မက်	-9.73061
ကော	-9.73085
▁ဟုမ္မလင်း	-9.73114
▁ရှေ့	-9.73124
၅၈	-9.73146
မင်းကြီး	-9.73249
၇၆	-9.73326
၅၃	-9.7335
▁ဆွမ်ပရာဘွမ်	-9.73393
၆၀	-9.73408
မင်	-9.73435
အေ	-9.73464
▁In	-9.73689
မှုနှင့်	-9.73745
▁ထုတ်လုပ်	-9.73749
▁မျက်နှာ	-9.73803
▁သဘော	-9.73906
ဆူ	-9.73929
အားလုံး	-9.73955
ဂိုဏ်း	-9.74007
အိ	-9.74156
ကယ်	-9.74217
▁တာဝန်ယူ	-9.74234
N	-9.74236
▁မင်းဘူးခရိုင်	-9.74352
နှင့်တကွ	-9.74419
▁လုံးဝ	-9.74486
၈၇	-9.74524
Z	-9.74558
လပ်	-9.74569
▁နည်း	-9.74607
အတွင်း၌	-9.74738
စာရင်း	-9.74756
▁မိခင်	-9.7489
▁ရုရှား	-9.74901
▁စသည်ဖြင့်	-9.74953
ညွန့်	-9.75001
တွင်မူ	-9.75064
▁သံတောင်ကြီး	-9.75099
▁အမှုထမ်း	-9.751
▁ဖြစ်လာခဲ့သည်။	-9.75108
ang	-9.75163
▁ရောက်ရှိ	-9.75218
ထင်	-9.75363
မှု၊	-9.75365
၀၆	-9.75394
ပိတ်	-9.75476
အသစ်	-9.7548
▁မူ	-9.75505
▁အသီး	-9.75542
ယောင်	-9.75639
ဓမ္မ	-9.75707
▁အုပ်စု	-9.75708
သဲ	-9.75716
▁ဆုံးဖြတ်	-9.75792
၄၇	-9.75827
▁စက်တင်ဘာ	-9.75865
နစ်	-9.75872
le	-9.75937
▁တို့၏	-9.75969
▁၂၀၀၆	-9.76088
၉၄	-9.76282
▁ဆိုင်ရာ	-9.76332
လူး	-9.76427
ကိန်း	-9.76429
အန်	-9.7645
▁တွေ့ရှိ	-9.76466
▁ဖြစ်ခဲ့သည်။	-9.76588
ခဲ့ကြ	-9.76614
နိုင်ငံ၏	-9.76639
▁ကျုံ	-9.76699
▁လေယာဉ်	-9.7683
▁Ka	-9.76977
▁အနောက်ဘက်	-9.76984
▁၁၉၈၀	-9.76995
▁အမြင့်	-9.77044
ထု	-9.77074
မောင်း	-9.77152
လွှတ်တော်	-9.77215
ကု	-9.77223
el	-9.77246
▁တဖြည်းဖြည်း	-9.77248
▁မက်	-9.77291
ကျောက်မဲမြို့နယ်	-9.7735
▁ကိုး	-9.77391
▁ဖြစ်လာသည်။	-9.77425
on	-9.77436
▁ယူဆ	-9.77517
၄၃	-9.77592
၅၁	-9.77692
▁ပတ်ဝန်းကျင်	-9.77792
ပုံကို	-9.77836
လော့	-9.77897
မြို့တော်	-9.7798
▁ပေါ်	-9.78011
နတ်တလင်းမြို့နယ်	-9.78064
▁မှန်	-9.78064
ပြေး	-9.7815
▁အမည်ဖြင့်	-9.78165
▁ကော်	-9.78172
▁ဝိ	-9.78207
ကြီး၏	-9.78273
စည်း	-9.78308
ဆီး	-9.78344
အစ	-9.78495
မိုင်း	-9.785
▁တောင်ပိုင်း	-9.78562
▁အသီးသီး	-9.78566
ကေ	-9.78589
▁ပျော်ဘွယ်	-9.78614
ဃ	-9.7865
▁လွိုင်လင်	-9.78687
ပြာ	-9.78692
comment	-9.78748
မြို့၌	-9.78764
တေး	-9.78769
▁ပဲ	-9.78786
▁ထိ	-9.78791
▁၄၅	-9.78791
လေ၏။	-9.78797
တစ်ရပ်	-9.78878
▁ရေးသားခဲ့သည်။	-9.78965
▁တရုတ်နိုင်ငံ	-9.7898
ချေ	-9.78988
၀၅	-9.79026
ညီ	-9.79085
▁မွေးဖွား	-9.79161
▁တာချီလိတ်	-9.79172
အချို့	-9.79368
ဖြစ်ကြောင်း	-9.79432
▁ဆယ်	-9.79438
ဖိုး	-9.79555
▁နမ့်စန်မြို့နယ်	-9.79565
▁လှေ	-9.79605
▁မြတ်စွာဘုရားသည်	-9.79616
တား	-9.79706
▁အရှေ့ဘက်	-9.79787
ဖြစ်သည်ဟု	-9.79799
ပညာရှင်	-9.79806
▁ဖြူးမြို့နယ်	-9.79827
ကဲ့သို့သော	-9.79921
ဒင်	-9.7994
▁မန္တလေးမြို့	-9.80063
င့်	-9.80105
ဖွံ့ဖြိုးတိုးတက်	-9.80151
၆၅	-9.80224
ခြင်းများ	-9.80274
▁မော်	-9.8028
စိမ်း	-9.80302
များအနက်	-9.80358
▁ဘာသာရေး	-9.80383
၄၁	-9.80424
ဖွဲ့စည်း	-9.80494
တု	-9.80517
၇၂	-9.80546
တစ်ပါး	-9.80555
လူမျိုးများ	-9.80626
ြန်မာဆိုရိုးစကား	-9.80629
▁ဟိုပုံးမြို့နယ်	-9.80632
▁စိုက်ပျိုးရေး	-9.80655
▁နယ်မြေ	-9.80735
▁နယ်	-9.80868
ဝန်ကြီး	-9.80898
▁U	-9.80917
၆၁	-9.81
သလို	-9.81065
▁သစ်ပင်	-9.81096
▁ဆီဆိုင်မြို့နယ်	-9.81133
ခမ်း	-9.81135
▁သင်	-9.8115
▁၁၉၄၇	-9.8124
▁၁၀၀	-9.81243
ထောက်	-9.8138
ကျင်းပ	-9.81464
▁သိမ်းပိုက်	-9.81514
လောက	-9.81566
ဝတ္ထု	-9.81573
▁သတ္တု	-9.81581
ရှေ့	-9.81687
▁ကျွဲ	-9.81701
▁စေတီ	-9.81706
▁ဂျွန်	-9.81732
ကုမ္ပဏီ	-9.81772
နှုန်း	-9.8181
နာရီ	-9.81848
စိုက်ပျိုး	-9.81883
▁ကြိုး	-9.81944
▁ကုလသမဂ္ဂ	-9.81945
W	-9.81957
▁စာရင်း	-9.81968
▁ပုဂ္ဂိုလ်	-9.81983
▁၎င်းကို	-9.82001
▁ဘာသာ	-9.82027
ရေတာရှည်မြို့နယ်	-9.82043
▁ပန်းချီ	-9.82082
▁ဌာန	-9.82116
▁မကြာခဏ	-9.82187
ကန်ကျေးရွာအုပ်စု	-9.82218
ar	-9.82231
The	-9.8231
များသို့	-9.82346
▁ရာစုနှစ်	-9.82368
▁နိုဝင်ဘာ	-9.82421
▁ဖွဲ့စည်းပုံ	-9.82428
▁ဟံသာဝတီ	-9.82519
▁နောင်ချို	-9.82552
လောင်	-9.82556
▁ဘယ်	-9.82685
အလွန်	-9.82694
▁ဖာ	-9.82698
▁ပြင်ဆင်	-9.82707
▁၁၉၄၅	-9.8273
▁ဇန်နဝါရီ	-9.82746
နန်	-9.82815
▁မြိုင်မြို့နယ်	-9.82823
▁အာဖရိက	-9.8287
လည်းဖြစ်သည်။	-9.82902
ဖန်	-9.82903
နိုင်ငံ၊	-9.82959
▁ဖိလစ်ပိုင်	-9.82968
ပင်ဖြစ်သည်။	-9.83118
▁ဖွင့်လှစ်	-9.83136
ဖြစ်လာသည်။	-9.8316
▁Kone	-9.83174
ခါး	-9.83183
▁အသိအမှတ်ပြု	-9.83238
လန်း	-9.8332
အလုပ်	-9.83495
▁တင်ပြ	-9.83579
▁ဇူလိုင်	-9.83667
▁ဖမ်းဆီး	-9.83745
▁စ၍	-9.83791
▁ပွဲ	-9.83897
တတ်သော	-9.83928
တစ်ယောက်	-9.83935
အရှင်	-9.83947
သော်လည်းကောင်း၊	-9.8396
စေတီတော်	-9.83978
▁အင်ဒိုနီးရှား	-9.84005
▁ရဟန္တာ	-9.84049
▁မြ	-9.84051
အီ	-9.84122
ဒိုး	-9.84135
ခွက်	-9.84153
▁ဂရိ	-9.84162
ကျိုး	-9.84169
ရက်နေ့	-9.84184
▁O	-9.8422
▁ပါလီမန်	-9.84282
▁မိ	-9.8441
ဂျာ	-9.84448
▁ထုတ်ဝေ	-9.84475
▁ရဲဘော်	-9.84482
ကိစ္စ	-9.84485
st	-9.84531
ဝဝဝ	-9.84541
▁ရာထူး	-9.84555
▁ချက်	-9.84557
ကျောင်းတော်	-9.84609
▁မဂ္ဂဇင်း	-9.84687
ဝန်ကြီးဌာန	-9.84712
▁သာမန်	-9.84723
▁မိန်းမ	-9.84785
အက်	-9.84806
na	-9.84844
▁ဖြစ်၍	-9.84865
▁ယုံကြည်	-9.84878
၉၁	-9.84954
▁အစီအစဉ်	-9.84967
▁မိုင်းယောင်း	-9.85029
▁သဲကုန်းမြို့နယ်	-9.85053
လှိုင်	-9.85056
တော်မူသည်။	-9.85205
▁မူဆယ်မြို့နယ်	-9.85236
▁၄။	-9.85272
▁ကျပ်	-9.85323
▁ဖေဖော်ဝါရီ	-9.85346
▁ကျောက်ဆည်	-9.85603
re	-9.85637
▁ထီး	-9.85652
▁ကုန်	-9.85672
ပေါ	-9.85688
▁လောက	-9.85741
မား	-9.85816
▁ပလက်ဝမြို့နယ်	-9.85834
▁မယ်	-9.85861
ဝမ်း	-9.85885
စမ်း	-9.85906
ခွန်	-9.85942
ယင်း	-9.85963
▁သို့တည်းမဟုတ်	-9.85972
▁မြတ်စွာဘုရား	-9.85972
ခဲ့ပြီးနောက်	-9.86008
ပစ္စည်းများ	-9.86035
▁ဦးဆောင်	-9.86074
စီးပွားရေး	-9.8613
ဝန်း	-9.86235
ကင်	-9.86252
ယန်	-9.86264
▁ကျောက်ကြီး	-9.86327
ဒီး	-9.8638
▁ပင်	-9.86403
▁လက်ပံတန်း	-9.8641
▁ပတ်	-9.86438
၇၁	-9.86545
မဟုတ်	-9.8658
ခုနှစ်၊	-9.86592
ကျပ်	-9.866
ပြောဆို	-9.86654
▁အေဒီ	-9.86731
▁တွဲ	-9.86753
များအဖြစ်	-9.86766
▁ကွယ်လွန်	-9.86841
▁ကြိုးပမ်း	-9.86869
▁ပတ်သက်၍	-9.87011
ထောင့်	-9.87034
▁စပါး	-9.87039
▁တန်	-9.87058
▁ဈေး	-9.87079
သိမ်း	-9.87086
▁၄၄	-9.87143
▁မိုးမောက်	-9.8715
▁ပြုစု	-9.87268
▁Ta	-9.87337
ဖ်	-9.87355
▁နာမည်	-9.87379
ic	-9.87416
b	-9.87479
▁ဖြစ်စေ	-9.87483
ia	-9.87498
▁အုတ်	-9.87499
▁ကြောင်း	-9.87504
▁သုတေသန	-9.87558
▁ကုန်းကြမ်း	-9.87576
▁လုံ	-9.87669
တောက်	-9.87673
စောင့်	-9.87705
မွေး	-9.87749
+	-9.8776
သု	-9.87804
ဘက်မှ	-9.8785
ဇင်	-9.87937
အတွင်းသို့	-9.87964
တော်လှန်ရေး	-9.88051
ဉာဏ်	-9.88073
▁၄၂	-9.88098
အရာ	-9.88114
▁၂၀၀၅	-9.88134
သ်	-9.88143
▁ဒါ	-9.88189
▁မံစီမြို့နယ်	-9.8822
▁အင်းဝ	-9.88291
ရေးရာ	-9.883
▁သီရိလင်္ကာ	-9.88332
▁လှုပ်ရှား	-9.88438
သည်မှာ	-9.88468
ပုဂ္ဂိုလ်	-9.88498
ရှု	-9.88513
▁ပေါင်းစပ်	-9.88532
▁ကြိမ်	-9.8856
▁ထုတ်	-9.88608
အုပ်ချုပ်	-9.88618
▁ဘေး	-9.88633
▁မျက်စိ	-9.88756
ဖော်ပြ	-9.88799
▁အကယ်၍	-9.88821
ထိပ်	-9.88837
ကြီးသည်	-9.889
▁မှတ်	-9.88923
ဆစ်	-9.88968
သမ္မတနိုင်ငံ	-9.88982
ော	-9.89005
▁တစ်ယောက်	-9.8913
▁ပေါ်ပေါက်လာ	-9.89163
▁အားလုံး	-9.89172
▁စီမံကိန်း	-9.89234
en	-9.89322
လွင်	-9.8944
▁မင်းသမီး	-9.895
▁ခွေး	-9.89511
▁ကြာအင်းဆိပ်ကြီး	-9.89516
I	-9.89594
▁ဧပြီ	-9.89596
ပယ်	-9.89624
▁လောက်ကိုင်	-9.89631
▁ကန့်ဘလူမြို့နယ်	-9.89633
▁ဆူ	-9.8964
▁ဥယျာဉ်	-9.89724
▁ပြည့်	-9.89748
▁အရည်	-9.89898
▁ဖာပွန်မြို့နယ်	-9.89937
ခဲ့ခြင်းဖြစ်သည်။	-9.90069
▁၂၀၁၉	-9.90142
ကုလား	-9.90235
▁အဲ	-9.90246
R	-9.90268
▁စက်မှု	-9.90303
ကတော့	-9.90502
အခြေခံ	-9.90521
▁mg	-9.90542
ိ	-9.90583
▁ပူ	-9.90597
▁ရတနာ	-9.90605
me	-9.90649
ကစား	-9.90672
▁ပိုး	-9.90729
▁ကုလား	-9.90757
▁မြန်မာနိုင်ငံ၊	-9.9085
▁ပါဝင်ခဲ့သည်။	-9.9087
ထံမှ	-9.9089
▁ငြိမ်းချမ်းရေး	-9.90938
ပြန်လည်	-9.90964
▁ဆရာကြီး	-9.90969
ရ၏။	-9.90971
တရုတ်	-9.91002
တောင်ပိုင်း	-9.91055
ta	-9.91068
▁ရမည်းသင်း	-9.9115
▁စတုရန်းမိုင်	-9.91208
လက်ထက်	-9.9123
▁ပူတာအိုခရိုင်	-9.91305
အပ်သော	-9.91491
၍၊	-9.91517
▁Tha	-9.91535
ရူး	-9.91566
ဘတ်	-9.91566
▁နောက်ပိုင်း	-9.91578
ယော	-9.91601
မြောက်ပိုင်း	-9.91724
▁–	-9.91744
ပင်လယ်	-9.91798
▁လှုပ်ရှားမှု	-9.91823
▁လယ်	-9.91896
လျင်	-9.92013
▁သာသနာတော်တွင်	-9.92079
z	-9.92099
လာပြီး	-9.92136
▁ခရစ်ယာန်	-9.92194
ဏ	-9.92217
ဝဲ	-9.92218
▁အရွယ်	-9.92263
▁စစ်ရေး	-9.92334
▁အသုံးပြုကြသည်။	-9.92346
▁၂၀၀၄	-9.92401
ခိုင်း	-9.92442
▁ကြယ်	-9.92469
ဖွင့်	-9.92672
▁တီးဝိုင်း	-9.92697
▁အေး	-9.92732
▁ကွန်မြူနစ်	-9.92733
နဲ	-9.92738
အကြား	-9.9275
စောင်း	-9.92783
▁ကော့ကရိတ်	-9.92852
▁ရိုးရာ	-9.92869
▁ခွဲခြား	-9.92967
▁သု	-9.92974
▁Pa	-9.9304
ညောင်	-9.93102
▁မဟုတ်	-9.93212
▁၁၉၄၈	-9.93227
တေ	-9.9325
န့်	-9.93256
▁၁၉၆၀	-9.93409
ကတည်းက	-9.93457
ယံ	-9.93483
▁၁၉၈၈	-9.93604
▁ဖခင်	-9.93698
▁ဧက	-9.93829
မြင်း	-9.9388
သမျှ	-9.94003
အုပ်ချုပ်ရေး	-9.94072
▁ဖန်	-9.94079
သုံးစွဲ	-9.94185
▁ဂူ	-9.94196
မြို့သို့	-9.94304
ပိုင်းတွင်	-9.94368
▁is	-9.9442
တိုင်းရင်းသား	-9.94445
▁စပိန်	-9.94479
ရှိရာ	-9.94526
▁ပျက်စီး	-9.9453
▁Gyi	-9.94535
at	-9.94545
▁အော်	-9.94547
သတ်မှတ်	-9.94573
▁ဗန်းမော်ခရိုင်	-9.9463
▁ကစား	-9.94728
ပြင်ရွာ	-9.94755
၀၃	-9.94759
▁အသုံးချ	-9.94769
▁မျှ	-9.94781
▁မိုင်းခတ်	-9.94802
ဖြစ်လေသည်။	-9.94811
▁၁၉၆၂	-9.94835
▁အများအားဖြင့်	-9.94871
▁အဆောက်အအုံ	-9.94922
▁စသည်တို့ကို	-9.95026
▁၄၃	-9.95147
ဖြစ်ပွား	-9.95196
ဟုလည်း	-9.95234
ခဲ့ကြောင်း	-9.95238
▁ရပ်	-9.95285
▁စံ	-9.95341
▁မြင်းခြံခရိုင်	-9.95363
ု	-9.95373
ဖြစ်ခဲ့သည်။	-9.95382
ဗေဒ	-9.95387
အခန်း	-9.95415
ထူ	-9.95421
ထိန်း	-9.95495
ခဲ့သဖြင့်	-9.95513
ခဲ့ပါတယ်။	-9.95591
နင်း	-9.95607
ရီး	-9.95624
မျှသာ	-9.95726
▁ပုံမှန်	-9.95823
ရေးကို	-9.95904
ချာ	-9.95908
စတုရန်းကီလိုမီတာ	-9.95931
ထား၍	-9.95968
▁ဒီဂရီ	-9.9598
▁ရည်ညွှန်း	-9.96073
လမ်းကြောင်း	-9.96105
ကွင်းရွာ	-9.96174
အသက်	-9.96186
▁+	-9.96211
ur	-9.96213
▁မင်္ဂလာ	-9.96244
၈၁	-9.96247
ထွေး	-9.96374
▁ထား	-9.96404
ချက်များ	-9.96456
▁စီး	-9.96505
to	-9.96507
ကျင်	-9.96566
ဗိုလ်	-9.96607
တုံ	-9.96656
ရတနာ	-9.96657
▁နောက်ထပ်	-9.96828
▁မက်မန်းခရိုင်	-9.9689
▁ခေတ်သစ်	-9.96897
▁ကူညီ	-9.96907
▁ကြည့်	-9.96986
အပိုင်း	-9.97032
▁ပညာသင်ကြား	-9.97033
▁2	-9.97056
ရောင်း	-9.97067
▁လူငယ်	-9.97072
▁ဖော်ပြထားသည်။	-9.97088
▁ယောက်ျား	-9.97136
▁ခံယူ	-9.97147
နိုင်ခြင်း	-9.97176
မြဲ	-9.97179
▁သိရှိ	-9.97268
▁ကျမ်း	-9.97385
▁လေဆိပ်	-9.97409
▁သိရသည်။	-9.97425
ရခြင်း	-9.97455
ce	-9.97501
၀၁	-9.97517
▁သက်	-9.97523
▁punk	-9.97525
▁ဆု	-9.97559
▁အတွင်းရေးမှူး	-9.9756
▁မင်းတုန်း	-9.97588
အောင်မြင်	-9.97614
ဘဏ်	-9.9765
လွှာ	-9.97695
ဖေ	-9.97734
NGC	-9.97834
▁ဆွေးနွေး	-9.97864
တံတား	-9.9791
လာသောအခါ	-9.97916
န်း	-9.97936
စဉ်က	-9.9795
▁အစာ	-9.9802
▁၂၀၀၂	-9.98059
▁ခန္ဓာကိုယ်	-9.98076
▁ထိုအချိန်တွင်	-9.98098
ဘိ	-9.98105
အဲ	-9.98172
▁ဟိုပန်မြို့နယ်	-9.98267
မင်္ဂလာ	-9.98297
ထုံး	-9.98305
▁သားသမီး	-9.98306
▁ခရစ်	-9.98352
တည်း။	-9.98359
▁တာချီလိတ်ခရိုင်	-9.98392
ပေးခြင်း	-9.9842
ရေးနှင့်	-9.98476
▁ဝမ်း	-9.98515
၌လည်း	-9.98633
▁ထိုး	-9.98665
▁ချီးမြှင့်	-9.98672
ချက်အရ	-9.98677
▁တစ်ဖန်	-9.9868
▁စစ်ဆေး	-9.98716
▁ဟန်	-9.98728
▁ဇ	-9.9874
မှာမူ	-9.98793
သမ္မတ	-9.98812
▁ဖတ်	-9.98837
ကိုမူ	-9.98867
ဆည်	-9.98911
ဆုံ	-9.98914
▁တိုးချဲ့	-9.98915
အဖွဲ့ဝင်	-9.9892
▁အနည်းဆုံး	-9.98993
ပွား	-9.99015
▁တည်ရှိပြီး	-9.99222
နေရာတွင်	-9.99225
▁ဧကရာဇ်	-9.99239
ကိုယ်တိုင်	-9.99255
▁အမြင့်ဆုံး	-9.99371
▁မိုင်းပေါက်	-9.99371
ယန်း	-9.9942
▁ရောမ	-9.99452
မကြီး	-9.99575
▁ပြင်သစ်နိုင်ငံ	-9.99592
▁မွေး	-9.99602
၀၂	-9.99688
ဆင့်	-9.99721
တာဝန်	-9.99755
▁၂၀၀၃	-9.9978
ရာဇာ	-9.99898
▁နယ်နိမိတ်	-9.99919
သင်း	-9.99996
▁ဝယ်ယူ	-9.99998
▁ကြို့ပင်ကောက်	-10
ကြယ်	-10.0008
ပိ	-10.0016
အခြေအနေ	-10.0027
▁ပဲခူးမြို့နယ်	-10.0032
ပျံ	-10.0036
▁ဗမာ	-10.0039
များဖြစ်သည်။	-10.005
▁ဝေဖန်	-10.0051
un	-10.0058
▁ခဲ	-10.0064
▁ဖြစ်ပေသည်။	-10.0071
သဖွယ်	-10.0073
ဒေသတွင်	-10.0073
ကြမ်း	-10.0074
▁ခင်	-10.0078
▁တန့်ဆည်မြို့နယ်	-10.0085
▁အီရန်	-10.0087
ဟော	-10.009
▁ပေါင်းတည်	-10.0091
တခု	-10.0093
▁တစ်ခါတစ်ရံ	-10.0095
▁အပိုင်း	-10.0097
ကဗျာ	-10.0097
မှတစ်ဆင့်	-10.0122
သည့်အတွက်	-10.0124
▁ဇာတ်	-10.0134
▁ကော်မတီ	-10.0138
ir	-10.0141
▁ဘွဲ့	-10.0147
▁အဆို	-10.0162
v	-10.0164
မြိုင်	-10.0181
▁ရန်	-10.0182
အများဆုံး	-10.0182
မြို့ကို	-10.0184
ဘော	-10.0191
တုတ်	-10.0202
ခံရ	-10.0207
▁ဝိုင်းမော်	-10.0209
▁နိုင်ငံ၏	-10.021
▁အက္ခရာ	-10.021
ထံသို့	-10.0215
အနည်းငယ်	-10.0219
▁၁၉၅၈	-10.022
▁တွေ့ရ	-10.0223
ယခု	-10.024
အရောင်	-10.0245
အက္ခရာ	-10.0251
▁အလျား	-10.0252
▁တွဲဖက်	-10.0266
▁ပေါင်	-10.0266
ဖြစ်လာခဲ့သည်။	-10.0269
တည်ဆောက်	-10.0269
မိတ္ထီလာမြို့နယ်	-10.027
▁အစောပိုင်း	-10.0271
လှသော	-10.0278
▁၁၉၄၆	-10.0284
▁အုတ်တွင်း	-10.0291
ကမ်း	-10.0298
ကြိမ်	-10.0298
▁ရန်သူ	-10.03
V	-10.0305
▁အကျိုး	-10.0306
ဟူ	-10.0308
လက်ထက်တွင်	-10.031
▁Re	-10.0313
ပုတ်	-10.0324
▁ပခုက္ကူမြို့နယ်	-10.0326
▁တို	-10.0341
▁J	-10.0344
▁on	-10.0347
▁ဝန်	-10.0347
သရုပ်ဆောင်	-10.035
▁စလင်းမြို့နယ်	-10.0359
▁was	-10.0364
▁ရှိနေ	-10.0371
▁မွေးဖွားခဲ့သည်။	-10.0374
▁ပင်လည်ဘူး	-10.0383
ရရှိ	-10.0389
ရွာမရွာ	-10.0396
တောင်ရွာ	-10.0401
ဝင်ရောက်	-10.0403
တိုက်ပွဲ	-10.0407
ပိုက်	-10.0408
▁အဖ	-10.0414
▁ကလောမြို့နယ်	-10.0417
▁၆၀	-10.0418
▁ရှိ၏။	-10.042
▁လုပ်ငန်းများ	-10.0422
ation	-10.0429
–	-10.0432
ကြေး	-10.0437
ပြည်သူ့လွှတ်တော်	-10.0442
ပေါ့	-10.0447
▁Kan	-10.0448
▁လွှမ်းမိုး	-10.045
ပြီး၊	-10.0457
▁လက်တွေ့	-10.0474
▁s	-10.0477
il	-10.0488
▁W	-10.0489
▁နန်းတော်	-10.0491
▁၁၉၅၃	-10.0496
▁မိုင်းရယ်	-10.0499
ပြောင်းလဲ	-10.05
▁တိုင်	-10.0501
▁အသစ်	-10.0504
▁ရုံး	-10.0507
ခွေ	-10.0507
▁ထူထောင်	-10.051
▁ပေါက်ခေါင်း	-10.0513
ဇီ	-10.0514
သူ၏	-10.0516
ငြိမ်း	-10.0518
▁ဘီ	-10.0521
ne	-10.0522
▁ဆက်သွယ်ရေး	-10.0535
▁အလင်း	-10.054
ဒူး	-10.0555
▁ကြေညာ	-10.056
ရရှိခဲ့သည်။	-10.0561
လက်ခံ	-10.0568
▁လူတို့	-10.0571
▁သူမ၏	-10.0573
▁အမြဲ	-10.0576
▁သေဆုံး	-10.0586
▁၁၉၆၃	-10.0588
ချော	-10.0589
ခြံ	-10.0591
▁သထုံခရိုင်	-10.0595
▁၂၀၀၁	-10.0598
▁ပုံသဏ္ဌာန်	-10.0601
amp	-10.0602
▁ကြောင်	-10.0605
▁ပစ်	-10.0606
▁ဟွေ	-10.0608
▁လိုအပ်	-10.0608
▁အစ	-10.0615
▁album	-10.0619
▁ကယားပြည်နယ်၊	-10.0619
ဘော်	-10.0626
င်း	-10.0629
ပေါ်၌	-10.0643
▁ချမ်းသာ	-10.0656
မောက်	-10.0659
▁သတ္တဝါ	-10.0662
▁၁၉၅၄	-10.0665
ရာသီ	-10.0673
▁ပီ	-10.0673
▁ရေနံ	-10.0674
▁စီစဉ်	-10.0674
▁ဝေါဟာရ	-10.0678
▁ခန့်မှန်း	-10.0678
▁အရပ်	-10.0686
▁မေး	-10.0702
▁နေ့စဉ်	-10.0705
▁ချ	-10.0718
မရ	-10.0719
ရာထူး	-10.0724
▁3	-10.0729
မှသာ	-10.0729
▁မိုင်းရှူး	-10.0731
ခရီး	-10.0737
▁စု	-10.0738
အနီး	-10.0744
လှေ	-10.0745
ကြောင်	-10.0746
▁အရေးပါသော	-10.075
တင့်	-10.075
လုပ်ဆောင်	-10.0751
စက်ရုံ	-10.0752
အသံ	-10.0756
သာမက	-10.0757
▁ဝေ	-10.0759
▁ဆန့်ကျင်	-10.0768
ခံရသည်။	-10.0769
▁ရိုက်ကူး	-10.0769
မြို့မှ	-10.0773
▁အပေါ်	-10.0773
ဇင်း	-10.0775
အော်	-10.0776
ခိုး	-10.0787
ပွဲတော်	-10.0788
ကျောက်ဆည်ခရိုင်၊	-10.0791
လေ့ရှိကြသည်။	-10.0803
▁၁၉၅၉	-10.081
မင်းဆက်	-10.0817
▁ဓား	-10.082
ချိ	-10.0823
▁f	-10.0828
ချပ်	-10.0833
မည်။	-10.0845
ချမ်းသာ	-10.0845
▁ဂျပန်နိုင်ငံ	-10.0846
▁ကျေးရွာ	-10.085
▁တောင်သာမြို့နယ်	-10.0851
▁၁၉၇၀	-10.0854
အကြောင်းကို	-10.086
ရိုင်း	-10.087
▁ထပ်	-10.0873
▁ပါဠိ	-10.0876
အောက်တွင်	-10.0884
▁ခုနှစ်၌	-10.0887
ကြသည့်	-10.0897
▁အတည်ပြု	-10.0898
ဒိ	-10.09
မှာပင်	-10.0909
▁ရေစကြိုမြို့နယ်	-10.0915
▁လူသား	-10.0917
အင်အား	-10.0917
▁ဝမ်းတွင်း	-10.0922
▁စစ်ပွဲ	-10.0932
▁ရွက်	-10.0937
▁တို့တွင်	-10.0939
အရေး	-10.0939
▁ပြည့်စုံ	-10.0943
ပေါ်သို့	-10.0944
▁သစ်သား	-10.0945
သတင်း	-10.0948
▁ရောင်	-10.0957
သည်အထိ	-10.0959
▁de	-10.096
▁ရှိခဲ့သည်။	-10.0961
ine	-10.0964
▁အာကာသ	-10.0964
▁စစ်တပ်	-10.0965
▁သီးသန့်	-10.0966
▁ကျယ်ဝန်းသည်။	-10.0969
▁အောင်လံမြို့နယ်	-10.097
▁နဲ့	-10.0972
▁ကသာခရိုင်	-10.0974
▁ဖဆပလ	-10.0979
...	-10.0988
ခိ	-10.1
▁ရှစ်	-10.1
ဖား	-10.1
၎င်း၊	-10.1001
ထည်	-10.1002
▁အလုပ်လုပ်	-10.1007
▁ကာကွယ်ရေး	-10.1009
▁ပြဋ္ဌာန်း	-10.1013
▁ထမ်းဆောင်	-10.1013
လှုပ်ရှားမှု	-10.1014
▁ပြည်ပ	-10.1025
▁ဝင်း	-10.1026
မျက်နှာ	-10.1044
နည်းပညာ	-10.1049
▁by	-10.1051
▁တိုင်းဒေသကြီး	-10.1053
▁လို	-10.106
ကိုပင်	-10.107
▁ပါဝင်သည့်	-10.1075
နေပြီး	-10.1078
မင်းသမီး	-10.108
▁တောင်းဆို	-10.1081
▁လင်	-10.1086
ဒုတိယ	-10.1086
ဘောင်	-10.1087
ဟိ	-10.1088
လိုင်	-10.1093
▁re	-10.1098
▁မြစ်သားမြို့နယ်	-10.1103
▁ခရီး	-10.1105
ပြသ	-10.1111
▁အထက်တန်းကျောင်း	-10.1111
▁၃၉	-10.1112
▁သာယာဝတီမြို့နယ်	-10.1115
▁သဘာဝပတ်ဝန်းကျင်	-10.112
နိုင်ငံရေး	-10.1121
▁အခွင့်အရေး	-10.1123
ရက်မြောက်	-10.1124
▁လင်းခေးခရိုင်	-10.113
ခံခဲ့ရသည်။	-10.1138
▁ရောင်းချ	-10.1147
▁ယ	-10.115
▁မြိတ်ခရိုင်	-10.1155
um	-10.1155
▁တွေ့ရှိရသည်။	-10.1156
▁၁၉၅၆	-10.1165
▁ငှက်များ	-10.1167
▁အလယ်ပိုင်း	-10.1167
ဝပ်	-10.1175
ဘ်	-10.1186
▁ပွင့်	-10.1189
▁ဦးခေါင်း	-10.1189
▁လက်ထက်တွင်	-10.1191
▁သစ်တော	-10.1197
ရန်ကုန်တက္ကသိုလ်	-10.1198
သောင်	-10.12
▁၅။	-10.1201
ကော်မတီ	-10.1205
▁တောင်ငူမြို့နယ်	-10.1209
▁ယိုးဒယား	-10.1211
ယောက်	-10.1215
te	-10.1216
္	-10.1218
▁ပရိသတ်	-10.1219
▁စင်ကာပူ	-10.1221
အစား	-10.1223
▁မိနစ်	-10.1225
ရဟန်း	-10.1227
▁မလှိုင်မြို့နယ်	-10.1227
▁ဇာတ်လမ်း	-10.1229
▁ပြဇာတ်	-10.1233
လွှတ်	-10.1234
▁ပြသ	-10.1234
▁ဖြစ်သည်ဟု	-10.1236
သူသည်	-10.1244
▁ပထမဦးဆုံး	-10.1246
▁နံနက်	-10.1249
▁ထုတ်ပြန်	-10.125
ယ်	-10.1251
▁အီဂျစ်	-10.1253
▁စမ်းသပ်	-10.1255
▁လီ	-10.1262
▁မှတ်သား	-10.1264
ဝီ	-10.1267
ယု	-10.1268
ဖြစ်သော်လည်း	-10.1272
ro	-10.1273
ကိုက်	-10.1273
နှင့်အညီ	-10.1276
▁အမိန့်	-10.1279
▁၃ဝ	-10.128
▁လိပ်	-10.1281
ကတ်	-10.1283
▁ဗီယက်နမ်	-10.1283
ခွေး	-10.1288
ဆောင်း	-10.1291
ဒေါ	-10.1292
ရှီ	-10.1296
▁as	-10.1296
▁တည်ရှိ	-10.1297
▁အန်	-10.1298
▁ယင်းမာပင်ခရိုင်	-10.1301
မိုက်	-10.1303
▁တွေ့ဆုံ	-10.1306
▁ဘုံ	-10.1307
ဂြိုဟ်	-10.1307
▁လဲချားမြို့နယ်	-10.1309
▁သက်တမ်း	-10.1311
▁အရေး	-10.1311
▁ဆီး	-10.1311
▁ဝက်လက်မြို့နယ်	-10.1312
ဒူ	-10.1318
ဘိုး	-10.1318
▁ရုပ်	-10.132
ဘက်သို့	-10.1326
▁ညောင်ဦးမြို့နယ်	-10.1328
▁သတ်	-10.1329
▁မင်းတုန်းမင်း	-10.1336
ရား	-10.1339
တော့သည်။	-10.1343
▁ဟိဂရှိ	-10.1345
▁ထင်	-10.1348
▁၁၉၆၈	-10.1348
ယာဉ်	-10.1353
ဖြစ်ပေါ်	-10.1357
▁အကြောင်းအရာ	-10.1367
▁လျှောက်ထား	-10.1368
▁နေပြည်တော်	-10.137
ကျယ်	-10.1374
▁သူမသည်	-10.1377
ခြင်း။	-10.1382
▁မိုးကောင်း	-10.1382
ါ	-10.1383
ဆွေ	-10.1385
▁မိုးညှင်း	-10.139
လှည့်	-10.1392
သေးသည်။	-10.1392
ကြက်	-10.1398
▁ဘာသာပြန်	-10.1399
သွားသော	-10.1402
ကရင်	-10.1405
▁အိ	-10.1406
▁or	-10.142
အတွင်းတွင်	-10.1422
▁ကျောက်စာ	-10.143
အာဏာ	-10.1433
မ်း	-10.1434
▁V	-10.1436
▁၈၀	-10.1437
▁ကျရောက်	-10.1439
▁၀	-10.1442
▁My	-10.1444
▁ဩဂုတ်	-10.1447
ဖီ	-10.145
ကိုယ်စားလှယ်	-10.1451
▁ကိုးကွယ်	-10.1451
မေး	-10.1458
ဂုဏ်	-10.1475
နိုင်အောင်	-10.1479
▁၄၁	-10.148
▁၄၆	-10.1493
မှုသည်	-10.1493
စည်	-10.1495
▁ပြဿနာ	-10.1495
▁မုံရွာခရိုင်	-10.15
▁တန်ဖိုး	-10.1502
▁မီ	-10.1505
▁ခုနစ်	-10.1506
သောက်	-10.1507
▁ကူ	-10.1514
▁အပြစ်	-10.1516
စသည့်	-10.1518
တိုင်အောင်	-10.152
▁လက်ဝဲ	-10.1523
မဂ္ဂဇင်း	-10.1523
ပေါ်ရှိ	-10.1526
▁သိန္နီမြို့နယ်	-10.1527
ပါသော	-10.1529
▁with	-10.1531
▁လူမှုရေး	-10.1535
ထိုင်	-10.1545
ပြင်း	-10.1549
ယက်	-10.1549
လေဆိပ်	-10.155
တပ်ဖွဲ့	-10.1552
▁တစ်နှစ်	-10.1552
▁ဘီးလင်းမြို့နယ်	-10.1552
ပြုစု	-10.1554
▁...	-10.1559
အမျိုးသမီး	-10.1561
းရွာ၊	-10.1566
အခါ	-10.1567
မှီ	-10.1567
▁အုတ်ဖိုမြို့နယ်	-10.1568
▁အမေရိကန်နိုင်ငံ	-10.157
အနေနှင့်	-10.1575
▁နေ့တွင်	-10.1579
▁သိပ္ပံ	-10.1584
▁အပူချိန်	-10.16
▁အင်္ဂလိပ်ဘာသာ	-10.1605
ri	-10.1606
ဖြစ်လာ	-10.161
▁ဇွန်	-10.1613
la	-10.1615
▁ဘောလုံး	-10.1616
လုံရွာ	-10.1617
▁အရာ	-10.1618
▁ယှဉ်ပြိုင်	-10.1619
▁ကွမ်း	-10.162
▁ပေါ်ပေါက်	-10.1622
▁အင်ဂျင်နီယာ	-10.163
▁အများပြည်သူ	-10.1632
▁ကောလင်းခရိုင်	-10.1633
တင်ပြ	-10.1633
▁သီဆို	-10.1634
▁ဇနီး	-10.1634
▁သာသနာ	-10.1636
▁ကောက်	-10.1637
▁၁၉၅၂	-10.1647
▁ရိုက်	-10.1652
▁ဖြစ်ပေါ်လာ	-10.1652
နိုင်ပြီး	-10.1656
▁ရသည်။	-10.1659
ပြင်ဆင်	-10.1671
▁ရှာ	-10.1673
▁Min	-10.1677
ရူ	-10.1683
သာယာ	-10.1686
▁အီတလီ	-10.1692
ပါဝင်သည်။	-10.1692
သန်	-10.1694
ထဲ၌	-10.1698
များထဲမှ	-10.1707
အမေရိကန်	-10.1713
▁၁၉၄၂	-10.1714
▁be	-10.1716
▁၁၉၉၉	-10.1719
ဆေးရုံ	-10.1721
▁၂၀၂၁	-10.1727
man	-10.1727
▁ရေဒီယို	-10.1727
ဘုရား၏	-10.1727
▁၁၉၅၀	-10.1729
တောင်တန်း	-10.1729
▁ခေါ်ကြသည်။	-10.1729
ပေးသော	-10.173
▁ဆိုကြသည်။	-10.1734
စစ်ပွဲ	-10.174
▁:	-10.174
▁ခေါ်ဆို	-10.1751
▁မြို့ပြ	-10.1751
▁၄၈	-10.1756
▁အမည်ရှိ	-10.1756
ပိုင်းဆိုင်ရာ	-10.1761
▁မိုင်းဆတ်ခရိုင်	-10.1761
▁အုပ်	-10.1774
▁သူမ	-10.1775
▁ချမှတ်	-10.1775
ရှစ်	-10.1777
▁ဗန်းမောက်	-10.179
▁တောင်ငူ	-10.1793
ခဲ့ကြပြီး	-10.1795
▁စွမ်းအင်	-10.1798
လျှင်၊	-10.1806
ion	-10.1807
မူး	-10.1809
▁အသုံးပြုသည်။	-10.1812
▁အမျိုး	-10.1813
▁အောင်မြင်မှု	-10.182
ong	-10.1821
▁လွန်စွာ	-10.1825
▁ခန့်အပ်	-10.1826
▁အရှေ့ဘက်တွင်	-10.1834
စီမံကိန်း	-10.1849
ရမ်း	-10.1851
▁တိုင်းတာ	-10.1852
▁တို့က	-10.1853
am	-10.1854
▁စာရေး	-10.1855
▁လက်ထက်	-10.1856
ဒန်	-10.1858
မိဖုရား	-10.186
ရေး၊	-10.1863
▁တရုတ်ပြည်	-10.1865
နိုင်ငံတွင်	-10.1867
▁လင်း	-10.1868
▁တန်း	-10.1875
အမြင်	-10.1885
ဥယျာဉ်	-10.1886
ဆပ်	-10.1895
နှင့်ပတ်သက်၍	-10.1896
▁လူ့	-10.1902
▁လျှို့ဝှက်	-10.1905
▁ဆရာတော်သည်	-10.1905
ခဲ့ပေ။	-10.1905
▁၁၉၇၂	-10.1913
▁ကျောင်းသားများ	-10.1922
▁အနာ	-10.1922
▁1	-10.1923
▁ထိုင်ဝမ်	-10.1926
ဂျ	-10.1931
▁မြောက်ဘက်တွင်	-10.1933
▁အရိုး	-10.1942
ထည့်	-10.1943
သဏ္ဌာန်	-10.1949
▁ခုနှစ်က	-10.1951
နော်	-10.1954
▁ယင်းသည်	-10.1956
▁ချောက်မြို့နယ်	-10.1957
ရှိသူ	-10.1957
▁ကြည့်ရှု	-10.1969
▁ရွှေ့ပြောင်း	-10.1974
သင်္ဘော	-10.1983
ကြသော်လည်း	-10.1989
▁ရှေးခေတ်	-10.1991
▁ရာဇဝင်	-10.1992
▁နားလည်	-10.1998
▁ခါး	-10.1999
▁ပူးတွဲ	-10.2001
▁ဟုလည်း	-10.2007
▁ကမ်း	-10.2013
▁လက်နက်ကိုင်	-10.2017
▁လှူဒါန်း	-10.2017
ခိုက်	-10.202
▁ပစ္စည်းများ	-10.2022
▁ကောလိပ်	-10.2023
wa	-10.2025
▁ပန်းတောင်း	-10.2029
လျက်ရှိသော	-10.2037
အောင်ဆန်း	-10.2043
▁ယနေ့	-10.2045
ဇော်	-10.2047
ကွန်မြူနစ်ပါတီ	-10.2052
ကြသဖြင့်	-10.2056
▁တိုက်ပွဲ	-10.2064
▁Co	-10.2068
ga	-10.2068
▁ဉာဏ်	-10.2071
▁၁၉၅၅	-10.2074
▁b	-10.2078
ဓ	-10.2078
ထင်ရှား	-10.2082
▁အိပ်	-10.2086
သခင်	-10.2094
သူများကို	-10.2095
se	-10.21
အရပ်	-10.21
▁အမ်	-10.2106
▁အမတ်	-10.211
▁ဧရာဝတီမြစ်	-10.2114
▁ဈေးကွက်	-10.2117
▁ခံရသည်။	-10.2117
မန္တလေး	-10.2119
ပြတ်	-10.2121
▁ခုနှစ်မှစ၍	-10.2121
▁ပု	-10.2122
▁ခေါ်ဝေါ်	-10.2128
▁စနစ်တကျ	-10.2129
ဒါး	-10.2133
▁စပ်လျဉ်း၍	-10.2133
▁ရင်	-10.2134
စောင့်ရှောက်	-10.2136
▁လိုက်နာ	-10.2136
ဗ်	-10.2137
ရွေးချယ်	-10.214
သောင်း	-10.214
တစ်လုံး	-10.2142
ငူ	-10.2142
▁မေတ္တာ	-10.2145
▁တပ်ရင်း	-10.2149
▁ဒုတိယမြောက်	-10.2155
ရခိုင်	-10.2156
▁အပွင့်	-10.2156
▁အားကစား	-10.2159
တောကျေးရွာအုပ်စု	-10.2159
သော်လည်းကောင်း	-10.216
▁Me	-10.2162
▁အဖြစ်ဖြင့်	-10.2163
သူများသည်	-10.2166
▁၄၉	-10.2174
▁အနောက်ဘက်တွင်	-10.2194
▁တွေ့ရှိရသော	-10.2196
ers	-10.2197
ရပ်စောက်မြို့နယ်	-10.2198
▁ဇာတ်ကား	-10.22
ထေရ်	-10.2202
အဖြစ်သို့	-10.2203
၌ပင်	-10.2206
▁မိုင်းဖြတ်	-10.2207
ရေးဆွဲ	-10.2208
▁ဘီလီယံ	-10.2211
▁ထိန်းသိမ်းရေး	-10.2214
▁အပူ	-10.2216
▁အနေဖြင့်	-10.2219
▁၁၉၆၄	-10.2234
အိပ်	-10.2235
▁မင်းတပ်မြို့နယ်	-10.2238
▁Man	-10.2241
▁အဆင့်ဆင့်	-10.2257
စေသော	-10.2259
လာသည့်	-10.2265
▁၁၉၆၁	-10.2272
▁ပေါက်မြို့နယ်	-10.2276
ton	-10.2276
0&	-10.2277
▁ခေါင်လန်ဖူး	-10.2281
▁ဖော်ထုတ်	-10.229
ပြိုင်ပွဲ	-10.2292
▁နဂါး	-10.2293
▁ဟိုပန်ခရိုင်	-10.2293
▁၁၉၄၉	-10.2295
များရှိ	-10.2299
ဆိတ်	-10.2304
▁အချက်	-10.2309
▁စုဆောင်း	-10.231
▁သူ့အား	-10.2311
▁ထန်း	-10.2311
▁La	-10.232
▁ရှိလေသည်။	-10.2322
စာချုပ်	-10.2322
ရထား	-10.2325
▁Taung	-10.2326
▁နည်းလမ်း	-10.2328
ဖမ်း	-10.2328
▁တံတား	-10.2339
ညာ	-10.2352
▁ထည့်	-10.2354
ပြိုင်	-10.2358
သိပ္ပံ	-10.2364
ဘူ	-10.2366
▁သဘောတူ	-10.2367
ဘု	-10.2373
သွားခဲ့သည်။	-10.2378
▁ဦးစီး	-10.2379
▁ဆက်စပ်	-10.2379
▁အထက်ပါ	-10.238
▁ဧရိယာ	-10.2383
▁ကွဲပြား	-10.2383
လံ	-10.2384
အနုပညာ	-10.2387
▁လူအများ	-10.2389
နိုင်ငံများ	-10.2391
▁ပျံသန်း	-10.2394
▁၁၉၇၅	-10.2397
သွယ်	-10.2404
မည်ဖြစ်သည်။	-10.241
町	-10.242
ရော့	-10.2432
စနစ်ကို	-10.2439
ရင့်	-10.2439
▁ရှ	-10.244
နိုင်ပေသည်။	-10.2446
▁ဘက်	-10.2447
ကြရာ	-10.245
▁ရထား	-10.2452
▁အူ	-10.2455
▁တွင်း	-10.2455
▁လန်ဒန်	-10.2455
ik	-10.2459
▁၅၅	-10.246
▁၁၉၉၃	-10.2465
▁အားပေး	-10.2466
▁ဖော်	-10.2467
မှတ်တမ်း	-10.2467
ent	-10.2468
▁ဖယ်ခုံမြို့နယ်	-10.2469
▁ဗြိတိန်	-10.247
အုန်း	-10.2472
▁၄၇	-10.2477
ပြောင်	-10.248
▁Su	-10.2492
အစီအစဉ်	-10.2497
ထုတ်လုပ်	-10.25
▁ကြံ	-10.2509
ကြော	-10.2511
များအရ	-10.2512
▁ရေဦးမြို့နယ်	-10.2512
▁ကမ္ဘောဒီးယား	-10.2516
အရာရှိ	-10.2522
▁လွတ်လပ်စွာ	-10.2524
▁ဆောက်	-10.2525
တံခါး	-10.2525
တံဆိပ်	-10.2527
လှုပ်ရှား	-10.2534
▁သမုဒ္ဒရာ	-10.2534
▁ယင်းမာပင်	-10.2537
မိသားစု	-10.2538
နိုင်၏။	-10.2547
တွေက	-10.2548
သင်တန်း	-10.2549
▁နှစ်သက်	-10.2551
▁၁၉၉၁	-10.2554
ဆွတ်	-10.2555
▁ဖြစ်နေ	-10.2555
▁ထင်ရှားသည်။	-10.2556
ပက်	-10.2558
▁၁၉၉၇	-10.2559
ry	-10.2564
▁ကေ	-10.2566
ဂန်	-10.2566
▁လည်	-10.2569
သီရိ	-10.2574
တိုးတက်	-10.2578
ရောင်းချ	-10.258
▁များသည်	-10.258
ဖောက်	-10.2583
▁၁၉၄၁	-10.2586
▁ခို	-10.2586
▁မန်တုံမြို့နယ်	-10.2588
ter	-10.259
▁ခံ	-10.2593
များဖြစ်သော	-10.2599
▁ဂျီ	-10.2602
ခြား	-10.2603
▁ဝန်ဆောင်မှု	-10.2606
▁လုံခြုံရေး	-10.2607
ပညာရေး	-10.2612
▁ရေနံချောင်း	-10.2612
အရွယ်	-10.2613
▁ပုဂံခေတ်	-10.2623
▁ဖြစ်သည့်	-10.2623
ပြေ	-10.2625
▁ထက်	-10.2626
▁အစိုးရက	-10.2627
လွဲ	-10.2632
▁အဲဒီ	-10.2636
▁ဘိုး	-10.2643
▁အရာရှိ	-10.265
ဖု	-10.2652
▁ပြင်	-10.2653
▁ပညာရှင်	-10.2659
မြို့စား	-10.266
▁သင်္ချာ	-10.267
▁တိုး	-10.2671
▁စတင်ခဲ့သည်။	-10.2675
ကန်း	-10.268
ကဲ	-10.268
▁ရောက်ရှိလာ	-10.2687
တည်ထောင်	-10.269
▁ကျင့်သုံး	-10.269
▁ကိုယ့်	-10.2694
▁မိုင်းတုံ	-10.2698
▁ကောလင်းမြို့နယ်	-10.271
▁အယ်လ်	-10.2717
▁ကိုးကန့်	-10.2718
▁Chaung	-10.2718
▁နံပါတ်	-10.2721
▁သရက်	-10.2727
ခြင်းတို့	-10.2731
▁ထောက်ခံ	-10.2734
ခဲ့ရ	-10.2736
ဘက်တွင်	-10.2739
နှစ်ဦး	-10.2751
▁ဆိုင်	-10.2753
တတ်ကြသည်။	-10.2757
မဆို	-10.2759
▁စုပေါင်း	-10.2764
revision	-10.2766
▁ဒု	-10.2769
ပေးရသည်။	-10.2769
▁တည်ရှိသော	-10.2776
သားများ	-10.278
▁စက်ရုံ	-10.2781
စုရွာ	-10.2781
▁ဖြစ်ကြောင်း	-10.2783
ြ	-10.2787
ဟုခေါ်သည်။	-10.2793
▁ကျင်းပသော	-10.2794
ထိုက်	-10.2795
မှတဆင့်	-10.2797
▁တစ်မျိုး	-10.2798
▁ကြေညာခဲ့သည်။	-10.28
▁သမီးတော်	-10.2801
▁သာသနာပြု	-10.2801
ဂိုး	-10.2804
▁မှတ်တမ်းတင်	-10.2807
▁များစွာသော	-10.2809
▁အဆိပ်	-10.2814
J	-10.2818
ဘော့	-10.2818
▁ဖြစ်ပါတယ်။	-10.2819
▁မြို့မ	-10.2823
▁ထိုနှစ်	-10.2824
ဖြစ်အောင်	-10.2824
▁ခရီးသွား	-10.2828
▁ယော	-10.2838
ပျောက်	-10.2841
ဧရိယာ	-10.2843
မျိုးစုံ	-10.2846
▁ကျင်းပခဲ့သည်။	-10.2846
ချွန်	-10.2851
▁ကဲ့သို့သော	-10.2854
ပြီးမှ	-10.2855
သတင်းစာ	-10.2855
▁ပေးအပ်	-10.286
ရိုးရွာ၊	-10.2864
ဖျက်	-10.2866
ခက်	-10.2868
▁၁၉၈၉	-10.2869
▁အုပ်စိုး	-10.2874
▁စုစည်း	-10.2876
မြို့ရှိ	-10.2876
▁မတူပီခရိုင်	-10.2885
▁ဖွဲ့စည်းခဲ့သည်။	-10.2886
ခြင်းအားဖြင့်	-10.2894
▁အာရှတိုက်	-10.2897
is	-10.2901
▁လွန်	-10.2906
▁မပြု	-10.2906
ပွင့်ဖြူမြို့နယ်	-10.2913
ငယ်များ	-10.2913
ဖြစ်သဖြင့်	-10.2914
▁မိဘ	-10.2917
▁ဒေသခံ	-10.2918
▁ထွန်းကား	-10.2924
▁သာယာ	-10.2926
▁စက္ကူ	-10.2939
▁စီးဆင်း	-10.2939
▁ဇာ	-10.2941
ရွာသစ်	-10.2945
▁Ba	-10.2945
▁တောင်ဘက်တွင်	-10.2948
▁ကိုရီးယား	-10.2961
▁တည်ထောင်ခဲ့သည်။	-10.2962
▁ဘာသာရပ်	-10.2963
▁ယင်း၏	-10.2968
ရွေးကောက်ပွဲတွင်	-10.297
▁မင်းကြီး	-10.2974
▁အတိုင်း	-10.2975
သက်တမ်း	-10.2976
တ္တ	-10.2985
▁ယာယီ	-10.2986
▁ပုလဲမြို့နယ်	-10.2987
▁အသုံး	-10.2991
စေခြင်း	-10.2995
▁စီမံ	-10.2996
▁၁၉၉၅	-10.3002
အခြား	-10.3003
တမ်း	-10.3009
အားလုံးကို	-10.301
▁စကားလုံး	-10.301
▁လည်ပတ်	-10.301
▁ရဟန်းတစ်ပါး	-10.3011
▁ကနီမြို့နယ်	-10.3011
▁ချီ	-10.3012
ချည်	-10.3014
ရာစု	-10.3014
▁အင်္ဂလန်နိုင်ငံ	-10.3015
▁ရှေးအခါက	-10.3016
▁ဦးစီးဌာန	-10.3018
▁အမှု	-10.3019
▁တစ်ခုဖြစ်သည်။	-10.302
နာမည်	-10.302
အပြီး	-10.3024
▁ကျွန်တော်	-10.3026
▁ဖြတ်	-10.3029
ဖွား	-10.3029
ကြရ	-10.3034
▁ဆိုသည့်	-10.3041
▁နွားထိုးကြီး	-10.3042
▁ဝန်ထမ်း	-10.3045
ဖွယ်ရာ	-10.3046
▁ဒုတိယအကြိမ်	-10.3046
နိုး	-10.3053
မွန်း	-10.3059
▁ကလေးများ	-10.3061
▁၁၉၅၇	-10.3069
▁သွားလာ	-10.3069
▁အကြီးအကျယ်	-10.3069
ဋ္ဌ	-10.3069
▁အချင်းချင်း	-10.3073
▁ကိစ္စ	-10.3078
▁မျိုးစိတ်	-10.308
လက်ရာ	-10.308
သည့်အပြင်	-10.3081
▁Pin	-10.3085
ဖွင့်လှစ်ခဲ့သည်။	-10.3085
▁တော်ဝင်	-10.3089
မြို့၏	-10.3089
▁[	-10.3089
▁သင်ယူ	-10.3089
▁ညောင်လေးပင်	-10.3095
သမီး	-10.3106
▁ညောင်ပင်	-10.3109
▁သီတင်းသုံး	-10.3118
▁ညောင်ဦးခရိုင်	-10.3122
▁၁၉၆၅	-10.3129
ဖိုင်	-10.3135
လှသည်။	-10.3136
▁အထက်တန်း	-10.3147
သို	-10.315
▁အုန်း	-10.3151
▁၁၉၉၆	-10.3155
▁၁၉၉၂	-10.3157
ဝန်ကြီးချုပ်	-10.3157
ခုန်	-10.3171
▁အစေ့	-10.3179
▁ပုံနှိပ်	-10.3183
▁ပါမောက္ခ	-10.3184
ung	-10.3185
ဇာတ်လမ်း	-10.3187
ကောလိပ်	-10.3189
▁ပမာဏ	-10.3189
▁အမြင်	-10.319
▁အမြီး	-10.3199
ပုံမှာ	-10.3199
ခုတ်	-10.3213
▁တပည့်	-10.3216
▁ထုတ်ဝေခဲ့သည်။	-10.3216
▁ထိုကဲ့သို့	-10.3218
▁သိန်း	-10.322
▁ဆူး	-10.322
ဒေ	-10.3223
▁စားသောက်	-10.3223
လျှောက်	-10.3226
အများအပြား	-10.3227
တုန်း	-10.323
▁တီ	-10.3235
ng	-10.3236
▁၁၉၉၄	-10.3238
လုပ်ငန်းကို	-10.3238
ချက်ကို	-10.3239
အစု	-10.3246
▁သီလ	-10.3246
▁မြန်မာစာ	-10.3247
▁ဆိုရှယ်လစ်	-10.3254
ကွာ	-10.3256
ကိုလည်းကောင်း၊	-10.3256
တည်ရှိ	-10.3258
▁အနောက်တိုင်း	-10.3261
▁ရယူ	-10.3266
▁၁၉၃၉	-10.3268
▁တိုးမြှင့်	-10.327
▁that	-10.3275
Y	-10.328
ခေါက်	-10.3281
တန်ဖိုး	-10.3283
ချမှတ်	-10.3292
များထဲတွင်	-10.3292
ခရစ်	-10.3297
ဝဝ	-10.3302
▁ခပ်	-10.3303
▁ရို	-10.3306
▁အားဖြင့်	-10.3309
▁ရက်ပေါင်း	-10.3309
ဥပမာ	-10.3313
▁၁၉၆၇	-10.3322
နေကြ	-10.3323
▁သတင်းအချက်အလက်	-10.3323
ခဲ့ပေသည်။	-10.3327
▁မိုးညိုမြို့နယ်	-10.3327
▁ဒိုက်ဦးမြို့နယ်	-10.3329
▁ဆောင်းပါး	-10.333
▁စိုက်	-10.3331
▁ခံခဲ့ရသည်။	-10.3337
ထိန်းသိမ်း	-10.3338
▁၅၂	-10.3338
ol	-10.3339
▁မို	-10.3339
▁အထိမ်းအမှတ်	-10.3341
▁ဒီးမော့ဆို	-10.3343
▁ဟော	-10.3343
တော်ကို	-10.3344
စတာ	-10.3348
▁စေ	-10.3349
▁မတ္တရာမြို့နယ်	-10.3349
▁၁၉၇၄	-10.335
▁အပြန်အလှန်	-10.3351
▁ပို့	-10.3359
ant	-10.3362
▁စောင့်ရှောက်	-10.3367
win	-10.3377
▁နောက်ဆုံးတွင်	-10.3378
▁ဖက်	-10.3379
▁ကောင်	-10.3385
▁အမြောက်အမြား	-10.3388
▁အာရပ်	-10.339
▁တို့ဖြစ်သည်။	-10.3395
▁ထိပ်	-10.3395
▁တွေ့ရှိရ	-10.3395
▁၁၉၆၉	-10.3397
ဆောက်	-10.3398
▁အသုံးပြု၍	-10.34
▁ဆိုလိုသည်။	-10.3403
သိမ်	-10.3405
▁အင်္ဂလန်	-10.3406
ဒိုင်း	-10.3409
ရတ်	-10.3418
70250	-10.3419
ha	-10.3423
▁၁၉၉၈	-10.3424
ပီး	-10.3425
ထားကြသည်။	-10.3426
▁ခါ	-10.3428
▁သစ္စာ	-10.343
▁မစ္စတာ	-10.3434
ပျက်စီး	-10.3442
လျက်ရှိ	-10.3444
ရန်နှင့်	-10.3444
▁၁၉၅၁	-10.3444
▁၁၉၇၃	-10.3448
စေပြီး	-10.3451
ကနေ	-10.3451
▁ဆွမ်း	-10.3456
▁ကနေဒါ	-10.3461
▁တင်သွင်း	-10.3464
▁4	-10.3475
▁ရှင်းလင်း	-10.3476
▁ဖောင်းပြင်	-10.348
▁၆။	-10.3484
▁ရေခဲ	-10.3486
▁ဒဏ္ဍာရီ	-10.3487
▁ထိုအ	-10.3489
ဒေါင့်	-10.349
▁ဆွဲ	-10.3495
▁လင်းခေးမြို့နယ်	-10.3497
▁၁၉၈၅	-10.35
အူ	-10.3504
ကြွ	-10.3505
▁မိမိတို့၏	-10.3506
ပူဇော်	-10.3507
လှိုင်း	-10.3509
များတွင်လည်း	-10.3509
▁ကပ်	-10.3514
▁သူတို့သည်	-10.3514
ဖြစ်ရာ	-10.3515
▁De	-10.3516
ထားလေသည်။	-10.3523
▁ကျေးလက်	-10.3523
▁ဆင်း	-10.3527
ဖန်တီး	-10.3529
တို့အတွက်	-10.353
▁အများ	-10.3531
▁ကွန်မြူနစ်ပါတီ	-10.3533
▁ထီ	-10.3533
▁ယင်းတို့	-10.3539
ti	-10.3539
နတ်မောက်မြို့နယ်	-10.3541
ဂျိ	-10.3547
ပန်းချီ	-10.3548
▁ဘုတလင်မြို့နယ်	-10.355
လိုက်သော	-10.3554
▁မြတ်	-10.3554
▁ဟဲ	-10.3557
▁ဆည်	-10.3558
ဟင်း	-10.3562
▁ရင်း	-10.3563
▁မကြာမီ	-10.3563
▁ဘုန်းတော်ကြီး	-10.3565
▁အာဖရိကတိုက်	-10.3568
▁၇၀	-10.3568
ကွယ်	-10.357
ဗုဒ္ဓ	-10.3575
လုပ်ငန်းများကို	-10.3587
အမ်	-10.3587
▁ယခုခေတ်	-10.3587
▁p	-10.3589
▁အနှစ်	-10.3593
ချိုး	-10.3595
▁ပူဇော်	-10.3596
▁စာချုပ်	-10.3598
ဆား	-10.3599
ရအောင်	-10.3599
အကြီးဆုံး	-10.3608
▁သူ့ကို	-10.3609
သလောက်	-10.3611
ကြ၍	-10.3614
▁ဓာတ်ငွေ့	-10.3619
တော်မူ၏။	-10.3621
ကလပ်	-10.3621
ရှိသည်ဟု	-10.3622
တစ်ခုဖြစ်ပြီး	-10.3624
▁လေကြောင်း	-10.3628
▁အန္တရာယ်	-10.3633
များရှိသည်။	-10.3633
နင်	-10.3635
▁ကွန်ဟိန်း	-10.3636
ပ္ပ	-10.3645
ပြီးသော	-10.3648
စစ်တပ်	-10.365
▁ဗာ	-10.3653
ရန်ကုန်	-10.3657
ပြုပြင်	-10.3665
▁တောင်ကိုရီးယား	-10.3667
ဟူသည်	-10.3668
▁အဆောက်အဦး	-10.3675
ရွှေကျင်မြို့နယ်	-10.3676
မ္မ	-10.3677
မင်းကင်းမြို့နယ်	-10.3677
▁တပ်ဆင်	-10.3678
ပြု၍	-10.3678
နိုင်ငံတော်သမ္မတ	-10.3681
အဖွဲ့ချုပ်	-10.3682
ပထမ	-10.3684
▁ပျမ်းမျှ	-10.3688
▁မြောင်း	-10.3692
▁စဉ်းစား	-10.3696
ul	-10.3697
▁မရှိပေ။	-10.3703
▁ကိုင်း	-10.3714
▁ဆေးပညာ	-10.3715
▁တောင်တန်း	-10.3719
▁ကြိုတင်	-10.3721
ဦးစီးဌာန	-10.3721
▁အမြစ်	-10.3724
မရွာ၊	-10.3725
▁နွေရာသီ	-10.3726
▁ပေါက်ရောက်	-10.3727
▁ခမည်းတော်	-10.3728
▁အဆိုတော်	-10.3731
▁ဝန်းသိုမြို့နယ်	-10.3733
▁၅၆	-10.3733
▁အစည်းအဝေး	-10.3741
▁ကဝမြို့နယ်	-10.3744
▁လိုအပ်သော	-10.3744
▁အသုံးပြုနိုင်	-10.3745
များဖြစ်သည့်	-10.3747
▁ဘန်	-10.3754
ရာ၊	-10.3755
▁နိ	-10.3756
▁Taw	-10.3759
ရှန်	-10.376
▁ဆေးရုံ	-10.3766
▁တူးဖော်	-10.377
▁ကော့ကရိတ်ခရိုင်	-10.3776
ကျောက်စာ	-10.3776
ဂ်	-10.3779
နွဲ့	-10.3784
နော	-10.3784
▁သထုံမြို့နယ်	-10.3787
အဓိပ္ပာယ်	-10.3793
ခြင်းမှာ	-10.3794
ပါဝင်သော	-10.3798
နိုင်လေသည်။	-10.3799
▁ဖိုး	-10.3799
▁ကချင်	-10.3803
▁ဖျက်ဆီး	-10.3803
ကြောင်းကို	-10.3807
▁ဒေါ	-10.3811
ch	-10.3815
▁၇၅	-10.3816
▁အယ်ဒီတာ	-10.3822
▁ဝတ်ဆင်	-10.3826
▁ခံစား	-10.3828
poem	-10.3829
▁စဉ့်ကိုင်	-10.3829
ဘုတ်	-10.383
▁အမ	-10.3834
များထက်	-10.3835
▁19	-10.3839
▁ဧ	-10.3844
▁အလွယ်တကူ	-10.3848
များဖြစ်ကြသည်။	-10.3853
▁မိုင်းပန်	-10.3854
▁ဇီဝ	-10.3859
▁အရေအတွက်	-10.386
▁ဇာတိ	-10.3863
▁အမြဲတမ်း	-10.3865
ရှာဖွေ	-10.3865
▁မိုင်းလား	-10.3867
▁လူမှု	-10.3873
▁နာမည်ကျော်	-10.3873
လိုသော	-10.3874
▁ထုတ်ပြန်ကြေညာ	-10.3874
▁သဘောတူညီချက်	-10.3874
▁နမ္မတူမြို့နယ်	-10.3878
မစ်	-10.388
▁ဆိုင်း	-10.388
ဆံ	-10.3882
▁၂၀၀	-10.3882
ထုပ်	-10.3888
၁ဝ	-10.3895
ဆီသို့	-10.3896
▁မယ်တော်	-10.39
ဝေါဟာရ	-10.3901
▁လူမျိုးစု	-10.3904
တစ်ခုတွင်	-10.3904
နိုင်စွမ်း	-10.3907
ဥက္ကဋ္ဌ	-10.3907
▁ယာ	-10.391
▁လောင်း	-10.3913
ဗင်	-10.3914
ခွံ	-10.3915
▁မြေအောက်	-10.3916
လက်နက်	-10.3917
နောက်ပိုင်းတွင်	-10.3917
▁အရသာ	-10.3917
▁ကန့်ကွက်	-10.3922
တိုင်းပြည်	-10.3924
သူတို့	-10.3933
▁စေလွှတ်	-10.3937
ကြောင်း၊	-10.3941
တွန်	-10.3942
ကျုံ	-10.3943
တင်မြှောက်	-10.3944
အချင်းချင်း	-10.395
▁ဘော	-10.3953
ခဲ့တဲ့	-10.3955
အင်္ဂါ	-10.3956
▁မူရင်း	-10.3957
▁လွတ်မြောက်	-10.3958
အဖွဲ့အစည်းများ	-10.3958
▁မီးရထားလမ်း	-10.3963
နန်းတော်	-10.3965
အရေအတွက်	-10.3966
ထဲက	-10.3968
▁ကိုလည်း	-10.3971
▁အသံထွက်	-10.3986
▁ပျံ့နှံ့	-10.3989
ကြသည်	-10.399
▁နှလုံး	-10.3992
▁မျက်နှာပြင်	-10.3994
▁ဘုရင့်	-10.4
▁အမျိုးသမီးများ	-10.4004
▁အစရှိသော	-10.4006
▁နှစ်ခု	-10.4007
),	-10.4007
▁သကြား	-10.4013
စင်း	-10.4017
ထမ်း	-10.4021
▁လက်ရာ	-10.4021
ချန်	-10.4023
▁ကြီးမားသော	-10.4027
▁စေတီတော်	-10.4031
▁အခြေစိုက်	-10.4039
▁ပြိုင်ပွဲ	-10.4039
▁ရွှေဘိုမြို့နယ်	-10.404
တစ်လျှောက်	-10.4041
ခံယူ	-10.4042
▁မက်မန်းမြို့နယ်	-10.4045
▁အကြံပေး	-10.4047
တို့ဖြစ်သည်။	-10.405
ဂီ	-10.405
ထံတွင်	-10.4053
▁ချုပ်	-10.4053
▁ဆက်ဆံရေး	-10.4061
▁ဟော့ကိုင်းဒိုး	-10.4063
▁ဥရောပတိုက်	-10.4065
▁မသိ	-10.408
▁ကောင်စီ	-10.4083
ခွဲခြား	-10.4083
ခု၊	-10.4084
▁တစ်ဆင့်	-10.4084
▁ဗီ	-10.409
ယုံကြည်	-10.4092
ဟီ	-10.41
းကျေးရွာအုပ်စု	-10.4104
▁ကြေး	-10.4108
X	-10.411
▁ဟုခေါ်သည်။	-10.4114
နေကြသည်။	-10.4117
▁မျောက်	-10.4117
ရာဇဝင်	-10.4117
▁ကျိုက်မရော	-10.4118
ဘား	-10.412
▁လို့	-10.4125
▁ဟူ	-10.4125
ထဲမှာ	-10.4127
ဟဲ	-10.4132
▁ရည်ရွယ်	-10.4132
ary	-10.4138
▁ညွှန်ကြား	-10.4138
▁၁၉၈၆	-10.4138
▁ကျော်ကြား	-10.4144
▁ကော်မရှင်	-10.4145
de	-10.4146
▁၁၉၇၁	-10.415
▁ဘောလုံးအသင်း	-10.4152
တိန်	-10.4153
▁သောက်	-10.4161
▁နိုင်	-10.4162
မှုန့်	-10.4162
▁့	-10.4164
▁ပြည်သူ	-10.4172
▁နယ်ချဲ့	-10.4172
▁ဆက်ခံ	-10.4176
ခဲ့ကြလေသည်။	-10.4177
▁လျင်မြန်စွာ	-10.418
−	-10.4186
▁၁၉၈၃	-10.4186
▁သင်း	-10.4191
▁တံတားဦးမြို့နယ်	-10.4192
ဆိပ်ရွာ	-10.4192
▁ဖြစ်သော်လည်း	-10.4195
ယောက်ျား	-10.4199
ပေးသည့်	-10.4199
ဖြစ်ပေသည်။	-10.4199
▁အပ်	-10.4202
ဒက်	-10.4203
▁ခွင့်ပြု	-10.4204
▁သာစည်မြို့နယ်	-10.4206
▁အားထုတ်	-10.4207
ဖုန်း	-10.4207
နိုင်ငံများတွင်	-10.4208
နီးပါး	-10.4209
အင်္ဂလိပ်	-10.4211
▁စာတမ်း	-10.4213
▁ပေးပို့	-10.4213
▁ဇီး	-10.4215
ဒေါ်	-10.4217
▁ဒုက္ခ	-10.4217
အဖြစ်ဖြင့်	-10.4222
ကမူ	-10.4223
▁ကွယ်လွန်ခဲ့သည်။	-10.4226
ခွင်	-10.4228
▁ဂြိုဟ်	-10.4234
▁အချက်အလက်	-10.4237
ဂါးရွာ	-10.4243
▁နေ့ရက်	-10.4249
ဗား	-10.425
သတ္တု	-10.4251
ဒေသ၊	-10.4252
▁အရှေ့ပိုင်း	-10.4253
တောင့်	-10.4254
▁ဟိ	-10.4255
▁ဖြတ်သန်း	-10.4264
▁၁၉၃၈	-10.4267
အုံး	-10.4269
ရမည်းသင်းခရိုင်၊	-10.427
ခြင်းခံရသည်။	-10.4271
ဆောက်လုပ်	-10.4271
ရွာသစ်ရွာ	-10.4272
▁ဓာတုဗေဒ	-10.4272
ရှောင်	-10.4274
▁မကွေးမြို့နယ်	-10.4276
▁စတုတ္ထ	-10.4278
▁To	-10.428
▁ဗိုလ်မှူး	-10.428
ဗစ်	-10.428
▁ဗိုလ်ချုပ်ကြီး	-10.4281
▁ရောက်လာ	-10.4284
▁အစားထိုး	-10.4284
တော်ကြီး	-10.4287
ထားခြင်းဖြစ်သည်။	-10.4288
▁ပုဂ္ဂလိက	-10.4289
မွှေး	-10.429
ဘယ်	-10.4294
မောက်မယ်မြို့နယ်	-10.4295
▁ကွင်း	-10.4299
▁အလေးချိန်	-10.4301
▁•	-10.4303
▁သီး	-10.4305
▁Bo	-10.4311
▁ဖား	-10.4311
ကုန်၏။	-10.4314
ဆိုက်	-10.4315
▁သပြေ	-10.4315
ဒေသများတွင်	-10.4322
°	-10.4322
▁Shwe	-10.4323
▁၅၁	-10.4324
▁အကောင်အထည်ဖော်	-10.4326
သူများက	-10.4334
▁အဆင့်မြင့်	-10.4335
▁အသုံးပြုသော	-10.4338
▁အရွယ်အစား	-10.4342
▁ဒေသအခေါ်မှာ	-10.4343
▁စတင်၍	-10.4344
က္က	-10.4346
▁လေကြောင်းလိုင်း	-10.4349
လက်မ	-10.4357
▁အသေးစိတ်	-10.436
▁ကဲ့သို့	-10.4362
▁ပယ်	-10.4365
ဗဟို	-10.4368
များကဲ့သို့	-10.4372
အနေအထား	-10.4373
▁ဂျာမနီနိုင်ငံ	-10.4377
လျက်၊	-10.4381
ကြို	-10.4381
▁ကိုယ်စားပြု	-10.4382
သင်ကြား	-10.4383
▁မွေးချင်း	-10.4386
▁အလိုအလျောက်	-10.4389
▁ကုသ	-10.439
com	-10.4395
▁အစိုးရအဖွဲ့	-10.4395
ပြွန်	-10.4396
ကီး	-10.4397
▁နားဖန်းမြို့နယ်	-10.4397
ကျောင်းသား	-10.4401
လေရာ	-10.4404
ချီးမြှင့်	-10.4408
▁ကျေး	-10.4418
ဆော်	-10.4418
ထော်	-10.4419
▁မောင်း	-10.4422
son	-10.4422
ian	-10.4423
ရှိခဲ့သည်။	-10.4427
▁အနိုင်ရ	-10.4429
▁မြို့သစ်	-10.443
မှုဖြင့်	-10.4433
▁ပိတ်	-10.4441
▁စားသုံး	-10.4442
▁Thar	-10.4442
လက္ခဏာ	-10.4443
တစ်ခုမှာ	-10.4445
ဆက်သွယ်ရေး	-10.4447
▁Sa	-10.4454
သား၊	-10.4454
သွားပြီး	-10.4455
▁ဝတ်	-10.4456
▁အစားအစာ	-10.4457
▁သဘောထား	-10.4458
ဘန်	-10.4467
နောက်ပိုင်း	-10.4472
ရှေး	-10.4477
▁အချို့က	-10.4478
▁ပလောင်	-10.4478
▁ပြန်လာ	-10.4485
အကျိုး	-10.449
ပုံ၊	-10.4492
▁ကမ်းရိုးတန်း	-10.4494
တွေဟာ	-10.4495
▁ဥပမာအားဖြင့်	-10.4496
နေခြင်း	-10.4501
▁ယနေ့ခေတ်	-10.4503
▁အဓိပ္ပာယ်ရသည်။	-10.4504
ပုဒ်	-10.4509
▁စောင်း	-10.4513
တို့ကိုလည်း	-10.4515
ဖြစ်သောကြောင့်	-10.4515
▁များတွင်	-10.4517
▁ဗိုလ်မှူးကြီး	-10.452
▁စစ်ဆင်ရေး	-10.4527
▁ရှား	-10.4531
▁နှုတ်	-10.4535
▁ဝဲ	-10.4537
ကျင်းရွာ	-10.4539
နမ်	-10.4545
▁ကျွန်	-10.4549
▁ဘဝဇာတ်ကြောင်း	-10.4549
▁ခရစ်နှစ်	-10.4558
ကြံ	-10.4559
ကွန်း	-10.456
▁၁၉၇၉	-10.4566
မဟုတ်ဘဲ	-10.4569
ဇာတိ	-10.4573
ကွေ့	-10.4573
ဂျာနယ်	-10.4578
▁ဆိတ်	-10.4578
▁မောင်းထောင်	-10.4579
တွင်းသို့	-10.4584
▁ရေတပ်	-10.4585
ဖြစ်နေ	-10.4585
▁ပြင်ပ	-10.4587
ခြုံ	-10.4596
ဖြစ်စဉ်	-10.4596
▁လျှောက်	-10.4598
▁ရာသီ	-10.4598
▁၅၈	-10.46
ထန်	-10.4604
▁သီရိ	-10.4606
▁ဆားလင်းကြီး	-10.4607
လျှက်	-10.4607
ဒု	-10.4611
ကွယ်လွန်	-10.4612
ဒိုင်	-10.4613
တော်မူခဲ့သည်။	-10.462
ဒစ်	-10.4625
▁နန်းယွန်း	-10.4627
▁ပထမအကြိမ်	-10.4627
စစ်ဆေး	-10.4629
ဩ	-10.463
▁၁၉၃၆	-10.4632
▁အကျယ်	-10.4641
ပါတယ်	-10.4647
ယဉ်	-10.4652
ပမာဏ	-10.4655
နိုင်ငံတော်	-10.4655
▁ဤသို့ဖြင့်	-10.4658
ပျော်	-10.4658
▁သပိတ်	-10.466
▁ကြီးမား	-10.4661
မြောင်း	-10.4662
တိုင်းတွင်	-10.4662
လာခြင်း	-10.4664
▁ရှမ်းပြည်	-10.4665
အချက်	-10.4666
တီထွင်	-10.4666
▁မည်သို့	-10.4667
10	-10.4669
▁မိုးနဲမြို့နယ်	-10.4672
▁Kyauk	-10.4673
တစ်ခုအဖြစ်	-10.4679
▁အဖွဲ့အစည်းများ	-10.468
▁ငယ်	-10.4682
▁ကလေးမြို့နယ်	-10.4682
စွမ်းအင်	-10.4686
နိမ့်	-10.4689
▁ဧရိယာသည်	-10.4693
▁အဖြူရောင်	-10.4697
▁မုန့်	-10.4698
ဒေး	-10.47
▁တင်း	-10.4704
▁စိတ်ဓာတ်	-10.471
▁တိုက်တွန်း	-10.4722
▁အကူအညီ	-10.4723
▁ဦးဘ	-10.4724
▁ရွေးကောက်	-10.4729
စ္စ	-10.4729
မု	-10.4729
ပုန်း	-10.473
များအပြင်	-10.4732
▁သုံးသပ်	-10.4737
လေးရွာ	-10.4739
ရပြီး	-10.4742
အနီးတွင်	-10.4744
▁မိတ္ထီလာ	-10.4745
ပြတိုက်	-10.4745
ရွေး	-10.475
▁ဗဟိုကော်မတီ	-10.475
▁ဟင်း	-10.4751
ဒီပဲယင်းမြို့နယ်	-10.4752
▁ဖွားမြင်သည်။	-10.4755
ရပ်ကွက်တွင်	-10.4762
▁ငါ့	-10.4764
▁လက်မှတ်ရေးထိုး	-10.4765
ရှိကြောင်း	-10.4773
▁တီး	-10.4774
ရက်တွင်	-10.4775
ဆိုလျှင်	-10.4775
ကာလတွင်	-10.4777
ive	-10.478
▁လယ်ယာ	-10.4786
▁အသုံးပြုခြင်း	-10.4786
လိုက်လေသည်။	-10.4787
▁ယေဘုယျအားဖြင့်	-10.4789
▁ခေါ်တွင်	-10.4789
ရှိလေသည်။	-10.4793
သိမ်းပိုက်	-10.4793
▁လက်ထပ်	-10.4794
▁မီးရထား	-10.4796
က္ခ	-10.4801
▁ပြောကြား	-10.4803
မရှိဘဲ	-10.4812
ဆိုသူ	-10.4818
▁အစား	-10.482
သူ၊	-10.482
သည့်အတိုင်း	-10.4822
▁ဘို	-10.4823
▁ရည်ရွယ်ချက်	-10.4825
နေသည်ကို	-10.4826
▁ထားရှိ	-10.4827
▁အယူအဆ	-10.4827
ge	-10.4828
▁၁၉၆၆	-10.4828
▁ယင်းကို	-10.483
အမြင့်	-10.483
▁ယာဉ်	-10.4831
တွေ့ရှိ	-10.4832
▁ပြည်မြို့နယ်	-10.4834
▁နှင့်အတူ	-10.4842
▁နိုင်ငံများ	-10.4849
▁နောက်ဆုံးဘဝ	-10.4851
▁အခွန်	-10.4852
ရှူး	-10.4854
အဓိက	-10.4859
ကဲ့သို့ပင်	-10.486
▁ဘဏ်	-10.4861
▁တိရစ္ဆာန်များ	-10.4861
▁ယင်းတို့၏	-10.4875
▁လှည့်လည်	-10.4879
▁အာသဝေါကုန်ခမ်း	-10.488
▁၁၉၇၈	-10.4881
ကျသော	-10.4883
▁နီ	-10.4888
▁́	-10.4891
▁တောင်း	-10.4891
▁ပုသိမ်ကြီး	-10.4892
ဒီမိုကရေစီ	-10.4896
▁ကော	-10.4896
▁ဥပ	-10.4898
ကြပ်	-10.4902
▁ဂုဏ်ပြု	-10.4903
မသိ	-10.4904
▁ကော့သောင်း	-10.4905
▁မဟာမိတ်	-10.4922
▁အနေနှင့်	-10.4923
▁ပင်စည်	-10.4927
sh	-10.4927
ဆွေးနွေး	-10.4929
စာတမ်း	-10.4929
▁သာသနာတော်ရှိ	-10.4931
နယ်ပယ်	-10.4933
▁အက်တမ်	-10.4938
▁နာမည်ကြီး	-10.4941
ကျူ	-10.4943
▁Ah	-10.4957
▁ပုလဲ	-10.4958
ရောက်ရှိ	-10.4959
▁ပုလောမြို့နယ်	-10.4961
တွင်ရှိသော	-10.4963
▁Ye	-10.4965
မူကား	-10.4965
သရ	-10.4969
▁လက်ပန်	-10.4974
▁တေ	-10.4975
▁ဝတ္ထုတို	-10.4976
ဇာတ်ကား	-10.4977
ဠ	-10.498
▁ဖြစ်တော်မူ၏။	-10.4982
▁နေရာတွင်	-10.4983
လူထု	-10.4985
▁သိမ်းယူ	-10.4986
တို့သည်လည်း	-10.4988
သီလ	-10.499
အမျိုး	-10.499
▁ထောက်ပံ့	-10.4995
မှုအတွက်	-10.4996
▁သင့်	-10.5001
ဖြေ	-10.5002
▁ထားဝယ်	-10.5004
▁နန်းတွင်း	-10.5005
005	-10.5009
ဟတ်	-10.501
▁စခန်း	-10.5015
လော်	-10.5016
▁ဂျာမနီ	-10.5019
▁မန်း	-10.5019
ဒဲ	-10.502
များအပေါ်	-10.5021
ရှိသော်လည်း	-10.5024
25	-10.5026
▁တစ်ကြိမ်	-10.5028
▁ညီ	-10.5028
▁တေး	-10.5031
▁ဦးနှောက်	-10.5032
မရှိသော	-10.5034
ရီးယား	-10.5036
အထူး	-10.5037
အပြီးတွင်	-10.5037
▁ငါန်းဇွန်	-10.5039
▁ချီတက်	-10.5045
▁သေနတ်	-10.5046
ကျွန်းရွာ	-10.5049
▁အရာတော်မြို့နယ်	-10.5052
▁လက်ထောက်	-10.5058
▁တစ်ဖက်	-10.5059
အဖွဲ့၏	-10.5065
ရွတ်	-10.5068
လာကြ	-10.5068
လမ်	-10.5068
▁အောင်မြင်စွာ	-10.507
နည်းဖြင့်	-10.507
▁ဆင်းရဲ	-10.5074
_	-10.5078
▁ပင်မ	-10.5081
▁မြစ်ဝကျွန်းပေါ်	-10.5089
▁တူရိယာ	-10.5091
ပြည်သူ့	-10.5091
▁စာမျက်နှာ	-10.5093
အုတ်	-10.5095
▁အရေပြား	-10.5096
များသာ	-10.5103
▁ချန်	-10.5104
▁ငလျင်	-10.5108
အလယ်ပိုင်း	-10.5109
▁ခုနှစ်အတွင်း	-10.5118
▁သတိ	-10.512
သာရ	-10.512
အိတ်	-10.512
ဆူး	-10.5121
▁ထောက်	-10.5126
▁ရူပဗေဒ	-10.513
▁မော	-10.5132
ထမ်းဆောင်ခဲ့သည်။	-10.5133
ရိပ်	-10.5133
ရသူ	-10.5134
▁စည်းရုံး	-10.5136
▁ထွက်ပြေး	-10.5136
▁ပိန်း	-10.5141
▁ကံမမြို့နယ်	-10.5142
▁တွက်ချက်	-10.5146
နမ့်ခမ်းမြို့နယ်	-10.5147
သဘာဝ	-10.5148
ဂျစ်	-10.5148
နိုင်ခဲ့	-10.5149
မှာတော့	-10.5149
▁ကူး	-10.5149
ကိရိယာ	-10.5151
ဒေါင်း	-10.5156
▁ဘုရားကျောင်း	-10.5159
li	-10.5161
▁ဝင်ငွေ	-10.5163
▁ထမင်း	-10.5164
▁အရက်	-10.5164
▁လက်အောက်ခံ	-10.5168
▁၁၉၈၄	-10.5172
▁ဆိုသော	-10.5174
မဖြစ်	-10.5176
အဖွဲ့သည်	-10.5177
▁၁၉၈၁	-10.5182
▁ဂျ	-10.5185
ဒဏ္ဍာရီ	-10.5191
▁သင်္ကန်း	-10.5192
▁ရရှိသည်။	-10.5193
▁တီးဝိုင်းများ	-10.5195
လုပ်ကိုင်ခဲ့သည်။	-10.5195
▁၁၉၇၆	-10.5196
ရမ်	-10.5199
ရုံးစိုက်ရာမြို့	-10.52
စော်ဘွား	-10.5208
ခြင်းတို့ကို	-10.5212
နိုင်ရန်အတွက်	-10.5212
စလုံး	-10.522
ကျော	-10.522
▁ပုဏ္ဏား	-10.5221
▁Al	-10.5225
▁ပျူ	-10.5225
▁ငယ်ဘဝ	-10.5233
▁ကောင်းကင်	-10.5234
ရွန်	-10.5235
▁အဆုံးသတ်	-10.5238
ဆိုသည့်	-10.5243
▁X	-10.5245
▁ပေါ်ထွက်လာ	-10.5247
တည့်	-10.5251
တစ်မျိုးဖြစ်သည်။	-10.5251
မင်း၏	-10.5251
ထိန်	-10.5252
▁အယ်	-10.5253
▁ထိန်းချုပ်	-10.526
▁စည်းကမ်း	-10.5265
▁ဘုရင်ခံ	-10.5267
ရာခိုင်နှုန်း	-10.5271
▁တန်ခိုး	-10.5271
ပုပ်	-10.5271
▁သံမဏိ	-10.5272
▁ကြံစည်	-10.5273
▁ဂုဏ်	-10.5274
မျက်	-10.5274
▁သရက်ချောင်း	-10.5275
“	-10.5277
ကျောင်းတွင်	-10.5279
▁တောင်ကုန်း	-10.5281
▁ပါရှိသည်။	-10.5283
▁(;	-10.5283
လွှဲ	-10.5284
▁ရောက်သောအခါ	-10.5284
ဘီး	-10.5286
ကာကွယ်ရေး	-10.5286
ဖွင့်လှစ်	-10.5287
ခဲ့သည်မှာ	-10.5289
စေ၏။	-10.5296
ကျန်းမာရေး	-10.53
▁ခန္တီးခရိုင်	-10.5305
▁ကောင်းမွန်	-10.5305
▁၅ဝ	-10.5308
▁၁၉၃၇	-10.5308
▁အကြိမ်ကြိမ်	-10.5315
▁မီးလောင်	-10.5318
▁အပင်များ	-10.5328
▁Ga	-10.5329
▁ရွေး	-10.5335
ခြမ်း	-10.5336
▁ဩစတြေးလျ	-10.5337
ယုတ်	-10.5342
နော့	-10.5344
ရွေးကောက်ပွဲ	-10.5344
▁ကာဗွန်	-10.5347
▁အစ္စလာမ်	-10.5352
▁ရော	-10.5354
ပြည်နယ်၊	-10.5355
▁ပတ္တမြား	-10.5358
နိုင်မှု	-10.536
▁အနု	-10.536
ခြင်းမှ	-10.5366
မှား	-10.5368
▁လွတ်လပ်သော	-10.5373
▁ညှိနှိုင်း	-10.5373
မံ	-10.5374
▁သမ္မတနိုင်ငံ	-10.5374
▁တဦး	-10.5376
▁ကြသည်။	-10.5377
ဆိုတာ	-10.5378
အောင်မြင်ခဲ့သည်။	-10.5379
နွား	-10.5384
ဘုရားထက်ထက်	-10.5387
▁ကွန်ယက်	-10.5391
ူ	-10.5392
ဂျင်	-10.5393
▁ဧရာဝတီ	-10.5393
▁၁၉၈၂	-10.5393
▁အချင်း	-10.5393
ak	-10.5394
ပင်း	-10.5394
ထိုင်း	-10.5395
▁ကျူးကျော်	-10.5403
▁၇။	-10.5404
lo	-10.5409
သန့်	-10.5414
ဖယ်	-10.5415
ပွ	-10.5417
▁သင်္ကေတ	-10.5425
▁ဆင်ပေါင်ဝဲ	-10.5429
ဈေးကွက်	-10.5429
▁တော်လှန်	-10.5431
အုံ	-10.5431
▁အကြား	-10.5435
▁မူလက	-10.5437
ရန်း	-10.5438
▁ကာတွန်း	-10.5441
ment	-10.5444
▁မွေးဖွားသည်။	-10.5444
လိန်	-10.5445
▁အလားတူ	-10.5445
▁မှတ်ပုံတင်	-10.5446
▁ဓနု	-10.5452
▁ကိန်း	-10.5453
▁ကျောက်မီးသွေး	-10.5454
▁ကလေးခရိုင်	-10.5462
▁မြေပြင်	-10.5466
ပါဝင်သည့်	-10.5466
ဂ္ဂ	-10.5467
ကက်	-10.5468
▁လူ့အခွင့်အရေး	-10.5469
နှင့်စပ်လျဉ်း၍	-10.5471
▁from	-10.5471
နိုင်ကြောင်း	-10.5472
▁သန်းခေါင်စာရင်း	-10.5472
j	-10.5474
▁မျက်	-10.5478
▁၆၄	-10.5479
ပိုင်ရှင်	-10.5488
ကမ်းခြေ	-10.5489
▁ဘုရားရှင်	-10.549
▁ကုန်သွယ်ရေး	-10.549
စပါး	-10.5491
▁အင်္ဂါ	-10.5492
ا	-10.5492
03	-10.5498
▁ကုန်းဘောင်ခေတ်	-10.5499
▁စပ်	-10.5501
▁ရခိုင်ပြည်နယ်	-10.5508
ရှိန်	-10.5509
▁နေထိုင်ကြသည်။	-10.5513
ငြိမ်းချမ်းရေး	-10.5514
ဝန်ထမ်း	-10.5515
အစိုးရက	-10.5518
ျ	-10.552
▁အစိုးရ၏	-10.5521
မျဉ်း	-10.5523
▁တိုကျို	-10.5526
▁အဆင့်အတန်း	-10.5527
▁အဓိကအားဖြင့်	-10.5531
▁ကျွမ်းကျင်	-10.5532
be	-10.5539
လှူဒါန်း	-10.5541
▁ကိရိယာ	-10.5545
▁အခြေခံဥပဒေ	-10.5546
▁ကွယ်လွန်သည်။	-10.5547
▁ဖြန့်ချိ	-10.5548
ပူး	-10.5549
land	-10.5553
▁၁၉၄၄	-10.5554
▁ကပြ	-10.5557
ဝတီ	-10.5558
နန္ဒ	-10.556
သိက္ခာပုဒ်	-10.5561
တွေ့ရ	-10.5571
တန်းရွာ	-10.5573
▁တိ	-10.5579
▁Mo	-10.558
ထုတ်ဝေ	-10.5582
သိုက်	-10.5588
▁ရုတ်တရက်	-10.5597
ဟွေ	-10.5598
နေသူ	-10.5598
ဟ်	-10.5599
ရှ်	-10.5601
မှနေ၍	-10.5601
စို	-10.5602
ကိုင်းရွာ	-10.5607
▁တို့မှ	-10.5609
▁လမ်းကြောင်း	-10.561
ခံရခြင်း	-10.5612
▁ထိုအချိန်က	-10.5614
▁တံခါး	-10.5622
များနှင့်အတူ	-10.5623
aung	-10.5625
▁နို့	-10.5626
နှစ်ပါး	-10.5626
▁ရှေးက	-10.5629
ဒဏ်	-10.5631
နိုင်း	-10.5633
21	-10.5634
နေဆဲ	-10.5636
တပ်များ	-10.5643
စာရေးဆရာ	-10.5644
အီး	-10.5646
▁ဘဝနိဂုံး	-10.5662
ဖုံး	-10.5664
▁ဒေါင်း	-10.5666
▁စသည်	-10.5667
▁ရိုးရိုး	-10.5668
အမည်ဖြင့်	-10.567
ဇီး	-10.5674
▁သို့ဖြင့်	-10.5687
▁၁၉၄၀	-10.5692
▁ဖြစ်သည်	-10.5694
▁မလေးရှား	-10.5697
များသည်လည်း	-10.5699
စေ၍	-10.5701
တို့လည်း	-10.5701
ပျော့	-10.5704
အမှု	-10.5707
▁ဗြဟ္မာ	-10.5709
▁ဖွင့်	-10.5709
သဘင်	-10.5711
▁သိပ္ပံပညာရှင်	-10.572
▁အုပ်ချုပ်မှု	-10.5721
16	-10.5721
တွေမှာ	-10.5722
ရိုးရာ	-10.5729
▁ကမ်းခြေ	-10.5744
ရယူ	-10.5745
▁ရေကန်	-10.5745
vi	-10.5746
▁လွန်ခဲ့သော	-10.5748
တွေနဲ့	-10.5751
ထွန်းကား	-10.5752
▁စာအုပ်များ	-10.5753
ပြုပြင်ပြောင်းလဲ	-10.5754
ကိ	-10.5757
အဆုံး	-10.5758
တတ်၏။	-10.5759
ကိုပါ	-10.5761
▁ပြတိုက်	-10.5763
▁`	-10.5763
▁ဝေါမြို့နယ်	-10.5763
▁ရာဇ	-10.5768
▁လူနာ	-10.5769
နီးယား	-10.577
▁ယင်းငှက်	-10.577
▁ခင်ဦးမြို့နယ်	-10.5771
▁နိဗ္ဗာန်	-10.5776
▁ဆရာဝန်	-10.5787
▁၂ဝဝ	-10.5788
ပြောက်	-10.5789
▁ဤကဲ့သို့	-10.5797
▁မင်းဘူးမြို့နယ်	-10.5799
ချက်များကို	-10.58
▁ပါရှိ	-10.5803
ya	-10.5804
▁၁၉၇၇	-10.5806
အဖြစ်လည်းကောင်း၊	-10.5808
▁တစ်စတုရန်း	-10.581
ကျင့်	-10.5812
▁ချီဖွေမြို့နယ်	-10.5812
နေရာမှ	-10.5817
▁သမဂ္ဂ	-10.5821
▁၁၉၃၀	-10.5824
ပင်ရွာ	-10.5829
ထီ	-10.583
▁ထိုင်	-10.5833
007	-10.5835
▁ရောက်ရှိခဲ့သည်။	-10.5836
▁မွေးမြူ	-10.584
▁အစွဲပြု၍	-10.5844
▁ဆင်းသက်	-10.5851
▁ပညာရှိ	-10.5853
▁ပျား	-10.5858
va	-10.5859
▁မြင့်	-10.5863
▁သရက်မြို့နယ်	-10.5863
▁အလင်းနှစ်	-10.5865
အယ်	-10.5872
▁ထုတ်ယူ	-10.5875
ကျန်း	-10.5875
ခုံး	-10.5879
▁ရှေးဦးစွာ	-10.588
ဖြိုး	-10.5883
▁ကြော်ငြာ	-10.5887
ate	-10.5887
ထားတဲ့	-10.5888
စွမ်း	-10.589
▁စိုးရိမ်	-10.5891
ကီလိုမီတာလျှင်	-10.5892
ကျေး	-10.5902
▁ဘိန်း	-10.5904
▁ကျဆုံး	-10.5907
ယပ်	-10.5908
▁မြန်မာသက္ကရာဇ်	-10.5909
▁အရည်အသွေး	-10.5911
▁၁၉၈၇	-10.5914
▁၁ဝဝ	-10.5916
▁နန်းတက်	-10.5917
▁ထို့နောက်တွင်	-10.5917
လေ့ရှိ	-10.5919
▁အယူဝါဒ	-10.5924
ပိန်း	-10.5925
ဆိပ်ကမ်း	-10.5926
ဇန်	-10.5928
age	-10.5929
▁အင်္ဂလန်ပြည်	-10.5932
လှုပ်ရှားမှုများ	-10.5936
အလို	-10.5936
သူဖြစ်သည်။	-10.594
များပေါ်တွင်	-10.5941
▁လက်ပံ	-10.5942
အသီးသီး	-10.5944
သဘောတရား	-10.5944
ဝေဖန်	-10.5948
▁သူက	-10.5952
▁ကူးစက်	-10.5954
▁အချိန်ကာလ	-10.5962
minor	-10.5968
13	-10.5969
▁ညနေ	-10.597
▁အာရုံ	-10.597
ကွေး	-10.597
▁ဆောင်းပါးများ	-10.5972
ဘောလုံး	-10.5974
နိုင်ငံသည်	-10.5974
▁ရှည်	-10.5975
▁ယင်းတို့ကို	-10.5979
ကြုံ	-10.5981
▁လှိုင်း	-10.5982
▁၁၉၃၅	-10.5982
ဖြင့်သာ	-10.5982
go	-10.5984
▁ရင်းနှီး	-10.5984
▁မြို့နေလူဦးရေ	-10.5989
ဧက	-10.5989
▁ထိခိုက်	-10.5991
ိက	-10.5995
သမိုင်းတွင်	-10.5995
မျိုးစိတ်	-10.5996
ဘီလူး	-10.6001
အချိန်တွင်	-10.6002
ဆရာကြီး	-10.6004
အံ့	-10.6005
အပင်	-10.6005
om	-10.6008
▁ငယ်စဉ်က	-10.6009
▁မင်	-10.6009
▁လူဦးရေသိပ်သည်းဆ	-10.6011
▁တည်နေရာ	-10.6015
▁ဖွဲ့	-10.6022
▁ညီလာခံ	-10.6025
အဖွဲ့ကို	-10.6027
15	-10.6028
ား	-10.6028
▁မီလီယံ	-10.6029
မြို့ဟောင်း	-10.6035
▁လေ့ကျင့်	-10.6038
▁ဌာနချုပ်	-10.6038
ပစ္စည်းများကို	-10.604
လျား	-10.6041
▁ဖလမ်းခရိုင်	-10.6043
တစ်ကောင်	-10.6044
▁အနောက်ပိုင်း	-10.6047
ပညာရပ်	-10.6048
▁ကသာမြို့နယ်	-10.6056
▁နောင်တွင်	-10.6056
▁ဖောက်	-10.6059
ရမည်ဟု	-10.6063
လျှံ	-10.6063
မူလ	-10.6067
ဆွ	-10.6074
▁တိုးတက်လာ	-10.6075
ယှဉ်ပြိုင်	-10.6076
စတန်	-10.6077
▁တံဆိပ်	-10.6078
ဆက်ဆံရေး	-10.608
▁တစ်နှစ်လျှင်	-10.6083
သရက်	-10.6084
ကိုယ်စားလှယ်များ	-10.6085
▁Le	-10.6086
▁စိစစ်	-10.6086
▁ရှေ့နေ	-10.6088
▁ပြုလုပ်ခဲ့သည်။	-10.609
မြောင်	-10.609
▁မြေကြီး	-10.6095
ရသဖြင့်	-10.6096
01	-10.6101
လာ၍	-10.6103
▁ထားဝယ်ခရိုင်၊	-10.6104
နှင်း	-10.6105
ရော်	-10.6106
အင်းရွာ	-10.6107
အတွင်းမှ	-10.611
da	-10.6112
မျိုးတွင်	-10.6115
▁ဘဏ္ဍာရေး	-10.6115
▁လူမျိုးများ	-10.6116
▁10	-10.6117
▁သိုး	-10.6118
ဗုဒ္ဓဘာသာ	-10.6121
ပြဿနာ	-10.6121
ကွမ်း	-10.6121
▁ကန့်ဘလူခရိုင်	-10.6122
▁လှည်း	-10.6125
ဆက်သွယ်	-10.6125
နိုင်သဖြင့်	-10.6127
▁လူတို့၏	-10.6127
နေတဲ့	-10.6127
▁ခေတ်မီ	-10.6131
▁နုတ်ထွက်	-10.6132
လိမ်	-10.6135
▁မီဒီယာ	-10.6137
တရာ	-10.6141
တည်ရှိသည်။	-10.6142
ယင်	-10.6147
ဋ	-10.615
▁g	-10.6159
▁အနေအထား	-10.6161
▁ဖြေရှင်း	-10.6163
ကြေညာ	-10.6165
လုံကျေးရွာအုပ်စု	-10.6169
▁နိုင်ငံခြားသား	-10.617
ပေး၍	-10.6179
▁စာကြည့်တိုက်	-10.6181
မိန်းမ	-10.6182
▁လွှတ်	-10.6183
မျိုးဖြစ်သည်။	-10.6187
စသည်တို့	-10.619
▁တည်ဆောက်ခဲ့သည်။	-10.6191
▁၄ဝ	-10.6191
ပွဲများ	-10.6193
ခေတ်တွင်	-10.6194
we	-10.6202
ခန်	-10.6202
▁ဆံပင်	-10.6203
ဘုန်း	-10.6203
▁နယ်ပယ်	-10.6206
မျက်နှာပြင်	-10.6206
▁ဝန်ကြီးဌာန၊	-10.6207
▁သို့ဖြစ်၍	-10.6207
ဓာတ်ငွေ့	-10.6209
သေဆုံး	-10.621
▁ကန့်	-10.621
▁Ra	-10.6211
▁သတ်ဖြတ်	-10.6214
လူငယ်	-10.6214
ဗတ်	-10.6223
▁ဖောက်လုပ်	-10.6227
ငါ	-10.6228
▁တူညီ	-10.6228
တွက်	-10.623
ခဲ့ဖူးသည်။	-10.623
တ္ထ	-10.6231
ယွန်း	-10.6231
ကြည့်ရှု	-10.6238
ဝကျေးရွာအုပ်စု	-10.6244
▁၎င်းတို့သည်	-10.6249
ဂေါ	-10.6249
▁ရေတံခွန်	-10.625
co	-10.6252
▁Li	-10.6258
တက်ရောက်	-10.6269
အစိတ်အပိုင်းများ	-10.6271
▁ရတနာပုံ	-10.6271
ကာလအတွင်း	-10.6273
▁လောက်	-10.6274
▁ဖွားမြင်ခဲ့သည်။	-10.6275
▁ရွှေဘို	-10.6275
▁သာသနာတော်	-10.6276
လမ်းစဉ်	-10.628
▁အကြိမ်	-10.6283
လိမ့်မည်။	-10.6284
▁အက	-10.6291
မကျ	-10.6291
▁ပြန်ဆို	-10.6291
ဘင်	-10.6291
ကွမ်းလုံမြို့နယ်	-10.6291
ies	-10.6292
ကျင့်သုံး	-10.6299
လာလေသည်။	-10.63
လိုက်သောအခါ	-10.6301
▁စိန့်	-10.6302
▁သံဃာ	-10.6304
▁ကမ္ဘာပေါ်ရှိ	-10.6305
အဖို့	-10.6307
▁ဖြေ	-10.6308
ပြဇာတ်	-10.631
▁၁၉၂၀	-10.631
ဆန့်ကျင်	-10.6311
▁ပထဝီဝင်	-10.6313
▁ငရဲ	-10.6315
14	-10.632
ဝေါ	-10.6322
11	-10.6324
စာရေး	-10.6324
သူအား	-10.6324
ကျွဲ	-10.6326
ဟီး	-10.6328
▁ပလက်ဝမြို့နယ်၊	-10.6337
စေသည့်	-10.6338
▁တဆင့်	-10.6338
▁မြို့၏	-10.6342
ဌေး	-10.6347
သီဆို	-10.6361
စီရင်	-10.6361
▁ပို့ဆောင်	-10.6365
ဆော့လော်မြို့နယ်	-10.6371
ဖဲ	-10.6376
▁မြွေ	-10.6379
▁အရှည်	-10.6381
▁အဖျား	-10.6382
▁လုပ်ငန်းများကို	-10.6383
ဆွန်	-10.6383
▁ထုတ်လွှင့်	-10.6383
▁ပါဝင်ပြီး	-10.6384
▁ထုံး	-10.6385
▁ပျက်	-10.6385
▁ဟောကြား	-10.6387
▁ကင်	-10.6389
no	-10.6389
ကာကွယ်	-10.6389
ကြီးများကို	-10.6391
အိုင်ရွာ	-10.6393
▁၉၀	-10.6393
▁New	-10.6394
▁ဝါဒ	-10.6396
မုန့်	-10.6397
▁ဂလက်ဆီ	-10.64
▁ပင်လယ်ရေ	-10.6401
အကောင်းဆုံး	-10.6405
နိုင်မည်	-10.6407
▁အမေရိကန်ဒေါ်လာ	-10.6411
ဆုကို	-10.6415
▁အခြေ	-10.6419
▁တို့နှင့်	-10.6419
လွတ်လပ်ရေး	-10.6421
▁အဆီ	-10.6426
▁ဟောပြော	-10.643
တော့ဘဲ	-10.643
▁ဣ	-10.643
စိ	-10.6431
▁လယ်ယာမြေ	-10.6432
ကြီးမား	-10.6432
အန္တရာယ်	-10.6432
▁ရပ်တည်	-10.6434
▁Mi	-10.6436
▁ရှု	-10.6441
▁၁၉၄၃	-10.6442
စင်တာ	-10.6444
▁ထို့	-10.6444
နှစ်သက်	-10.6445
▁ကိုင်	-10.6446
▁မယား	-10.6447
ခဲ့သောကြောင့်	-10.6448
▁အဝတ်	-10.6448
စစ်ဆင်ရေး	-10.6449
▁အတွေးအခေါ်	-10.645
ဝရွာ	-10.6451
ie	-10.6453
လှူ	-10.6456
▁ပိုင်ဆိုင်	-10.6457
▁ကြီးကြပ်	-10.6459
သူမှာ	-10.646
▁Nyaung	-10.6462
▁အစောဆုံး	-10.6464
သွားလေသည်။	-10.6464
မြန်မာနိုင်ငံရှိ	-10.6468
တီးဝိုင်း	-10.6469
ာက်	-10.647
ဆုံးဖြတ်	-10.6472
တွင်းရှိ	-10.6472
▁ပါးစပ်	-10.6474
▁ဘီး	-10.6478
▁ပုသိမ်	-10.6479
ထည့်သွင်း	-10.648
em	-10.6482
ဝဂ်	-10.6483
မီတာ	-10.6485
သတ္တဝါ	-10.6485
ဆက်လက်	-10.6486
▁လိင်	-10.6487
▁ရောနှော	-10.6488
ရှိနေ	-10.6491
▁လွတ်	-10.6492
ဘုန်းကြီးကျောင်း	-10.6493
▁ဆုံးဖြတ်ချက်	-10.6499
ကုတ်	-10.6504
ပညာကို	-10.6504
▁မိတ်ဆွေ	-10.6504
▁အမည်ကို	-10.6509
▁ဂျူး	-10.651
▁၁၉၂၃	-10.6514
ရှန်း	-10.6515
နှစ်ယောက်	-10.6517
စကားလုံး	-10.6518
တက္ကသိုလ်မှ	-10.6519
▁အကျယ်အဝန်း	-10.6521
▁လျှပ်စစ်ဓာတ်	-10.6521
▁အလံ	-10.6526
▁ပြည်မြို့	-10.6527
စီမံ	-10.6528
▁ဝိုင်း	-10.6528
▁ရေကြောင်း	-10.6529
တယ်လို့	-10.653
▁ဆိပ်ဖြူမြို့နယ်	-10.653
▁ဆိုတာ	-10.6531
▁ရောင်း	-10.6534
ညွတ်	-10.6534
▁ယခုအခါတွင်	-10.6535
▁ချက်ချင်း	-10.6535
နုတ်	-10.6535
ပြို	-10.6536
ပြီးနောက်တွင်	-10.6537
▁ပုဒ်မခွဲ	-10.6537
▁အစ္စရေး	-10.654
▁ပထမဆုံးသော	-10.6541
▁သမိုင်းဝင်	-10.6543
▁အတ္ထုပ္ပတ္တိ	-10.6543
ဆော	-10.6543
▁ယူဆကြသည်။	-10.6543
ပုံသဏ္ဌာန်	-10.6546
▁ဇီးကုန်း	-10.6552
ပင်ကျေးရွာအုပ်စု	-10.6552
ခဲ့ရာမှ	-10.6554
▁လောင်	-10.6558
▁ဟောင်ကောင်	-10.6563
▁မု	-10.6564
နိုင်သည်ဟု	-10.6566
▁ဓာတ်ပုံ	-10.6566
26	-10.6566
လူမျိုးတို့သည်	-10.6566
များအကြား	-10.6568
▁အချက်အလက်များ	-10.6577
ခွ	-10.6577
▁နှင်း	-10.6578
▁ကျင်	-10.6585
▁မရ	-10.6586
▁Ha	-10.6587
ဘူး။	-10.6589
အစည်းအဝေး	-10.659
▁အခမဲ့	-10.6591
▁ဆိပ်ကမ်း	-10.6593
▁ခိုး	-10.6599
ပြစ်	-10.6602
▁ပင်းတယမြို့နယ်	-10.6605
ရောင်ခြည်	-10.6606
▁အိမ်ထောင်	-10.6615
▁အစည်းအရုံး	-10.6621
မြင်းခြံမြို့နယ်	-10.6638
▁လက္ခဏာ	-10.6639
▁အနီရောင်	-10.6641
▁တီးတိန်မြို့နယ်	-10.6647
ကမ္ဘာ့	-10.6649
▁အီတလီနိုင်ငံ	-10.665
▁၈။	-10.6652
ni	-10.6653
မြို့နှင့်	-10.6655
သိရှိ	-10.6658
one	-10.6666
▁ကန်ပက်လက်	-10.6674
ကျိုင်းရွာ	-10.6675
▁တတိယမြောက်	-10.6678
▁ပျံလွန်တော်မူ	-10.6679
▁တရားမဝင်	-10.6682
▁ခမိ	-10.6682
▁ကိုလိုနီ	-10.6682
▁နက်	-10.6683
02	-10.669
▁အကြောင်းကို	-10.669
▁စကားပြော	-10.6692
▁လွယ်ကူ	-10.6694
▁မြို့တစ်မြို့	-10.6695
▁စည်	-10.6696
ဗန်	-10.6699
▁နယ်စပ်	-10.6701
အပေါ်တွင်	-10.6706
▁ဓာတု	-10.6707
22	-10.6714
▁ဂရီဂေါရီးယန်း	-10.6721
▁ထန်းတပင်	-10.6721
io	-10.6726
▁၁၉၂၄	-10.6726
ပိုမို	-10.6727
ပေါ်မှ	-10.6727
ဒင်း	-10.673
▁၁၉၁၈	-10.6734
▁သဲဖြူ	-10.6736
နေရ	-10.6737
ပွတ်	-10.674
▁ရုပ်ပွားတော်	-10.6741
▁ပိုင်	-10.6749
အသွင်	-10.6752
မှုများကြောင့်	-10.6756
mo	-10.6759
တစ်ဦးဖြစ်သည်။	-10.6761
တို့ကြောင့်	-10.6763
as	-10.6766
▁ရုရှ	-10.677
04	-10.6772
▁မြိတ်မြို့နယ်	-10.6772
▁ဂျေ	-10.6776
သာသနာ	-10.6778
▁ရဲ့	-10.6778
▁စက်မှုလုပ်ငန်း	-10.6782
သာကျေးရွာအုပ်စု	-10.6785
များကိုသာ	-10.6785
ကိုးကွယ်	-10.6786
ကောင်းသော	-10.6787
ညွှန်ကြားရေးမှူး	-10.6789
ဂဏန်း	-10.6793
di	-10.6795
12	-10.6805
▁၎င်းတို့မှာ	-10.6807
▁ပြေး	-10.6807
သာရွာ	-10.6807
▁သော်လည်း	-10.6811
ဘာသာဖြင့်	-10.6813
စောင်	-10.6814
▁ကဏ္ဍ	-10.6814
ဟင်	-10.6815
သိုင်း	-10.6817
ကူညီ	-10.6819
▁ဂို	-10.6821
▁မဖြစ်	-10.6822
ရ၍	-10.6822
ဆိုသော်	-10.6822
ကွဲပြား	-10.6825
သစ္စာ	-10.6829
▁ဦးတည်	-10.683
ဒေဝီ	-10.6836
▁အိမ်ခြေ	-10.6838
▁ဒိုင်	-10.6839
▁ပြည်သူလူထု	-10.684
ပေးပြီး	-10.6843
▁သားရေ	-10.6844
▁ရွှေကျင်	-10.6845
လင့်	-10.6845
▁နှစ်ဦး	-10.6847
အဖွဲ့က	-10.685
▁တစ်နေ့	-10.6851
▁ထောင့်	-10.6851
▁ရှိသည့်	-10.6855
▁ဗကပ	-10.6859
▁ပညာရပ်	-10.6863
ဆတ်	-10.6866
▁တောင်ပေါ်	-10.6866
▁နိုင်ငံရေးသမား	-10.6867
▁နည်းပါး	-10.6869
ကာတွန်း	-10.6872
▁Se	-10.6873
ခွာ	-10.6873
▁အတိအကျ	-10.6873
ဖြာ	-10.6876
▁ထွန်း	-10.6877
20	-10.688
▁ပြောကြားခဲ့သည်။	-10.6885
ခဲ့သေးသည်။	-10.6885
▁၅၉	-10.6886
▁အမှုဆောင်	-10.6889
▁သခင်သန်းထွန်း	-10.689
▁စဉ့်ကူးမြို့နယ်	-10.689
ကြွယ်	-10.6891
▁စင်	-10.6896
▁လွှမ်းမိုးမှု	-10.6899
သေးသော	-10.69
▁စီးပွား	-10.6903
▁အီး	-10.6905
▁သူရဲကောင်း	-10.6909
▁ဆန္ဒ	-10.6909
▁ကြယ်စုတန်းမှ	-10.6909
▁အနီး	-10.691
ငံ	-10.691
▁ခေတ္တ	-10.6911
▁ဘုရားကြီး	-10.6913
▁စလင်းမြို့နယ်၊	-10.6913
အချို့ကို	-10.6914
ယွန်	-10.6914
အက	-10.6915
▁ဆဲ	-10.6918
est	-10.692
သူကို	-10.6921
ချည်း	-10.6922
ွ	-10.6925
▁w	-10.6928
လီး	-10.693
ချောက်	-10.6931
▁အသုံးပြုခဲ့သည်။	-10.6931
▁ရှိ၍	-10.6931
ဝန်ဆောင်မှု	-10.6939
စံနစ်	-10.6941
တွေ့ရသည်။	-10.6944
▁ကချင်ပြည်နယ်	-10.6946
မှုမှာ	-10.6947
ခွင့်ရ	-10.6949
နှံ	-10.695
▁မြင့်မား	-10.6951
▁ရှင်သန်	-10.6955
▁၅၀၀	-10.6955
ist	-10.6959
▁စင်း	-10.6959
များစွာကို	-10.6965
▁အရည်အချင်း	-10.6966
▁အရေးပါ	-10.6967
ဟူး	-10.6968
▁တူး	-10.6969
▁အဖွဲ့ချုပ်	-10.6971
▁ကျီး	-10.6972
▁မတ်လတွင်	-10.6972
▁ကယ်လီဖိုးနီးယား	-10.6974
မကောင်း	-10.6974
▁မျက်လုံး	-10.6978
▁အခု	-10.698
ကိုလည်းကောင်း	-10.6981
ve	-10.6982
နိုင်သည်	-10.6982
ခုနစ်	-10.6983
▁လူတိုင်း	-10.6985
op	-10.6986
နည်းလမ်း	-10.6986
လိမ့်မည်	-10.6987
ပေါ်ပေါက်	-10.6988
ပြက္ခဒိန်အရ	-10.6991
▁Na	-10.6991
တ္တာ	-10.6993
သစ်များ	-10.6999
▁၅၄	-10.7003
ကြရန်	-10.7004
▁အဖြူ	-10.7005
05	-10.7009
▁လုပ်ကြံ	-10.7013
▁ချိတ်ဆက်	-10.7015
ut	-10.7017
စန်း	-10.7019
▁လိုက်ပါ	-10.702
▁ထုတ်လုပ်မှု	-10.702
ကျွန်းဆွယ်	-10.7024
▁(2)	-10.7024
သင့်သည်။	-10.7024
အစိုးရအဖွဲ့	-10.7024
▁လှ	-10.7029
ဆရာဝန်	-10.7029
ဘာသာရပ်	-10.703
▁ဆေးဝါး	-10.7031
ဦးရေ	-10.7037
▁ကု	-10.7045
▁ပုံမှန်အားဖြင့်	-10.7047
ပွန်	-10.7049
ဒုက္ခ	-10.7054
ဇို	-10.7054
ခဲ့ရလေသည်။	-10.7054
ကြီးက	-10.7057
ကျွန်	-10.7058
လုပ်ငန်း၊	-10.7064
▁အမှန်	-10.7067
▁Bu	-10.7077
သူတစ်ဦး	-10.7079
▁ဒိုင်း	-10.7079
ကြော်	-10.7081
▁ရရှိသော	-10.7085
ဂု	-10.7085
အခွင့်အရေး	-10.7086
ချမ်း	-10.7086
▁ဆောင်း	-10.7089
▁(1)	-10.7091
အင်ဂျင်နီယာ	-10.7092
▁အလင်းရောင်	-10.7094
▁ကျွန်ုပ်တို့	-10.7094
ဒုံ	-10.7094
▁စီရင်	-10.7095
ဆိုသော	-10.7099
ပေးခြင်း၊	-10.7101
▁ကားလမ်း	-10.7102
▁ငါတို့	-10.7102
ဟုတ်	-10.7103
များအတွင်း	-10.7105
ဘွဲ့ခံ	-10.7107
မည်း	-10.7107
အမတ်	-10.7107
ရိုက်ကူး	-10.7108
▁နောက်ခံ	-10.7109
▁သင်တန်း	-10.7109
▁ထီးချိုင့်	-10.7109
▁ဗန်းမော်	-10.711
အတွင်းရေးမှူး	-10.7111
မဟုတ်သော	-10.7115
▁အချို့မှာ	-10.7115
ချယ်	-10.7118
▁မိုးကုတ်	-10.712
▁ကြည်	-10.7121
▁ရုပ်မြင်သံကြား	-10.7124
ရေတံခွန်	-10.7125
▁အမျိုးမျိုးသော	-10.7127
ပြီ။	-10.713
ā	-10.7134
့်	-10.7135
▁ဖွားမြင်	-10.7136
▁အချစ်	-10.7137
▁အောက်ဆီဂျင်	-10.714
▁ဦးအောင်	-10.7143
35	-10.7147
လို့၊	-10.715
▁ခရီးသည်	-10.7151
တယ်၊	-10.7152
▁ကွမ်	-10.7153
▁၎င်းရွာ	-10.7158
hi	-10.7158
▁နမ့်ဆန်မြို့နယ်	-10.7159
သွားရာ	-10.7159
▁အဝေး	-10.7161
▁ခက်ခဲ	-10.7162
ည်း	-10.7165
ပြုတ်	-10.7168
▁တူးမြောင်း	-10.7169
နည်းကို	-10.717
ခဲ့ပြန်သည်။	-10.7171
▁ယင်းအား	-10.7172
▁ကျက်စား	-10.7173
▁ပြောပြ	-10.7173
နပ်	-10.7173
▁ဖလမ်းမြို့နယ်	-10.7178
▁ဘုရားသခင်	-10.7178
ကောင်းမွန်	-10.7178
ပူးပေါင်း	-10.7179
▁ပေါ်တူဂီ	-10.7185
၁၀၀	-10.7187
▁ခေါ်သော	-10.7188
ကျွန်းလှမြို့နယ်	-10.7189
မှလည်း	-10.719
▁မုံရွာမြို့နယ်	-10.7191
ke	-10.72
▁အများစုမှာ	-10.7202
able	-10.7203
▁သရ	-10.7203
▁စက်တင်ဘာလတွင်	-10.7205
▁အဆုံး	-10.7207
အမည်မှာ	-10.7208
▁လင်္ကာ	-10.7208
▁သဘောတရား	-10.7209
လုံးကို	-10.721
▁ပထမဆုံးအကြိမ်	-10.721
ဓား	-10.721
▁၃၀၀	-10.7211
▁အမှန်တကယ်	-10.7212
မုန်း	-10.7212
ဂျပန်	-10.7213
သူများ၏	-10.7215
▁ဂျာနယ်	-10.7215
ချဉ်	-10.7216
တစ်နှစ်တာ	-10.7217
▁၁၉၂၂	-10.7221
▁နှစ်အရွယ်	-10.7227
▁ဘော်	-10.7227
အတတ်	-10.7228
▁ဒီဇိုင်း	-10.723
ယုံ	-10.7232
အင်းတော်မြို့နယ်	-10.7232
တင်သွင်း	-10.7233
▁အဘယ်ကြောင့်ဆို	-10.7234
အဆိုတော်	-10.7234
▁စတင်တည်ထောင်	-10.7238
▁ဖိုင်	-10.7239
▁မည်	-10.724
▁San	-10.724
ခွင့်ပြု	-10.724
ပြီးသည့်နောက်	-10.7241
မာန်	-10.7242
▁ကိုယ်ခန္ဓာ	-10.7247
▁အထောက်အထား	-10.7251
နေကြောင်း	-10.7252
▁ဒြပ်စင်	-10.7255
▁မည်မျှ	-10.7258
▁ချောင်းဆုံ	-10.7261
17	-10.7268
▁ပေါ်တွင်	-10.7269
ဘွဲ့ကို	-10.727
▁သယံဇာတနှင့်	-10.7271
30	-10.7271
013	-10.7272
န္တ	-10.7274
ကျရောက်	-10.7274
ကူးသန်းရောင်းဝယ်	-10.7281
▁ပေါ	-10.7282
ဖျက်ဆီး	-10.7282
▁ဒေ	-10.7284
▁ဟုခေါ်သော	-10.7285
ဒေါ့	-10.7285
စေး	-10.7288
▁ထူးခြား	-10.729
▁၁၉၂၇	-10.7298
▁ဦးနု	-10.7302
▁စိတ်ဝင်စား	-10.7304
ခြင်းမရှိ	-10.7304
ကြခြင်း	-10.7314
▁သိမ်	-10.7317
ဇံ	-10.7319
East	-10.7323
ဘေ	-10.7324
ဲ	-10.7324
ကျက်	-10.7324
ca	-10.7326
▁လူများ	-10.7328
ယောင်း	-10.7329
နိုင်မည့်	-10.7335
▁၆၇	-10.7337
ညီနောင်	-10.7338
▁လဲ	-10.734
▁၆၉	-10.734
▁အများစု	-10.7348
▁လော့	-10.7353
ထွေ	-10.7354
ဌာနချုပ်	-10.7355
▁ဟောကြားတော်မူ	-10.7355
နည်းပညာတက္ကသိုလ်	-10.7357
▁သော်	-10.7358
▁ကျယ်ပြန့်	-10.7358
▁ကလေးဝမြို့နယ်	-10.736
▁သတ်မှတ်ထားသော	-10.7361
▁စာလုံး	-10.7361
▁လက်မှတ်	-10.7362
▁အာဆီယံ	-10.7364
▁၁၀၀၀	-10.7366
ဟေ	-10.737
သူများအား	-10.7373
ထာ	-10.7375
▁အနား	-10.7377
▁ပြည်သူများ	-10.7381
ဒီဂရီ	-10.7383
▁ပေါ်လာ	-10.7383
သွားလာ	-10.7384
ရာဇ	-10.7386
▁တောရိုင်းတိရ	-10.7387
▁ပေါက်ကွဲ	-10.7388
ဘီစီ	-10.7389
▁အတွဲ	-10.7391
▁အသုံးပြုသူ	-10.7391
▁အကြီးအကဲ	-10.7392
gyi	-10.7394
ဂါး	-10.7394
▁ယနေ့တိုင်	-10.7394
▁မတူ	-10.7395
တဦး	-10.7396
ထား၏။	-10.7397
နယ်တွင်	-10.7401
012	-10.7401
▁အနံ့	-10.7405
ကချင်	-10.7406
▁လော	-10.741
▁ဩဇာ	-10.7411
▁တင်ပို့	-10.7414
့စ်	-10.7414
အလင်း	-10.7416
▁စည်း	-10.7417
အမိန့်	-10.7417
တစ်ထောင်	-10.7418
100	-10.7418
▁အခေါက်	-10.7432
▁ချောင်းဦး	-10.7439
▁သရုပ်ဖော်	-10.7439
▁၁၉၂၈	-10.7441
လောက်တွင်	-10.7449
▁အောက်တွင်	-10.7451
မှော်	-10.7455
▁အထောက်အပံ့	-10.7456
လာသဖြင့်	-10.746
သူတို့၏	-10.7464
တလျှောက်	-10.7469
ဒမ်	-10.7471
▁အကြံ	-10.7472
ခြင်းတို့ကြောင့်	-10.7472
လွှမ်းမိုး	-10.7478
▁ပစ်ခတ်	-10.7479
▁အမရပူရမြို့နယ်	-10.7479
ညှင်း	-10.748
ရှင်းလင်း	-10.748
လေယာဉ်	-10.7482
▁Yar	-10.7489
▁ထိုအချိန်	-10.7495
အက်စ်	-10.7496
bo	-10.7497
▁ဘဲ	-10.7499
▁သီ	-10.7501
ပေါင်းစုံ	-10.751
လေ့ရှိသော	-10.7512
ဆုတ်	-10.7512
စွန်	-10.7516
▁လေယာဉ်ပျံ	-10.7517
ပင်လျှင်	-10.7517
တစ်ဦးဖြစ်ပြီး	-10.7518
▁မြန်မာနိုင်ငံ၌	-10.7519
မျှင်	-10.752
ဖီး	-10.7522
▁Da	-10.7522
တို့နှင့်အတူ	-10.7523
အထက်တန်းကျောင်း	-10.7528
သို့ရောက်	-10.7529
ကုသ	-10.7531
▁ဟူသည့်	-10.7531
▁တခြား	-10.7534
ity	-10.7534
▁အိုလံပစ်	-10.7535
▁ဒေသဆိုင်ရာ	-10.7536
▁ရင်ဆိုင်	-10.7537
ဖြစ်ပါတယ်။	-10.7538
ဧ	-10.7538
▁ရေဖြူမြို့နယ်	-10.754
▁ကျင့်	-10.7541
▁ကလောင်	-10.7543
▁သန့်ရှင်း	-10.7546
▁ဘုရင့်နောင်	-10.7551
နှင်	-10.7554
ရှေးဟောင်းသုတေသန	-10.7554
▁ညီတော်	-10.7555
▁သံတမန်	-10.7556
▁မိမိကိုယ်ကို	-10.7559
ی	-10.7564
မို့	-10.7565
▁တွေ့နိုင်သည်။	-10.7565
မင်းသည်	-10.7568
ဂျက်	-10.7572
▁ထိပ်တန်း	-10.7574
os	-10.7577
နည်းပါး	-10.7578
ပေါင်းစပ်	-10.758
▁စွပ်စွဲ	-10.7584
▁သစ်တောများ	-10.7585
▁နတ်ရွာစံ	-10.7586
▁အကွာတွင်	-10.7587
▁ပွဲတော်	-10.7589
▁သပိတ်မှောက်	-10.7593
▁ဖျက်သိမ်း	-10.7601
▁အတိုကောက်	-10.7602
ခဲ့တယ်။	-10.7603
▁မုန်တိုင်း	-10.7604
▁ပူတာအိုမြို့နယ်	-10.7604
နားလည်	-10.7605
▁အခက်အခဲ	-10.7605
▁အတွင်းတွင်	-10.7608
တိမ်	-10.7608
▁ဂျို	-10.7608
ဖော်ထုတ်	-10.7611
ငွေ့	-10.7611
23	-10.7613
▁လာအို	-10.7614
▁Aung	-10.7619
19	-10.7624
▁Ku	-10.7625
▁ပြား	-10.7631
▁ဆက်လက်၍	-10.7632
ပွဲကို	-10.7632
▁ရှင်းလင်းချက်	-10.7635
▁အသည်း	-10.7636
▁လျှပ်စစ်ဓာတ်အား	-10.7637
▁ခန်း	-10.7639
▁ပျော်	-10.7639
နိုင်စေရန်	-10.7643
▁တရုတ်ပြည်သူ့	-10.7645
ပြုခြင်း	-10.7646
▁ပြည့်နှစ်၊	-10.765
▁တံခွန်တိုင်	-10.7651
ကုံး	-10.7653
▁အီဂျစ်နိုင်ငံ	-10.7656
▁ခံရ	-10.7656
▁အခမ်းအနား	-10.7657
▁မြက်	-10.7657
▁စာမေးပွဲ	-10.7658
▁ဂါ	-10.7658
▁၆၅	-10.7661
▁ပုန်ကန်	-10.7663
သည်ဟုဆိုသည်။	-10.7663
ခေါ်ဝေါ်	-10.7665
▁မိုးညှင်းခရိုင်	-10.7668
▁အချိန်ဇုန်	-10.7669
စေကာမူ	-10.7676
စွယ်	-10.7679
▁ဖြစ်စေ၊	-10.7687
ပွဲတွင်	-10.7698
yun	-10.7707
တစ်ခုတည်း	-10.7709
▁နယူး	-10.7713
▁ဝေး	-10.7714
▁အဘိဓာန်	-10.7715
ig	-10.7715
▁ရီ	-10.7719
သပြေ	-10.7719
▁ပရိုဂရမ်	-10.7722
way	-10.7722
▁နိုင်ငံခြားရေး	-10.7725
ကြိုးစား	-10.7729
စုစည်း	-10.7731
▁ဒေသတွင်း	-10.7737
▁၉။	-10.7738
▁စိတ်ကူး	-10.7741
auk	-10.7742
ထူထောင်	-10.7742
ခဲ့ပြီး၊	-10.7744
▁ဖြစ်သွားသည်။	-10.7747
အဆောက်အအုံ	-10.7752
ညီလာခံ	-10.7752
▁ကုန်စည်	-10.7754
ism	-10.7755
▁မက္ကဆီကို	-10.776
ka	-10.7762
▁တရားရုံး	-10.7768
ညှိ	-10.7769
နိုင်သော်လည်း	-10.777
နေရာကို	-10.777
ပေလိမ့်မည်။	-10.777
▁ရွာသစ်	-10.7783
▁အောက်ခြေ	-10.7783
မှုန်	-10.7784
သုံးသပ်	-10.7785
[	-10.7793
▁ဂယ်လက်ဆီ	-10.7794
ပို၍	-10.7796
▁သမင်	-10.7797
▁ဖွံ့ဖြိုးရေး	-10.78
▁သီပေါမင်း	-10.7802
ဒါယကထေရ်	-10.7802
▁ဖယ်ရှား	-10.7802
သစ်တောဦးစီးဌာနမှ	-10.7803
မတိုင်မီ	-10.7806
▁မော်တော်ယာဉ်	-10.7812
▁ပေါက်တော	-10.7813
▁ဘုန်းကြီး	-10.7817
▁ပြီးစီး	-10.782
▁အာမခံ	-10.7823
တစ်ဖက်	-10.7824
▁ဂဏန်း	-10.7824
mi	-10.7824
▁ခေါ်ယူ	-10.7825
တော်မူသော	-10.7825
▁များနှင့်	-10.7826
များကလည်း	-10.7826
▁အနောက်နိုင်ငံ	-10.7827
▁တီးခတ်	-10.7828
နေသဖြင့်	-10.7828
ယူ၍	-10.7828
ဗီး	-10.7835
▁၁၉၁၁	-10.7839
▁အတိုင်းအတာ	-10.7839
▁ဖြစ်နိုင်သည်။	-10.784
▁at	-10.7842
▁ရစ်	-10.7846
31	-10.7846
နေခဲ့သည်။	-10.7848
စာအုပ်များ	-10.7848
▁ကျိုက်	-10.785
ဦးဆောင်	-10.7852
▁ကိုက်	-10.7855
အစာ	-10.7855
▁လူကြီး	-10.7858
▁ကွယ်လွန်ချိန်	-10.7862
▁မူပိုင်ခွင့်	-10.7863
▁ဆောင်ရွက်သည်။	-10.7865
▁လူဦးရေမှာ	-10.7868
သုတေသန	-10.7869
▁ဘုရားရှိခိုး	-10.7869
▁ဟိန္ဒူ	-10.787
▁ယမ်း	-10.7872
▁အထည်	-10.7872
ဖောင်	-10.7873
the	-10.7874
သမားများ	-10.7883
ငါးပါး	-10.7884
ကွန်ပျူတာ	-10.7885
▁ကာကွယ်ထားသည့်	-10.7885
အိန္ဒိယ	-10.7885
ကြီးနှင့်	-10.7886
▁ကျောက်တန်း	-10.789
စားသောက်	-10.7897
▁မှို	-10.7897
▁ရှိသေးသည်။	-10.7898
ယန်ရွာ	-10.7898
▁ဗီယက်နမ်နိုင်ငံ	-10.7898
▁အရာဝတ္ထု	-10.7899
▁ချို	-10.7906
29	-10.7906
▁သင်ကြားပေး	-10.7906
ကုန်သော	-10.7907
ထားသည်ကို	-10.7908
▁ဗြိတိသျှတို့	-10.7912
မှန်း	-10.7916
▁ဗိသုကာ	-10.7917
ဲ့	-10.7919
▁အလို	-10.792
အမည်ကို	-10.7923
▁တောင်သူလယ်သမား	-10.7926
▁m	-10.7928
ထိန်းသိမ်းရေး	-10.7929
▁မဟုတ်ဘဲ	-10.7931
▁ဘုတ်ပြင်း	-10.7933
▁Be	-10.7934
မခံ	-10.7935
▁ရဟန်းတော်များ	-10.7935
တစ်စင်း	-10.7938
▁၁၉၂၁	-10.7939
▁ဆောမြို့နယ်	-10.7941
ငို	-10.7941
ကျီး	-10.7943
ခပ်	-10.7944
▁လေးစား	-10.7948
ဟုခေါ်သော	-10.795
▁ရသေ့	-10.7954
▁သီဟိုဠ်	-10.796
ပင်များ	-10.7961
▁အမြောက်	-10.7967
▁ဂျုံ	-10.7968
လူမျိုးတို့	-10.7969
သုံးပါး	-10.797
=76	-10.797
▁မြို့ဟောင်း	-10.797
▁ကျော	-10.7972
နိုင်ကြ	-10.7972
တိမ်း	-10.7974
▁မေးမြန်း	-10.7977
▁ရှောက်	-10.7981
ကျော့	-10.7981
စာရင်းတွင်	-10.7981
bs	-10.7983
အများ	-10.7986
တစ်ကြိမ်	-10.7989
▁၁၉၁၇	-10.7998
ium	-10.8002
ကိုယ်ပိုင်	-10.8004
▁စုံစမ်း	-10.8011
▁အလုပ်အကိုင်	-10.8014
▁တွေ့မြင်	-10.8016
▁ဂျက်	-10.8016
ထောက်ပံ့	-10.8016
တွင်သာ	-10.8017
▁အဖိုးတန်	-10.8017
▁တပ်မဟာ	-10.8018
Dagon	-10.8019
▁၁၉၂၉	-10.8019
အရှေ့ပိုင်း	-10.802
▁Di	-10.8024
▁ပိုက်	-10.8024
▁ပြည်တွင်းစစ်	-10.8026
▁စော်ဘွား	-10.8027
▁အနောက်မြောက်	-10.8027
ငလျင်	-10.8029
▁Ho	-10.8029
▁၁၉၁၉	-10.8029
▁ရှောင်	-10.8034
▁တစ်ခုတည်းသော	-10.8036
ချေး	-10.8037
▁သဖြင့်	-10.8037
▁စစ်မှုထမ်း	-10.804
▁ဗဟုသုတ	-10.8043
▁ကြေးနီ	-10.8043
▁Myoth	-10.8043
▁ချည်	-10.8047
▁တဖန်	-10.8049
▁ဖက်ဒရယ်	-10.8049
ဆော့	-10.8051
▁စင်စစ်	-10.8052
▁ထူး	-10.8054
▁အဘယ်	-10.8058
ပေးပို့	-10.806
ရမည်ဖြစ်သည်။	-10.8062
▁အဆောက်အဦ	-10.8065
▁စေတုတ္ထရာ	-10.8068
မည့်အန္တရာယ်ရှိသ	-10.8068
▁သက်တော်	-10.8068
▁၁၈၈၅	-10.8069
ကြိတ်	-10.807
ပဲ့	-10.807
စ္ဆာန်များအဖြစ်	-10.8071
ah	-10.8072
▁ဆုံး	-10.8073
▁ကွဲပြားခြားနား	-10.8074
ပါရှိသည်။	-10.8079
▁ဖရူဆိုမြို့နယ်	-10.808
▁ထိုဒေသ	-10.8081
ide	-10.8082
မွေးဖွား	-10.8082
▁စက်မှုလက်မှု	-10.8085
▁ဥက္ကဋ္ဌအဖြစ်	-10.8085
▁မရမ်း	-10.8088
စွာဖြင့်	-10.8089
▁နာဂကိုယ်ပိုင်	-10.809
▁ဘား	-10.809
▁ခွဲ	-10.8092
▁အဆောက်အအုံများ	-10.8093
▁ပိုင်း	-10.8094
ကြည့်လျှင်	-10.8097
▁e	-10.8098
▁မောင်းနှင်	-10.8098
ခေါင်းဆောင်များ	-10.8099
ျိုးဆက်ပျက်သုဉ်း	-10.8101
▁ချီးကျူး	-10.8103
▁အကျိုးသက်ရောက်	-10.8104
ဓိ	-10.8106
အလံ	-10.8106
ရေးအဖွဲ့	-10.8108
▁၁၉၂၅	-10.8111
▁နိုင်ငံရေးပါတီ	-10.8113
ဇ္ဇ	-10.8116
ထုံ	-10.8116
▁ဂေါ်	-10.8116
ဒယ်	-10.8119
ယှဉ်	-10.812
▁သိမ်း	-10.8121
▁လူသိများ	-10.8122
▁ယူနက်စကို	-10.8123
▁ထင်ရှားသည့်	-10.8126
▁လူတို့သည်	-10.8127
▁ဂန့်ဂေါမြို့နယ်	-10.8128
▁ဒီလို	-10.8131
▁ဖွံ့ဖြိုး	-10.8134
▁မြန်မာတို့	-10.8137
▁အာကာသယာဉ်	-10.8138
▁မေလတွင်	-10.8139
ခူ	-10.815
ဘာသာပြန်	-10.8151
သူ့	-10.8152
▁ကုန်ဆုံးရန်	-10.8157
▁သိပ္ပံပညာ	-10.8164
သိုး	-10.8166
▁ဒေါ်ခင်	-10.8168
အရည်	-10.8172
▁ခန့်မှန်းခြေ	-10.8173
▁ဖော်ပြခဲ့သည်။	-10.8177
▁အလှ	-10.8177
ရုပ်တု	-10.8179
▁အဆက်အသွယ်	-10.8179
သင်္ကေတ	-10.8184
ညင်း	-10.8184
▁ဖြစ်ရပ်	-10.8184
▁အင်္ဂလိပ်စာ	-10.8184
တရားရုံး	-10.8188
▁အကောင်	-10.8188
▁Ya	-10.8188
▁ညောင်ပင်သာ	-10.8188
pe	-10.8194
လိုအပ်	-10.8196
ဒတ်	-10.8199
စိုင်း	-10.8199
တွေရဲ့	-10.8202
▁စိုး	-10.8203
▁သေချာ	-10.8203
▁ပြောင်းရွေ့	-10.8204
▁ဖွား	-10.8206
စေနိုင်သည်။	-10.8207
▁လယ်ယာစိုက်ပျိုး	-10.8209
▁ဆုံးရှုံး	-10.8209
တပ်ရင်း	-10.8215
သူအဖြစ်	-10.8217
လူမျိုးတို့၏	-10.8217
တစ်နှစ်တာ၏	-10.822
▁ဒသမ	-10.8221
င်္ဂ	-10.8221
ချောင်ရွာ	-10.8226
▁နိုင်ငံသား	-10.8235
▁မြို့ရိုး	-10.824
တစ်ခုခု	-10.824
▁သီအိုရီ	-10.8241
ပေးအပ်	-10.8241
▁အချိန်တွင်	-10.8249
▁အောက်တိုဘာလတွင်	-10.825
အမည်ရှိ	-10.8256
လှပေသည်။	-10.8257
ရာ၏။	-10.8257
ဂင်	-10.8258
ပါတ်	-10.8259
▁တားမြစ်	-10.826
▁မြန်မာလူမျိုး	-10.8264
အခြေစိုက်	-10.8266
▁လူကြိုက်များ	-10.8269
ပြန့်	-10.8271
▁၆ဝ	-10.8272
▁တည်ရှိနေ	-10.8276
ထားခဲ့သည်။	-10.828
ကြွေ	-10.828
စုတ်	-10.8285
▁ကျုံး	-10.8287
▁ဆက်ဆံ	-10.8287
=87	-10.8289
▁မံ	-10.8289
▁အခြေခံပညာ	-10.8293
▁War	-10.8298
▁ဌာပနာ	-10.8303
▁ဟာသ	-10.8307
ဖြစ်ခြင်း	-10.8307
▁ထေရဝါဒ	-10.831
▁လက်နက်ချ	-10.831
▁အဆုတ်	-10.8312
ကော်မရှင်	-10.8314
▁ဖူ	-10.8319
ဖွံ့ဖြိုး	-10.8319
ပြင်းထန်	-10.8319
တယောက်	-10.8326
bi	-10.8326
တစ်ခု၏	-10.8328
ဟိုင်း	-10.8329
ရာသီဥတု	-10.8329
▁အရွယ်တွင်	-10.8332
008	-10.8333
မျိုးသည်	-10.8336
▁World	-10.8339
အစည်းအရုံး	-10.834
လာခဲ့	-10.834
မျှော်	-10.8343
▁အရှေ့မြောက်ဘက်	-10.8343
▁မချမ်းဘော	-10.8344
▁အနီ	-10.8344
ဟူ၍လည်း	-10.8346
ထက်ပို၍	-10.8348
▁စည်းမျဉ်း	-10.8349
မြို့သစ်မြို့နယ်	-10.835
ဇု	-10.8351
ထန်း	-10.8352
▁လားရှိုး	-10.8353
▁ဘိုးတော်ဘုရား	-10.8356
လုံခြုံရေး	-10.8358
ခံရသော	-10.8358
▁Y	-10.8367
▁အွန်လိုင်း	-10.8367
မှတ်သား	-10.8371
ဖွံ့ဖြိုးရေး	-10.8372
▁are	-10.8375
▁Vi	-10.8376
နှင့်ဆိုင်သော	-10.8377
▁မော်တော်ကား	-10.8379
▁Wa	-10.838
ကျိုင်း	-10.8383
ပွန်း	-10.8383
ရေကန်	-10.8383
▁ဩ	-10.8386
သက်သက်	-10.8388
နောက်ဆုံး	-10.8388
▁၅၃	-10.839
ကန့်	-10.8394
လက်မှတ်	-10.8396
လောကတွင်	-10.8397
လာရာ	-10.8401
▁နှိုင်းယှဉ်	-10.8402
ပါစေ	-10.8404
▁အု	-10.8405
▁သနပ်ပင်မြို့နယ်	-10.8407
▁ရန်ပုံငွေ	-10.8409
ဝန်းကျင်	-10.841
ဆန္ဒ	-10.8412
နံပါတ်	-10.8415
အသား	-10.8416
▁အမှတ်အသား	-10.8416
▁၆၁	-10.842
သည့်အခါတွင်	-10.8421
ချ်	-10.8423
▁စပ်ဆို	-10.8426
နေပြည်တော်	-10.8427
▁ပေးခဲ့သည်။	-10.843
တူရိယာ	-10.8431
▁Lu	-10.8432
ခီးရွာ	-10.8434
ညက်	-10.8434
အသုံး	-10.8437
ဦး၊	-10.8439
ဝှက်	-10.8441
အားကစား	-10.8445
▁ရခဲ့သည်။	-10.8446
▁ထွက်လာ	-10.8448
▁ချုပ်ဆို	-10.8449
ell	-10.8454
နှီးမြှုပ်နှံမှု	-10.8455
မြုပ်	-10.8456
စီစဉ်	-10.8458
▁အရှေ့တောင်ဘက်	-10.846
▁တစ်နိုင်ငံလုံး	-10.8461
တစ်ရပ်ကို	-10.8461
▁ရထားလမ်း	-10.8464
▁အော့	-10.8464
▁Do	-10.8465
ခေါ	-10.8467
ဖြစ်ပေါ်လာ	-10.847
▁အရေးကြီး	-10.8471
ip	-10.8473
▁မတူပီမြို့နယ်	-10.8476
ကြိုက်	-10.8476
▁ဘီလူး	-10.8477
မြောက်ဘက်	-10.8479
န္ဒ	-10.8482
!	-10.8485
▁တောက်	-10.8485
▁နောင်အခါ	-10.8487
24	-10.8488
ခဲ့ရပြီး	-10.8488
▁Myo	-10.8489
▁ရေးမြို့နယ်	-10.849
▁ဝေဒနာ	-10.8492
ပုဂံ	-10.8498
▁အသက်မွေး	-10.85
ဘန်း	-10.85
ကေး	-10.8502
▁သက်ရှိ	-10.8502
▁ပညတ်တော်မူခဲ့	-10.8502
▁ပြာ	-10.8504
▁ပြဋ္ဌာန်းချက်	-10.8508
▁ဝင်ရောက်လာ	-10.851
▁သတ်မှတ်ခဲ့သည်။	-10.851
ခဲ့ကြ၏။	-10.851
လိုက်နာ	-10.8512
ပေမယ့်	-10.8515
▁Windows	-10.8515
သူက	-10.8516
▁လောင်းလုံး	-10.8518
▁သခင်စိုး	-10.8519
လူဦးရေ	-10.8523
06	-10.8528
▁လှူ	-10.8528
▁ဖားကန့်မြို့နယ်	-10.8529
▁မင်းတပ်ခရိုင်	-10.8532
▁တို့ဖြစ်ကြသည်။	-10.8534
▁ယင်းတို့သည်	-10.8537
ပညာရှင်များ	-10.8537
▁ယခုတိုင်	-10.8538
▁နန့်	-10.8538
▁လိုင်	-10.854
ပြည့်စုံ	-10.8541
▁တောင်အာဖရိက	-10.8544
ဌာနခွဲ	-10.8544
▁၁၅၀	-10.8544
▁ဖြစ်ပြီး၊	-10.8546
ဝံသ	-10.8548
ဖြစ်လျှင်	-10.8549
▁ဟူသည်မှာ	-10.8549
ခြင်းမပြု	-10.8552
ကျောင်းများ	-10.8553
အများစုသည်	-10.8553
▁တံ	-10.8556
▁တဲ	-10.8558
▁Ne	-10.8558
▁ထွက်ခွာ	-10.8559
ဆက်ဆံ	-10.8559
017	-10.8559
ဝယ်ယူ	-10.8561
▁အောင်ဆန်း	-10.857
ဝိုင်	-10.8572
▁လှပ	-10.8576
he	-10.8576
▁အနားယူ	-10.8576
ub	-10.8578
▁ဖြစ်သဖြင့်	-10.8583
▁ခရု	-10.8583
ခြင်း၏	-10.8585
အမှုထမ်း	-10.8585
▁လူပေါင်း	-10.8586
ချီး	-10.8588
ခရီးစဉ်	-10.8592
ပါဝင်ပြီး	-10.8595
▁သာသနာရေး	-10.8599
▁ခရုပတ်ပုံစံ	-10.8599
▁ဆုံ	-10.8601
နေ့တွင်	-10.8603
▁ဆင်ခြင်	-10.8606
မည်ဖြစ်ကြောင်း	-10.8606
▁ဝိန်းကောင်	-10.8608
▁ကနေဒါနိုင်ငံ	-10.8608
▁ဘင်္ဂလားဒေ့ရှ်	-10.8609
tra	-10.8614
ထုတ်လုပ်မှု	-10.8614
လေတော့သည်။	-10.8618
▁အရှိန်	-10.8619
▁သဒ္ဒါ	-10.8621
ရဏ	-10.8625
ok	-10.8626
ပြီးသောအခါ	-10.8627
▁ဆို၏။	-10.8628
▁လဟယ်မြို့နယ်	-10.8628
▁ဦးရွှေ	-10.8631
ဒေသရှိ	-10.8631
ေန	-10.8632
▁အမည်ပေး	-10.864
ထားရှိ	-10.8641
▁ကုန်သွယ်မှု	-10.8644
▁လှံ	-10.8649
အစိတ်အပိုင်း	-10.8653
▁ရေချို	-10.866
အချက်အလက်များကို	-10.8661
▁အကျဉ်း	-10.8662
▁ခုခံ	-10.8663
လျော့	-10.8667
les	-10.867
pa	-10.867
မြို့ပေါ်ရှိ	-10.8671
▁အဝါရောင်	-10.8676
နိုင်ငံမှ	-10.8679
▁ရန်ကုန်မြို့၊	-10.8684
▁were	-10.8686
ှ	-10.8686
▁ဂေါ့	-10.8689
ဗို	-10.869
ခဲ့ဖူး	-10.8692
▁ပစ္စည်းများကို	-10.8695
▁အပ်နှင်း	-10.8696
လာရောက်	-10.8697
27	-10.87
ရရှိသော	-10.87
tha	-10.87
▁နိုင်ငံတော်၏	-10.8702
▁ပညာသင်	-10.8704
ရသ	-10.8705
▁အမှတ်တံဆိပ်	-10.8705
ပလ္လင်	-10.8706
မြန်	-10.8709
▁မြင်းခြံ	-10.8709
ခမ်းရွာ	-10.8709
နူး	-10.8709
လည်ပတ်	-10.871
မက	-10.8711
▁အကြောင်းမှာ	-10.8712
18	-10.8714
▁သံဖြူဇရပ်	-10.8715
များကိုပါ	-10.8715
▁တစ်ပါး	-10.8716
▁ဓ	-10.8717
အာရှ	-10.8718
ဖွဲ့စည်းခဲ့သည်။	-10.8719
▁မဟုတ်ပေ။	-10.8719
အကြားတွင်	-10.8722
ဥပ	-10.8728
▁ချိန်	-10.8728
ကျဲ	-10.8729
▁ထားဝယ်မြို့နယ်	-10.873
▁ကာမ	-10.8734
▁ဗြ	-10.8735
▁ဖတ်ရှု	-10.8739
▁စပိန်နိုင်ငံ	-10.874
▁ကန့်သတ်	-10.874
▁ပရိ	-10.8741
▁ရှေးဦး	-10.8743
▁ပေါင်းစည်း	-10.8744
▁လုပ်ပိုင်ခွင့်	-10.8746
နေ၍	-10.8746
ကြားတွင်	-10.8746
ကစ်	-10.875
ကြူ	-10.875
▁သူရိယ	-10.8752
ss	-10.8752
နိုင်ခဲ့ပြီး	-10.8754
နှုတ်	-10.8756
မြှင့်	-10.8756
ကျောင်းတိုက်	-10.8758
စိုင်	-10.8762
▁စည်ကား	-10.8762
မော့	-10.8765
မြန်မာ့	-10.8766
ဟော်	-10.8766
▁ရေကျော်	-10.8766
စုစုပေါင်း	-10.8768
▁အိမ်ထောင်စု	-10.8773
ဝံ့	-10.8773
▁ဖြစ်စဉ်	-10.8774
▁အမတ်ကြီး	-10.8779
▁သီချင်းများ	-10.8779
▁၁၉၁၄	-10.878
ရာဇ်	-10.8785
▁ထုတ်ပေး	-10.8788
ယမ်	-10.8789
▁ပတ်သက်သော	-10.8789
▁အားကစားကွင်း	-10.8793
▁အလယ်ခေတ်	-10.8795
▁တောင်းပန်	-10.8796
▁ရွာသစ်ရွာ၊	-10.8796
ကျွန်းစုမြို့နယ်	-10.8797
▁စာဆို	-10.8799
တူညီ	-10.8799
▁အနာဂတ်	-10.8802
ပြောကြား	-10.8804
ဂရက်	-10.8804
းရွာ	-10.881
▁အနံ	-10.8811
ru	-10.8811
လိတ်	-10.8813
▁အနေ	-10.8815
သန	-10.8817
▁ဆည်းပူး	-10.8819
▁ထင်း	-10.8819
အယူအဆ	-10.8829
ထားကာ	-10.8834
▁ကျွန်းစု	-10.8835
▁ဦးဆောင်သော	-10.8839
701501	-10.8841
▁၁၈၈၆	-10.8845
ပတ်ဝန်းကျင်	-10.8846
▁ရွေ့လျား	-10.8847
▁ရှားပါး	-10.8848
▁ယွန်း	-10.8851
▁၁၉၁၂	-10.8852
စကားကို	-10.8852
ခံရပြီး	-10.8853
မိတ်	-10.8853
ရသည်	-10.8853
သမုဒ္ဒရာ	-10.8854
▁စစ်ဘက်	-10.8856
ဆင်းရဲ	-10.8858
▁ကျောင်းတော်	-10.8862
စာလုံး	-10.8863
▁နောက်ဆက်တွဲ	-10.8864
ခေတ်က	-10.8865
sa	-10.8866
ဟိုး	-10.8867
▁ညောင်ကုန်း	-10.8867
▁လမ်းစဉ်	-10.8869
▁ဇွန်လတွင်	-10.8869
ရှိသည်	-10.8873
ဂန့်ဂေါခရိုင်၊	-10.8873
▁ကျူးလွန်	-10.8875
▁ပုဒ်	-10.8877
▁စောင့်	-10.8877
▁အကြောင်းရင်း	-10.8883
▁ဆန်စပါး	-10.8883
▁ဝိဇ္ဇာ	-10.8883
လျှပ်စစ်	-10.8884
▁နျူကလီးယား	-10.8884
▁မှတ်ချက်	-10.8886
▁အဝ	-10.8886
▁စမ်း	-10.889
▁သိက္ခာ	-10.8892
▁သစ်သီး	-10.8893
မရွေး	-10.8893
▁စိုးစံ	-10.8894
ဝါဒီ	-10.8894
▁ဂျော့	-10.8896
သီချင်းများ	-10.8896
▁အလောင်းမင်းတရား	-10.8898
▁ကျေးဇူး	-10.8899
ကျောင်းသားများ	-10.89
ဘုရားကြီး	-10.8902
▁အဖြေ	-10.8903
▁၁၉၃၁	-10.8904
▁တချို့	-10.8904
▁ပြင်းထန်	-10.8907
37	-10.8912
▁ဩဂုတ်လတွင်	-10.8915
▁၆၂	-10.8916
သူများမှာ	-10.8919
▁၅၇	-10.892
မှလွဲ၍	-10.8921
▁ခရီးစဉ်	-10.8922
701502	-10.8923
▁ရေကို	-10.8925
▁ကွန်ရက်	-10.8925
▁ရုပ်ရှင်ဇာတ်ကား	-10.8928
ဒေါ်လာ	-10.8928
▁အိုင်ယာလန်	-10.8928
▁ကြပ်	-10.8932
တစ်ခုလုံး	-10.8933
▁International	-10.8934
ရာနေရာ	-10.8936
▁လက်အောက်တွင်	-10.8936
▁တစ်ခုကို	-10.8939
ခါးရွာ	-10.8947
ကွတ်	-10.8949
အကြီးအကဲ	-10.8949
▁လက်ရှိတွင်	-10.8952
တုန်းက	-10.8955
ကြပါတယ်။	-10.8956
တစ်စု	-10.8958
▁စေတနာ	-10.8959
ဒေသမှ	-10.8961
ထားရာ	-10.8963
▁မန္တလေးခရိုင်၊	-10.8963
ဖလား	-10.8964
မှိုင်း	-10.8965
ဖမ်းဆီး	-10.8967
စမ်းသပ်	-10.8967
int	-10.897
oke	-10.8973
၂ဝ	-10.8974
▁ဖော်ပြထား	-10.8976
ကျမ်း၊	-10.8977
▁ခံတပ်	-10.8978
▁လင်ဟော်မြို့နယ်	-10.8979
နိုင်သူ	-10.8981
ခဲ့သူဖြစ်သည်။	-10.8982
ချိတ်	-10.8986
▁ရက်လုပ်	-10.8988
အာရုံ	-10.8989
▁ခန္တီးမြို့နယ်	-10.8989
▁မစ်	-10.899
▁ဟီ	-10.899
▁ခန့်ထား	-10.8992
သောင်းကျန်းသူ	-10.8994
▁ဥစ္စာ	-10.8995
▁ယုံကြည်မှု	-10.8999
ဇိ	-10.8999
▁ရက်၊	-10.9001
ဘို့	-10.9001
▁ရှယ်ယာ	-10.9003
လောက်အောင်	-10.9005
မျိုးဆက်	-10.9006
▁Ri	-10.9006
ငွေကြေး	-10.9007
ရိပ်သာ	-10.9009
အနီးရှိ	-10.9009
နာစောင့်ထိန်းရန်	-10.9011
ကျုံး	-10.9011
▁အစဉ်အလာ	-10.9013
လိမ့်မည်ဟု	-10.9016
မိနစ်	-10.9019
▁ဒူး	-10.9019
▁သည်လည်း	-10.9019
▁အနှံ့အပြား	-10.902
တွင်း၌	-10.9021
▁အရေးပေါ်	-10.9026
▁လွိုင်	-10.903
▁ရဟန်းသည်	-10.9032
▁ကတ်	-10.9034
▁ဖောင်	-10.9034
▁အိုက်	-10.9036
ဗေး	-10.9039
အဆို	-10.904
အစိုးရ၏	-10.904
▁Car	-10.9043
စွန့်	-10.9043
ဗူး	-10.9043
နေရာ၌	-10.9047
သွားခြင်း	-10.9049
သေးပေ။	-10.9051
ထောင်း	-10.9052
နှစ်မျိုး	-10.9052
▁ဒီဇင်ဘာလတွင်	-10.9053
ကြပေ။	-10.9053
သူကြီး	-10.9062
▁၁၉၁၆	-10.9066
ထိန်းချုပ်	-10.907
ပြန်လေသည်။	-10.9073
▁ဖာပွန်ခရိုင်	-10.9077
▁အစရှိသည့်	-10.9077
အပေါင်း	-10.9082
▁ဟင်္သာ	-10.9086
▁အရေးအသား	-10.9087
ley	-10.9087
လာခဲ့ကြသည်။	-10.9092
▁ဝီလျံ	-10.9092
07	-10.9092
▁ဘူး	-10.9095
▁ထုတ်ဖော်	-10.9095
▁ပုဂ္ဂိုလ်များ	-10.9097
မည်ကို	-10.9099
မောင်မောင်	-10.91
တောင်ပေါ်	-10.9101
နှင့်လည်း	-10.9101
▁ပိတ်ဆို့	-10.9103
▁ဂိုး	-10.9104
08	-10.9107
▁မြတ်စွာဘုရားအား	-10.9108
အော့	-10.9109
▁ငါသည်	-10.9109
▁Mong	-10.9109
▁အစီရင်ခံစာ	-10.9109
ပေးနိုင်	-10.9111
▁ကမာ	-10.9112
▁လယ်သမား	-10.9114
▁တည်ထား	-10.9118
ဝိဇ္ဇာ	-10.9121
▁မိန်းကလေး	-10.9121
▁သူဌေး	-10.9127
နတ်ဘုရား	-10.9128
▁ဟေ	-10.9131
မုံ	-10.9132
ကောင်စီ၏	-10.9133
▁အကွာအဝေး	-10.9135
ကွန်ယက်	-10.9137
▁ကျန်သေး	-10.9137
▁အခါတွင်	-10.9138
▁အစ်	-10.9139
ခဲ့ချေ။	-10.9142
ရှိသဖြင့်	-10.9143
▁၎င်းတို့ကို	-10.9143
ထားရသည်။	-10.9145
▁အဘိဓမ္မာ	-10.9146
၌သာ	-10.9147
▁ကျိုက်ထို	-10.9148
▁ရန်ကုန်မြို့၌	-10.9148
▁အမည်ရင်းမှာ	-10.915
▁၄၀၀	-10.9151
ခံရသူ	-10.9152
လမ်း၊	-10.9155
▁အံ	-10.9155
▁ကေအိုင်အေ	-10.9158
▁ခြင်္သေ့	-10.9158
ပျို	-10.916
▁ရှီ	-10.9163
ကိုယ်စားပြု	-10.9163
လျှောက်ထား	-10.9165
ဏ်	-10.9167
ဆုံးသော	-10.917
▁အသွင်	-10.917
▁ဦးထွန်း	-10.9171
=73	-10.9172
▁တိမ်ကောသွားသည်။	-10.9173
တုန်	-10.9173
▁ဆက်တိုက်	-10.9174
▁(3)	-10.9175
do	-10.9175
▁Mar	-10.9175
▁နှစ်အရွယ်တွင်	-10.9177
တတ်သည့်	-10.9177
ကျူး	-10.9178
▁ဂျာ	-10.9181
မျာ	-10.9182
စကားပြော	-10.9184
▁ရုပ်သံ	-10.9191
▁Pe	-10.9192
ငင်	-10.9192
40	-10.9194
▁၁၉၃၂	-10.9197
▁200	-10.9198
လှုပ်	-10.9199
ကွ	-10.92
အင်ပါယာ	-10.92
သုံးခု	-10.9201
▁မကောင်း	-10.9206
▁ကြောက်	-10.9208
စက်များ	-10.9209
▁St	-10.9209
▁နိုင်ငံပေါင်း	-10.921
han	-10.9212
နို့	-10.9215
▁တတ်	-10.9216
ခုံရွာ	-10.9221
ကမ်းရိုးတန်း	-10.9224
▁ပြစ်ဒဏ်	-10.9231
▁Chan	-10.9235
▁အမေရိက	-10.9235
▁ဆုတောင်း	-10.9236
▁သောင်	-10.9238
▁ကြွေ	-10.9239
▁သုတ်	-10.924
အများစု	-10.924
▁တုတ်	-10.9241
ရရှိသည်။	-10.9246
▁ရွှေကူမြို့နယ်	-10.9248
▁ရုပ်တု	-10.9249
ဖြန့်ချိ	-10.925
ပြီးသော်	-10.9253
▁လူသားများ	-10.9253
▁ဒေသများ	-10.9255
ရေးမှူးချုပ်	-10.926
ပိုင်ခွင့်	-10.9263
ကြီးမှာ	-10.9263
အကြောင်းအရာ	-10.9267
စွ	-10.9269
▁ဆိုသူက	-10.9271
လိုက်ပါ	-10.9273
▁အနော်ရထာမင်း	-10.9275
▁တွန်းဇံမြို့နယ်	-10.9282
နံရံ	-10.9283
ကြချေ။	-10.9286
မပြု	-10.929
▁ကိုင်တွယ်	-10.9293
▁သေးငယ်သော	-10.9294
▁၇၃	-10.9295
မိုးမိတ်မြို့နယ်	-10.9296
▁လုပ်ဆောင်ချက်	-10.9296
နယ်စပ်	-10.9298
▁လောကီ	-10.93
ဟူ၍လည်းကောင်း၊	-10.93
▁မူလတန်း	-10.9301
▁ရှိသည်ဟု	-10.9301
မျိုးနွယ်	-10.9303
ခူး	-10.9304
ဒီပ	-10.9305
▁ဖြူ	-10.9306
ရွှင်	-10.9307
မ္	-10.9307
ပြည့်နှစ်	-10.9308
▁လမ်းပန်းဆက်သွယ်	-10.9315
နှစ်ဖက်	-10.9315
▁ရှားတောမြို့နယ်	-10.9315
ပြဋ္ဌာန်း	-10.9317
ကျမ်းကို	-10.9319
ite	-10.9324
စွပ်	-10.9324
▁မလေးရှားနိုင်ငံ	-10.9324
အဖွဲ့မှ	-10.9326
▁ကာကွယ်ဆေး	-10.9326
အမြောက်အမြား	-10.9326
ရိုင်	-10.9328
09	-10.9328
ကျွန်းစု	-10.9329
အကြိမ်	-10.9329
နဂါး	-10.933
▁အာဏာပိုင်	-10.9331
▁သူတစ်ပါး	-10.9338
ဗျ	-10.9338
တာဝန်ထမ်းဆောင်	-10.934
▁၁၉၂၆	-10.9341
▁အမည်မှာ	-10.9345
▁အနောက်မြောက်ဘက်	-10.9346
ကလေးများကို	-10.9346
▁ဖမ်း	-10.9347
▁ရှင်း	-10.9348
ဇုန်	-10.9348
▁တုံ	-10.935
▁အငြိမ်းစား	-10.9352
▁ကနဦး	-10.9353
လှောင်	-10.9353
ကထောင်ရွာ	-10.9356
▁ဖိအား	-10.936
ဒေါက်တာ	-10.9361
စို့	-10.9362
ab	-10.9362
▁စောင့်ကြည့်	-10.9363
ba	-10.9367
အသံထွက်	-10.9372
▁ဆိုနိုင်သည်။	-10.9372
▁ဦးဘိုး	-10.9373
းဦးကျော်လှ	-10.9373
ညောင်ပင်	-10.9375
ဌ	-10.9381
▁တခု	-10.9382
ပုလဲ	-10.9387
▁အီလက်ထရွန်	-10.9389
▁ဘေးအန္တရာယ်	-10.9389
ဒါရိုက်တာ	-10.939
36	-10.9392
▁ကျွန်တော်တို့	-10.9392
▁အတိုက်အခံ	-10.9394
ပိန်	-10.9394
ဒေသများ	-10.9396
▁ခွင့်ပြုချက်	-10.9398
ဥရောပ	-10.9399
▁တောင်ယာ	-10.9402
▁Microsoft	-10.9406
▁ဗြိတိသျှအစိုးရ	-10.9407
တတ်သူ	-10.9407
▁country	-10.9407
တော့ပေ။	-10.9408
▁သမဝါယမ	-10.9409
ငန်း	-10.941
▁ရဟန်းပြု	-10.9414
အဖွဲ့တွင်	-10.9414
▁အခြေခံ၍	-10.9414
ထုတ်ပြန်	-10.9415
▁ဒီမိုကရက်တစ်	-10.9416
အဖွဲ့များ	-10.9416
▁အတ္တ	-10.9417
မြို	-10.9417
ပေါ်ပေါက်လာ	-10.9421
လှည်း	-10.9423
ပင်သည်	-10.9423
▁ပြန်၍	-10.9426
▁ညွှန်ကြားချက်	-10.9433
ner	-10.9433
▁လက်ယာ	-10.9435
နယ်နိမိတ်	-10.9436
▁ဒေါသ	-10.9437
▁အာဏာသိမ်း	-10.9439
ac	-10.9443
▁ဧပြီလတွင်	-10.9448
▁လျှာ	-10.9449
▁အိပ်မက်	-10.9452
▁စွန့်ပစ်	-10.9453
ညှပ်	-10.9454
မိခင်	-10.9455
▁မြေပုံ	-10.9459
မှုရှိ	-10.946
များပါဝင်သည်။	-10.9462
▁ဖြစ်ကာ	-10.9462
မျော	-10.9463
ဗမာ	-10.9466
▁အကယ်ဒမီ	-10.9473
33	-10.9479
တာဝန်ယူ	-10.9479
▁လန်	-10.948
▁နှိမ်နင်း	-10.948
▁အရေးယူ	-10.9486
▁ကုသိုလ်	-10.9486
▁နို	-10.9487
သားတော်	-10.9489
▁ဇော်	-10.9489
ဟွန်း	-10.949
ကြောက်	-10.949
▁အမည်တွင်	-10.949
▁မော်ကွန်း	-10.9491
▁ရုရှားနိုင်ငံ	-10.9493
/&	-10.9493
▁ထိုခေတ်	-10.9498
tab	-10.9498
▁Po	-10.9498
▁နေအိမ်	-10.9499
▁သောင်းကျန်းသူ	-10.9501
နူ	-10.9503
ဇွန်	-10.9503
▁Tan	-10.9503
▁ကောက်ယူ	-10.9505
သက်သာ	-10.9507
မေတ္တာ	-10.951
တန်ဆာ	-10.951
မြှောင်	-10.951
စေရန်အတွက်	-10.9511
သွန်	-10.9516
အရပ်တွင်	-10.9516
သစ်ကို	-10.9517
▁သားဖြစ်သူ	-10.9518
▁ခွန်	-10.952
မြူ	-10.9523
နိုင်ပေ။	-10.9525
▁ဘင်္ဂလား	-10.9527
▁မြေထဲပင်လယ်	-10.9527
စုဆောင်း	-10.953
▁ကမ္ဘာ့အမွေအနှစ်	-10.9532
▁ပိုင်းခြား	-10.9533
▁ထိုအချိန်မှစ၍	-10.9534
ပုံပြင်	-10.9538
သိက္ခာပုဒ်၊	-10.9538
▁အစဉ်	-10.954
ခန်းမ	-10.9541
▁ကြယ်စုတန်း	-10.9543
▁Si	-10.9544
နေပြီ	-10.9547
▁ငန်း	-10.9549
ap	-10.9552
▁ခွဲစိတ်	-10.9553
အိုက်	-10.9559
စီးဆင်း	-10.9561
ဘုရားကျောင်း	-10.9564
မဟုတ်၊	-10.9564
▁မဖြစ်နိုင်	-10.9565
▁အသုံးအနှုန်း	-10.9568
တာကို	-10.957
မြစ်သည်	-10.9571
▁Myanmar	-10.9572
ခဲ့သည်ကို	-10.9572
ခဲ့ကြသော	-10.9573
လျှော့	-10.9573
▁စုံ	-10.9574
▁တစ်ဦးဖြစ်သည်။	-10.9575
စီရင်စု	-10.9576
con	-10.9578
▁ရလဒ်	-10.958
ပါဘူး။	-10.9582
▁သာယာကုန်း	-10.9587
လေ့ရှိပြီး	-10.9589
ဂိ	-10.9591
▁တွက်	-10.9592
▁ထိန်	-10.9599
လာစေရန်	-10.96
▁ထူ	-10.9601
▁ကောင်းသော	-10.9602
မိုးကုတ်မြို့နယ်	-10.9602
အထွေထွေ	-10.9602
▁ကြိမ်မြောက်	-10.9605
ကြဲ	-10.9607
သောအခါတွင်	-10.9609
▁ပေါင်မြို့နယ်	-10.9609
ဇိုင်း	-10.9613
▁ဆွီဒင်	-10.9614
▁ယုံကြည်ကြသည်။	-10.9615
တိတ်	-10.9615
▁အီရတ်	-10.9619
ထားသည်	-10.962
ံ့	-10.9621
ကိုလိုက်၍	-10.9622
▁အသက်ရှူ	-10.9623
▁ဘူ	-10.9623
▁သွင်း	-10.9624
လာလျှင်	-10.9635
▁လက်ဖက်	-10.9638
▁ထောင်ဒဏ်	-10.9642
▁၆၆	-10.9642
▁အပူပိုင်း	-10.9645
▁သတ္တုတွင်း	-10.9648
စိမ့်	-10.965
▁သက်သာ	-10.9657
▁ခုကို	-10.9657
▁ထီးလင်းမြို့နယ်	-10.9662
လဲ့	-10.9664
ထရီ	-10.9666
ဇူ	-10.9666
▁သက်ဆိုင်သော	-10.967
▁နစ်	-10.9672
▁ပယ်ဖျက်	-10.9677
=65	-10.9678
▁Ph	-10.9683
အပူချိန်	-10.9684
▁ပဲခူးရိုးမ	-10.9684
ဦးစီး	-10.969
▁ထိုခေတ်က	-10.969
▁ဟင်နရီ	-10.969
▁China	-10.969
တို့အကြား	-10.969
▁နိုင်ငံများတွင်	-10.9695
▁အကြောင်းအရာများ	-10.9696
▁University	-10.9696
▁ကညင်	-10.9696
▁အထက	-10.9697
ach	-10.9703
▁နမ်	-10.9708
လာကာ	-10.9709
▁Gu	-10.9712
▁နံရံ	-10.9713
▁ဗီဒီယို	-10.9715
▁အနောက်တောင်ဘက်	-10.9717
▁နိုဝင်ဘာလတွင်	-10.9722
%)	-10.9723
awng	-10.9723
▁ထူးချွန်	-10.9724
ထစ်	-10.9724
▁ခေါင်းလောင်း	-10.9725
ဂျင်း	-10.9726
ပြီဟု	-10.9734
ဖူးသည်။	-10.9735
ver	-10.9736
အယူ	-10.9739
▁စွန်	-10.9739
စောက်	-10.9741
ပတ်လည်	-10.9742
▁ထီးနန်း	-10.9744
ထောက်ခံ	-10.9746
လေးပါး	-10.9746
▁co	-10.9753
▁ချဉ်းကပ်	-10.9753
َ	-10.9754
နေကြသော	-10.9754
50	-10.9756
ယာမ	-10.976
▁ကုန်သည်	-10.9762
သစ်ပင်	-10.9763
▁ပါရမီ	-10.9763
ဟိန်း	-10.9764
▁စသဖြင့်	-10.9764
▁အာနန္ဒာ	-10.9768
▁အိမ်နီးချင်း	-10.9769
▁အပြည့်အဝ	-10.9769
▁တင်မြှောက်	-10.977
တော့ချေ။	-10.9772
▁ဝယ်	-10.9772
▁အက်ဆစ်	-10.9785
စိပ်	-10.9786
▁ဖျော်ဖြေ	-10.9788
▁ရေးထိုး	-10.979
▁ပြင်းထန်စွာ	-10.9791
▁အဖိုး	-10.9793
▁ယို	-10.9793
အခမ်းအနား	-10.9795
မုန်	-10.9801
▁ဗမာ့	-10.9801
▁အတွေ့အကြုံ	-10.9801
▁တူညီသော	-10.9805
▁ကျောက်တိုင်	-10.9809
▁၁၉၀၀	-10.9809
ဗ္ဗ	-10.9809
▁နှစ်မျိုး	-10.981
▁တို့ပါဝင်သည်။	-10.9813
သုခ	-10.9817
မြတ်စွာဘုရား	-10.9819
▁Ro	-10.9819
တစ်မျိုးကို	-10.982
▁မူဝါဒ	-10.982
ကြရလေသည်။	-10.9821
▁ထိုမှ	-10.9821
▁ကမ္ဘာကျော်	-10.9821
▁ကြားခံ	-10.9823
▁သတ်မှတ်ထား	-10.9825
▁ဆောင်ရွက်ရန်	-10.9826
ပမာ	-10.9826
ad	-10.9828
ခဲ့ကြရာ	-10.9829
စာစောင်	-10.983
▁အရင်	-10.9831
မည်သော	-10.9832
ခန့်အပ်	-10.9832
ကြကုန်	-10.9833
▁an	-10.9834
▁ကေအင်န်ယူ	-10.9834
မော်ရွာ	-10.9837
▁Java	-10.9837
▁စစ်သား	-10.9838
ဘောလုံးသမား	-10.984
▁အကျင့်	-10.9841
ဇာတ်လမ်းတွဲ	-10.9841
▁Ar	-10.9842
▁ကျူ	-10.9843
ဉ္စ	-10.9844
▁Te	-10.9844
စက	-10.9847
▁အရေးကြီးသော	-10.9848
▁သတ္တဝါများ	-10.9852
▁အတူတကွ	-10.9855
လိုက်လျှင်	-10.9856
▁ပက်	-10.9858
နေရာများ	-10.9858
▁ရတု	-10.9859
စရိတ်	-10.986
▁Pyin	-10.9862
hu	-10.9863
အသီး	-10.9863
ထုတ်ယူ	-10.9863
ဗလ	-10.9864
ထုတ်လုပ်ရေး	-10.9866
▁မြို့ကြီး	-10.9866
▁ချိုး	-10.9866
ကျော်ထင်	-10.9868
▁အစိမ်းရောင်	-10.9875
▁စီမံခန့်ခွဲ	-10.9879
အရင်း	-10.9883
သမဂ္ဂ	-10.9884
သလဲ	-10.9885
တော်မူ၍	-10.9885
ရွယ်	-10.9891
ကွမ်	-10.9892
ရှီး	-10.9892
ပြင်သစ်	-10.9893
ရွာမ	-10.9894
010	-10.9894
ထင်ရှားကျော်ကြား	-10.9895
ရာမ	-10.9895
အရသာ	-10.99
နားရွာ၊	-10.9903
▁အစောပိုင်းတွင်	-10.9903
▁သိမြင်	-10.9904
▁ပိတ်ပင်	-10.9904
▁ပါကစ္စတန်	-10.9905
တော်များ	-10.9905
▁ဖေဖော်ဝါရီလတွင်	-10.9906
▁သောင်း	-10.9908
အလုပ်သမား	-10.9908
▁Pang	-10.991
▁အန်း	-10.991
▁ဆတ်	-10.9911
▁အဖြစ်အပျက်	-10.9916
ရကား	-10.992
စန်	-10.9922
▁မိုင်းလင်း	-10.9923
▁စီမံခန့်ခွဲမှု	-10.9927
နေရာသို့	-10.9927
▁ရခိုင်ပြည်	-10.9932
▁Group	-10.9934
သူများနှင့်	-10.9936
▁ဒေသများတွင်	-10.9937
မွတ်	-10.9942
▁တိမ်	-10.9943
ပြည်နယ်၏	-10.9943
28	-10.9945
▁ခြေထောက်	-10.9945
ပျို့	-10.9946
ယမ်း	-10.9947
▁Nan	-10.9947
▁အင်္ဂလိပ်တို့	-10.9948
▁ထန်တလန်မြို့နယ်	-10.9949
ဇီဝ	-10.9949
▁ဟတ်	-10.995
uk	-10.9951
▁Pan	-10.9951
နေ၏။	-10.9951
▁အကြမ်းဖက်	-10.9953
▁အမိန့်တော်	-10.9956
▁ဒိုး	-10.9958
▁ဖိ	-10.9966
▁မုန်း	-10.9967
▁နှစ်ဖက်	-10.9969
ရ။	-10.997
▁pop	-10.9972
ခဲ့လျှင်	-10.9975
▁ရေတွက်	-10.9978
ဖြေရှင်း	-10.9979
é	-10.9982
ပထမဆုံး	-10.9982
▁စာပေဗိမာန်	-10.9982
▁ရည်မှန်းချက်	-10.9983
▁သိမ်းဆည်း	-10.9984
▁လွယ်ကူစွာ	-10.9989
ရသေ့	-10.9989
တဘူတာ	-10.9993
သျှ	-10.9998
ခံတပ်	-10.9999
ဓလေ့	-11
ပင့်	-11.0001
အနေနဲ့	-11.0001
▁For	-11.0005
▁ကျမ်းစာ	-11.0005
▁ဗြိတိန်နိုင်ငံ	-11.0006
▁ကယ်	-11.001
▁ရုက္ခဗေဒ	-11.0015
မြင့်မား	-11.0015
ဆန့်ကျင်ရေး	-11.0022
=77	-11.0025
▁၁၉၁၅	-11.0026
ki	-11.0029
လာ၏။	-11.0029
▁အင်းစိန်	-11.0031
▁တူရကီ	-11.0032
▁ရှိသော်လည်း	-11.0033
▁ဝိနည်း	-11.0036
▁နာဂ	-11.0039
▁ဝီ	-11.004
cha	-11.0041
အရှည်	-11.0042
▁အတ္တလန္တိတ်	-11.0043
▁သတိပေး	-11.0044
မရှိပေ။	-11.0046
ဝရ	-11.0047
▁မဟုတ်ပါ။	-11.0047
▁နေရာများ	-11.0047
▁ခရမ်း	-11.0048
▁အကြောင်းပြု၍	-11.005
▁ပါဝင်သရုပ်ဆောင်	-11.0052
တည်းဟူသော	-11.0054
▁အလျောက်	-11.0057
▁တာဝန်ခံ	-11.0057
နေတတ်သည်။	-11.0058
ပရိသတ်	-11.006
▁ဂုဏ်ထူးဆောင်	-11.0061
စွမ်းရည်	-11.0062
▁တိုက်ခိုက်မှု	-11.0064
▁ဖခင်ဖြစ်သူ	-11.0065
မပေး	-11.0066
လင်္ကာ	-11.0068
▁တွေ	-11.0068
▁ရာစုတွင်	-11.0069
▁ခြိမ်းခြောက်	-11.007
ခွါ	-11.007
▁အဆောင်	-11.007
701503	-11.0071
45	-11.0071
▁သိရှိရသည်။	-11.0075
In	-11.0077
▁အမျိုးသားဒီမိုက	-11.0077
ကတော်	-11.0078
ရေစီအဖွဲ့ချုပ်	-11.0078
▁မြို	-11.0079
▁မောင်မောင်	-11.0083
လှသဖြင့်	-11.0085
011	-11.0086
▁ဆိုး	-11.0086
▁မော်လိုက်	-11.0086
▁ခေါင်းဆောင်များ	-11.0087
▁ခြားနား	-11.0088
▁ဖြစ်သောကြောင့်	-11.0089
ရိတ်	-11.009
mer	-11.0091
အမျိုးမျိုးကို	-11.0094
ကွီ	-11.0095
အလွှာ	-11.0095
▁ကျဆင်း	-11.0096
လွင်ပြင်	-11.0097
ဂဲ	-11.0101
▁အမရပူရ	-11.0102
▁ဒေါင့်ကြီး	-11.0104
နိုဘူတာ	-11.0105
အောင်း	-11.0109
▁ဆောင်းရာသီ	-11.0109
မျိုးမှာ	-11.011
ကိုယ်စား	-11.0111
ဋီကာ	-11.0113
အရပ်၌	-11.0115
39	-11.0116
▁ပဉ္စမ	-11.0116
နေချိန်	-11.0117
▁လျှင်	-11.0118
▁ကုန်းမြေ	-11.0119
▁ခွဲထွက်	-11.012
▁တစ်လ	-11.0122
ဧကရာဇ်	-11.0122
ရေးဦးစီးချုပ်	-11.0127
စက္ကူ	-11.0127
သင်ယူ	-11.0127
▁ခုန်	-11.0129
မိမိ	-11.0132
▁အရှေ့မြောက်	-11.0133
ရှူ	-11.0137
32	-11.0137
ဟုခေါ်	-11.0137
▁ကော်ပိုရေးရှင်း	-11.0137
▁ဦးစွာ	-11.0138
▁မွတ်	-11.0141
▁မိုက်	-11.0143
အကျဉ်း	-11.0145
ကွန်မြူနစ်	-11.0147
ရပြန်သည်။	-11.0149
▁ဘုရင်မ	-11.0154
▁ကရင်အမျိုးသား	-11.0155
မည့်သူ	-11.0155
▁ပေပင်	-11.0159
ပလာ	-11.016
▁Pro	-11.016
▁မကျီး	-11.0164
▁များပြား	-11.0166
=72	-11.0167
ကြီးတွင်	-11.0168
▁သဘင်	-11.0168
▁ကေအင်န်ယူပါတီ	-11.0169
▁စကားကို	-11.017
နိုင်ငံရှိ	-11.017
တပည့်	-11.0172
မြှုပ်	-11.0172
▁အဋ္ဌကထာ	-11.0175
ပုံအခြေခံဥပဒေ	-11.0178
▁ကျယ်ပြန့်စွာ	-11.018
▁လွှမ်းခြုံဧရိယာ	-11.0181
ရှင်သန်	-11.0182
▁web	-11.0183
ဖော်ပြထားသည်။	-11.0183
▁လက်ခံကျင်းပ	-11.0184
▁ထို့အတူ	-11.0184
▁အပြောင်းအလဲ	-11.0188
▁အိန္ဒိယနိုင်ငံ၊	-11.0192
▁လက်ဆောင်	-11.0195
မွဲ	-11.0196
▁အဆိုပြု	-11.0198
▁အတွင်းရှိ	-11.0201
တွင်လည်းကောင်း၊	-11.0204
▁ဆယ်စုနှစ်	-11.0208
▁တိဗက်	-11.021
▁တိုးတက်မှု	-11.0211
▁အဆိုအရ	-11.0217
မပါ	-11.0219
ယခင်	-11.0223
▁ကွယ်လွန်သွား	-11.0224
ကျဆုံး	-11.0225
▁အမေ	-11.0226
▁လက်တင်	-11.0226
ပြီးဆုံး	-11.023
အယူဝါဒ	-11.023
▁ထိုစဉ်	-11.0232
မှောက်	-11.0232
ကြကုန်၏။	-11.0239
▁ခုနှစ်များတွင်	-11.024
▁သယ်ဆောင်	-11.024
ပျံသန်း	-11.024
▁အသုံးပြုရန်	-11.0241
လန့်	-11.0245
ပါပဲ။	-11.0247
လှန်	-11.0247
တက္ကသိုလ်တွင်	-11.0249
▁ကယားပြည်နယ်	-11.0252
နှောင်းပိုင်း	-11.0261
▁ထူးခြားသော	-11.0262
ဆိုသည်။	-11.0264
သွားသောအခါ	-11.0266
▁နှစ်ကြိမ်	-11.0267
သူတို့သည်	-11.0267
နှဲ	-11.027
ကြပေသည်။	-11.0272
gon	-11.0272
သည်ကား	-11.0273
နိုင်၍	-11.0276
▁ထိုသူ	-11.0276
▁လွတ်လပ်	-11.0277
▁ဝန်းကျင်	-11.0282
မယား	-11.0292
စစ်ဌာနချုပ်	-11.0292
▁မျိုးရိုး	-11.0293
▁မရှိချေ။	-11.0294
der	-11.0295
▁မြန်မာစာပေ	-11.0298
—	-11.0299
တိုက်ခိုက်မှု	-11.0299
▁it	-11.0302
34	-11.0304
▁မင်းဆက်	-11.0307
▁ဘုန်း	-11.0308
ဂွန်	-11.0309
ကြိုင်	-11.031
▁ဖြစ်ပေါ်စေ	-11.031
▁တစ်ခါ	-11.0314
▁Con	-11.0317
▁ဖွဲ့စည်းထားသည်။	-11.0317
▁နှစ်တွင်	-11.0317
▁ဓာတ်ဆီ	-11.0318
ထံ၌	-11.0321
▁မွေးစား	-11.0324
နိုက်	-11.0325
ci	-11.0327
ရေးသားခဲ့သည်။	-11.0328
▁ကမ္မ	-11.0328
▁စတုရန်း	-11.0328
▁၁၉၆ဝ	-11.0329
ရခြင်းမှာ	-11.0329
မနေ	-11.033
▁အိန္ဒိယပြည်	-11.0331
ဉ်	-11.0331
နိုင်ရေးအတွက်	-11.0335
ဝိဟာရ	-11.0336
ဆဲလ်	-11.0339
▁ကျမ်းဂန်	-11.0339
▁အရင်း	-11.0339
ထပ်မံ	-11.034
▁မောက်	-11.0342
သဘောထား	-11.0349
ish	-11.035
▁Ch	-11.0353
အုပ်စိုး	-11.0355
စူး	-11.0357
▁ဇူလိုင်လတွင်	-11.0363
▁ဗုံး	-11.0363
မှုတွင်	-11.0367
▁တရားသူကြီး	-11.0369
ဖြစ်ရပ်	-11.0369
နေရသည်။	-11.037
ရည်ရွယ်ချက်	-11.037
ဖြစ်ပြီး၊	-11.0371
ငဲ့	-11.0374
ဟုန်	-11.0376
▁ဘယ်လို	-11.0377
▁ရက်နေ့မှ	-11.0378
▁အစု	-11.0378
ခံစား	-11.0379
▁တက်ရောက်ခဲ့သည်။	-11.0379
▁စွမ်းအား	-11.0381
တရပ်	-11.0381
▁ဖု	-11.0381
▁ကွာ	-11.0383
▁သမာဓိ	-11.0383
▁ရန်ကုန်သို့	-11.0385
▁ကြုံ	-11.0386
သူများအတွက်	-11.0386
မွေးမြူရေး	-11.0389
ဆရာမ	-11.0391
မြီး	-11.0392
▁ဖေ	-11.0392
▁ဆန်း	-11.0394
▁စာနယ်ဇင်း	-11.0395
▁ပထမကမ္ဘာစစ်	-11.0396
▁စံပြ	-11.0396
▁ရှေးအကျဆုံး	-11.0397
▁သထုံ	-11.0397
က္	-11.04
နေသည်ဟု	-11.04
▁ဆိုလို	-11.0401
▁ကြွက်	-11.0401
ot	-11.0405
ji	-11.0406
ပေးရ	-11.0407
▁နန်	-11.0407
▁သရက်တော	-11.0411
▁ပိဋကတ်	-11.0413
▁အရွယ်ရောက်	-11.0414
▁ပခုက္ကူ	-11.0415
▁အနိုင်ရရှိ	-11.0415
▁ဆိုလေသည်။	-11.0416
အစိုးရသည်	-11.0417
သားတို့	-11.0417
▁တေးဂီတ	-11.0418
▁မတ္တရာမြို့နယ်၊	-11.0419
▁ရွာတစ်ရွာ	-11.042
▁ကိုလိုနီခေတ်	-11.042
▁Ja	-11.0421
▁ကွမ်းခြံကုန်း	-11.0422
စတီ	-11.0422
တပ်ဆင်	-11.0423
ဂျို	-11.043
တပ်ဖွဲ့များ	-11.0433
▁သိကြားမင်း	-11.0434
သွားသည့်	-11.0435
လိမ့်	-11.0438
▁အတွင်း၌	-11.0438
▁ပင်း	-11.0439
သွားရောက်	-11.0441
စေခြင်း၊	-11.0443
▁၁၀။	-11.0447
=68	-11.0449
▁နိမိတ်	-11.0449
ဟမ်	-11.0449
▁မှန်ကန်	-11.0451
▁ပဋိပက္ခ	-11.0451
Ma	-11.0452
အဆင့်အတန်း	-11.0453
လူငယ်များ	-11.0454
▁လန်ဒန်မြို့	-11.0454
များပြား	-11.0455
▁ရေနွေးငွေ့	-11.0455
up	-11.0459
▁၁၈၉၆	-11.0462
▁အမြန်	-11.0463
▁သယ်ယူ	-11.0463
လူသား	-11.0463
ရပေမည်။	-11.0467
▁၁၉၁၃	-11.0467
▁တွင်လည်း	-11.0469
အောက်ပိုင်း	-11.0472
နှ	-11.0472
South	-11.0477
▁Ni	-11.0478
▁ဒဏ်ရာ	-11.048
ဓာ	-11.0481
ဇွန်း	-11.0482
▁၈၈	-11.0484
▁မျိုးရင်း	-11.0485
lu	-11.0485
▁အပြုအမူ	-11.0485
▁Sin	-11.0491
ရပေသည်။	-11.0492
▁လှိုင်	-11.0492
ထွတ်	-11.0493
ရာတွင်လည်း	-11.0496
ဆွမ်း	-11.0497
တလင်း	-11.05
နည်းတူ	-11.0502
ဂျေ	-11.0507
▁ပြစ်မှု	-11.051
ဩဇာ	-11.051
▁ငယ်စဉ်ကပင်	-11.0511
▁အခွံ	-11.0512
သီအိုရီ	-11.0513
ဟစ်	-11.0514
▁ဒါကြောင့်	-11.0515
ရှိကြသည်။	-11.0515
လွမ်း	-11.0515
နေး	-11.0516
မကျေးရွာအုပ်စု	-11.0517
▁မြောက်အမေရိက	-11.0522
▁အပြင်းအထန်	-11.0523
▁မြင်းမူမြို့နယ်	-11.0524
ဟိုင်	-11.0525
▁စာပေများ	-11.0529
ေး	-11.053
▁၁၉၃၄	-11.053
▁တက္ကသိုလ်မှ	-11.0532
▁ကျန်းမာ	-11.0533
▁အချက်အချာ	-11.0533
▁ခုံ	-11.0537
သက်ရောက်	-11.0539
လုတ်	-11.0541
စေလွှတ်	-11.0542
ပေးနိုင်သည်။	-11.0544
မယ့်	-11.0545
▁သောအခါ	-11.0546
▁အကူအညီဖြင့်	-11.0549
si	-11.055
▁အဓိပ္ပာယ်မှာ	-11.0551
နာဂ	-11.0552
▁Lo	-11.0552
သေနတ်	-11.0555
▁တတ်မြောက်	-11.0556
▁ရှုပ်ထွေး	-11.0556
▁ကြေးနန်း	-11.0556
မြက်	-11.0557
▁လက်မခံ	-11.0558
အသုံးချ	-11.056
ဘုန်းတော်ကြီး	-11.0561
အကျင့်	-11.0563
ဝံ	-11.0565
ဝေဒနာ	-11.0565
ခွဲ၍	-11.0565
▁ဆန္ဒပြ	-11.0566
တစ်ဝက်	-11.0567
core	-11.0568
နက္ခတ်	-11.057
တစ်လျှောက်တွင်	-11.0571
▁An	-11.0576
▁ညဉ့်	-11.0578
▁ကမ္ဘာမြေ	-11.0579
တကာ	-11.058
▁ဝူ	-11.058
အမ	-11.0583
▁မြေး	-11.0584
ဒီဇိုင်း	-11.0584
▁အရုပ်	-11.0585
တိရစ္ဆာန်	-11.0585
▁ကာတာ	-11.0595
▁ခေါင်	-11.0596
နှင့်ပတ်သက်ပြီး	-11.0597
=64	-11.06
▁အစာအိမ်	-11.06
▁ဂိုဏ်း	-11.0603
ဒေဝ	-11.0606
မြှောက်	-11.0606
▁တားဆီး	-11.0606
▁ဦးကျော်	-11.0609
▁နာယက	-11.0609
မလေး	-11.0609
▁ဟုတ်	-11.0611
▁စွန့်လွှတ်	-11.0612
တစ်ရာ	-11.0616
▁အဝါ	-11.0618
အမှန်	-11.062
တွင်ပင်	-11.0622
▁ထိန်းသိမ်းထား	-11.0622
ချိုင့်	-11.0623
▁ပြီးဆုံး	-11.0623
▁နောက်တွင်	-11.0623
and	-11.0626
မှုတ်	-11.0631
▁အသိ	-11.0634
▁ခိုင်း	-11.0635
လျှော်	-11.0636
▁သိသာ	-11.0636
▁ဟက်	-11.0636
▁ပုန်း	-11.0637
▁လူသိများသည်။	-11.0639
▁အော	-11.064
38	-11.0641
ဗိုလ်ချုပ်	-11.0641
နိုင်သောကြောင့်	-11.0641
အနှံ့	-11.0644
▁မှတ်ယူ	-11.0647
တစ်ဦးအဖြစ်	-11.0647
▁အမေရိကတိုက်	-11.065
▁ရှုံး	-11.065
တစ်ချောင်း	-11.0653
ပေးခြင်းဖြင့်	-11.0654
▁သက်သေ	-11.0654
▁ကမ္ဘာ့ဖလား	-11.0656
▁Ca	-11.0657
▁ညောင်ဝိုင်း	-11.0661
▁ဆင်နွှဲ	-11.0663
▁ဖူး	-11.0664
▁၇၂	-11.0666
▁Web	-11.0668
▁ဗုဒ္ဓဘာသာဝင်	-11.0669
ထွင်း	-11.067
စာဆို	-11.0672
ဝတ်ဆင်	-11.0673
▁ချိ	-11.0674
ll	-11.0675
ai	-11.0675
ရတု	-11.0676
မပျက်	-11.068
မီဒီယာ	-11.068
▁နှောင်းပိုင်း	-11.0681
▁အစိုးရမှ	-11.0681
ကျီ	-11.0683
▁မြို့စား	-11.0683
တစ်ဆူ	-11.0685
▁ထိတွေ့	-11.0686
▁အတိတ်	-11.0686
▁ပကတိ	-11.069
ခံရသည့်	-11.069
▁မြဝတီ	-11.0691
နေလေသည်။	-11.0691
ရှက်	-11.0692
▁မိဖုရားကြီး	-11.0692
သေချာ	-11.0693
ကျော်ကြား	-11.0694
ဆိုရင်	-11.0697
▁မိကျောင်း	-11.07
▁ဆိုတဲ့	-11.07
ဖော	-11.0701
အဖွဲ့နှင့်	-11.0702
▁ခရစ်တော်	-11.0703
▁နောင်တော်	-11.0704
စာကြည့်တိုက်	-11.0706
▁ကြီးထွား	-11.0712
▁ကုက္ကို	-11.0713
▁သျှင်	-11.0714
ris	-11.0714
ခြည်	-11.0716
အနား	-11.0716
ချူး	-11.0716
ဂွ	-11.0718
▁လူတန်းစား	-11.0721
▁မင်းလှ	-11.0721
ရလျှင်	-11.0723
တွယ်	-11.0724
▁ရုပ်သိမ်း	-11.0725
▁ဖမ်းယူ	-11.0726
▁သုံးနှစ်	-11.0731
နှစ်အရွယ်	-11.0732
▁စာစောင်	-11.0732
ဗက်	-11.0733
▁Ywar	-11.0734
▁အပူပိုင်းဒေသ	-11.0735
အဖြစ်လည်း	-11.0738
▁တစ်ကမ္ဘာလုံး	-11.0738
ရန့်	-11.0738
▁ပန်းပု	-11.0739
47	-11.0742
▁လိုက်၍	-11.0743
အသုံးအနှုန်း	-11.0743
ပြုကာ	-11.0744
မြောက်ပိုင်းတွင်	-11.0744
စာမေးပွဲ	-11.0749
▁ထု	-11.0749
▁ကူးပြောင်း	-11.0749
▁5	-11.075
▁ရက်မှ	-11.0752
လိုက်ပြီး	-11.0753
ron	-11.0753
▁မွမ်းမံ	-11.0754
သင်္ကန်း	-11.0755
အရေးအသား	-11.0756
နိုင်ချေ။	-11.0757
ယ်ယူပို့ဆောင်ရေး	-11.0763
စိတ်ဓာတ်	-11.0763
လှော်	-11.0764
▁ကြေညာချက်	-11.0766
▁ဖြေဆို	-11.0766
နှောင်း	-11.0766
နိုင်စွမ်းရှိ	-11.0769
▁ကီ	-11.0771
im	-11.0771
ရာစုနှစ်	-11.0772
▁ဆပ်	-11.0773
ated	-11.078
▁ဆွေ	-11.0782
▁အဆင်း	-11.0785
လာအောင်	-11.0786
နိုင်ပါတယ်။	-11.0787
▁ကမ္ဘာစစ်	-11.0788
▁လူငယ်များ	-11.0788
▁အင်ဂျင်	-11.0789
အကူအညီ	-11.0792
lan	-11.0793
▁လိုအပ်သည်။	-11.0793
▁လမ်းညွှန်	-11.0793
ရိန်း	-11.0795
အမြင့်ဆုံး	-11.0795
▁ထောက်ပံ့ပေး	-11.0795
တွေး	-11.0795
ပင်များကို	-11.0796
ဟုန်း	-11.0799
ကုန်သည်	-11.08
▁၁၉၁၀	-11.0802
ခေါ်ဆို	-11.0802
န္	-11.0803
▁အပေါက်	-11.0804
ဇေယျ	-11.0805
ous	-11.0805
▁မုဆိုး	-11.0806
မိန့်	-11.0807
▁သက္က	-11.0809
ဖွဲ့စည်းပုံ	-11.0809
ဖြစ်ထွန်း	-11.0811
▁၉၅	-11.0812
ဖြစ်တဲ့	-11.0821
များမှာလည်း	-11.0823
▁အယ်လ	-11.0824
▁အငြိမ့်	-11.0825
▁18	-11.0825
မျက်စိ	-11.0827
လာခဲ့ပြီး	-11.0829
▁တိုင်ပင်	-11.0833
▁ဇန်နဝါရီလတွင်	-11.0836
▁ဟိုတယ်	-11.084
▁ကျောက်မဲ	-11.084
ن	-11.0841
▁နှစ်ယောက်	-11.0841
▁ဘုရားလောင်း	-11.0842
▁ကလပ်	-11.0844
တမျိုး	-11.0844
▁ဆီးချို	-11.0844
ဆေး၊	-11.0846
နိုင်ငံနှင့်	-11.0848
▁လွမ်း	-11.085
ill	-11.0851
▁အက်ဥပဒေ	-11.0852
ချုံ	-11.0852
▁စတင်ဖွဲ့စည်း	-11.0853
▁ကြာအင်း	-11.0856
မင်းလက်ထက်	-11.0856
yan	-11.0857
▁ဖက်ဆစ်	-11.0857
ster	-11.0857
▁တရားဟော	-11.0857
▁ရေတွင်း	-11.0858
မထား	-11.0863
စေနိုင်	-11.0863
▁He	-11.0864
=90	-11.0866
လူမျိုးများသည်	-11.0868
▁ထန်းပင်	-11.0869
▁အတော်များများ	-11.0872
▁ရပ်တန့်	-11.0873
▁ကြိုးပမ်းမှု	-11.0875
▁မိုင်းဖျန်	-11.0877
▁ငါ့သျှင်တို့	-11.088
▁ချက်ပြုတ်	-11.088
ပါသည့်	-11.088
ပလောင်	-11.0882
▁ဒေးဗစ်	-11.0882
=59	-11.0884
tu	-11.0885
▁အတော်	-11.0885
▁တင်ဆက်	-11.0887
▁Mu	-11.09
▁Jo	-11.0901
▁ပြည့်စုံသော	-11.0903
▁ကွပ်ကဲ	-11.0904
▁ခဝ	-11.0915
ကြပြန်သည်။	-11.0916
▁သတ်မှတ်ထားသည်။	-11.0916
ဇောင်း	-11.0917
▁တို့ဖြင့်	-11.0917
တို့ကား	-11.0921
▁ကုန်သွယ်	-11.0921
▁ဘိ	-11.0922
သတ္တိ	-11.0924
ရှိလျှင်	-11.0925
တစ်ဦးက	-11.0926
ကျူးလွန်	-11.0929
▁သီဟိုဠ်ကျွန်း	-11.0929
▁လွှဲပြောင်း	-11.0929
ခဲ့ရသော	-11.0931
▁not	-11.0931
▁Z	-11.0931
▁ချစ်ခင်	-11.0932
▁အတွင်းပိုင်း	-11.0935
သင့်ကြောင်း	-11.0935
po	-11.0935
ko	-11.0937
▁မျိုးဆက်	-11.0937
▁လောက၌	-11.0939
▁နှာခေါင်း	-11.0944
လူမျိုးစု	-11.0946
ခရီးသွား	-11.0948
▁မျဉ်း	-11.095
၅၀၀	-11.0951
▁Thit	-11.0952
တို့ကဲ့သို့	-11.0953
အများစုမှာ	-11.0957
ဘောင်း	-11.0957
တံတိုင်း	-11.0959
gen	-11.0965
▁အစားအသောက်	-11.0966
မတူ	-11.0969
အုပ်စုတွင်	-11.097
ကြီးမားသော	-11.0973
▁ရက်နေ့အထိ	-11.0974
▁၂၀၂၂	-11.0974
▁သက်ရောက်	-11.0975
ထားသော်လည်း	-11.0975
ညစ်	-11.0977
ထားသဖြင့်	-11.0977
▁ဟိုက်ဒရိုဂျင်	-11.0977
ဆုံးဖြတ်ချက်	-11.0982
ကြည်း	-11.0984
ဂျွန်	-11.0986
▁နှမ်း	-11.0989
▁အလုပ်သမားများ	-11.0989
▁မော်လိုက်ခရိုင်	-11.0989
ရသော်လည်း	-11.099
လွတ်မြောက်ရေး	-11.099
▁ဗိုလ်မှူးချုပ်	-11.0995
▁အမွှေး	-11.0996
အယ်လ်	-11.0999
ယိုင်	-11.1009
▁စာအုပ်ကို	-11.1011
▁ဝိန်း	-11.1013
▁ငှက်ပျော	-11.1013
▁ယင်းတို့မှာ	-11.1014
▁ရံဖန်ရံခါ	-11.1015
▁ရန်ကုန်တိုင်း	-11.1017
လိုက်ခြင်း	-11.1017
စကာ	-11.1018
သာဖြစ်သည်။	-11.1019
ခီ	-11.1022
မှအပ	-11.1022
▁အသေးစား	-11.1023
တိုးချဲ့	-11.1023
▁၁၉၇ဝ	-11.1024
▁တယော	-11.1024
▁မည်သူ	-11.1026
မြွေ	-11.1031
နှင့်ပတ်သက်သော	-11.1032
▁ဝန်ခံ	-11.1035
ov	-11.1035
▁မတရား	-11.1037
▁၁၈၉၄	-11.1039
ဏာ	-11.1041
▁အနက်ရောင်	-11.1041
▁သတ်မှတ်ထားသည့်	-11.1042
▁၁၁။	-11.1048
▁အသင့်	-11.1049
မထေရ်	-11.105
အခြေ	-11.1053
▁ဘင်	-11.1053
ွီး	-11.1054
မြို့ဖြစ်သည်။	-11.1056
ဌာနတွင်	-11.1057
lin	-11.1057
▁တုံ့ပြန်	-11.1058
=207	-11.1059
▁တယောက်	-11.1062
="207	-11.1064
ရက်ထပ်နှစ်ဖြစ်	-11.1064
▁ဥပဒေအရ	-11.1065
ဂေါ်	-11.1065
▁သာသနာ့	-11.1066
ဆောင်ရွက်မှု	-11.1067
ကြီးတစ်ခု	-11.107
ag	-11.1073
▁ခလုတ်	-11.1075
ho	-11.1075
▁အသုံးပြုသည့်	-11.1075
▁ပြုလုပ်သော	-11.1077
▁လုပ်ငန်းတာဝန်	-11.1078
လျာ	-11.1079
နိုင်ကြသည်။	-11.1082
အဖြစ်လည်းကောင်း	-11.1083
▁John	-11.1084
▁အမွေး	-11.1085
ဖှ	-11.1085
▁လှည့်ပတ်	-11.1086
▁ပျံ	-11.1094
မရှိ၊	-11.1094
တူးမြောင်း	-11.1095
▁သဲကုန်း	-11.1096
=89	-11.1097
ကစားသမား	-11.1097
▁တောခို	-11.1097
▁ပန်းချီဆရာ	-11.1097
ပုံနှင့်	-11.1097
▁ဖြစ်နိုင်	-11.1098
ဘွယ်	-11.1098
▁ပုံဖော်	-11.1098
သက္ကရာဇ်	-11.1099
၃ဝ	-11.1101
▁ခန္ဓာ	-11.1103
▁လိပ်ပြာ	-11.1105
▁အဖွဲ့ဝင်နိုင်ငံ	-11.1105
နေထိုင်ကြသည်။	-11.1106
တွေ့ဆုံ	-11.1107
ဘုရင်၏	-11.1108
▁ဒုတိယဥက္ကဋ္ဌ	-11.1112
လုပ်ငန်းများတွင်	-11.1112
▁၁၈၈၄	-11.1114
▁ဘတ်	-11.1114
▁စန္ဒရား	-11.1115
အပြစ်	-11.1116
▁ပြန်ကြားရေး	-11.1116
ea	-11.1118
▁Lay	-11.1118
တင်၍	-11.1123
▁Nar	-11.1125
▁ကစားသမား	-11.1125
ပေါက်ရောက်	-11.1126
▁x	-11.1127
စုကျေးရွာအုပ်စု	-11.1127
▁တုံး	-11.1127
၌မူ	-11.1129
နှစ်လုံး	-11.1129
=138	-11.1133
တန်ခိုး	-11.1133
▁အိမ်ရှင်	-11.1135
▁ဘောင်	-11.1137
="138	-11.1138
▁ကြ	-11.1141
ရုံး၊	-11.1141
အားထုတ်	-11.1144
ရွာဟောင်းရွာ	-11.1145
လိုသည့်	-11.1146
▁ပညာရှင်များ	-11.1146
ဝင်ငွေ	-11.1147
ဆက်ခံ	-11.1149
▁အမဲလိုက်	-11.1153
▁which	-11.1154
▁ယှဉ်	-11.1155
▁ဖြတ်ကျော်	-11.1155
ဗိမာန်	-11.1155
▁သမိုင်းတွင်	-11.1159
▁ဒုံး	-11.1159
ဘွဲ့ရ	-11.116
ဟား	-11.1161
ဇော	-11.1161
ပြန်ရာ	-11.1162
ဖိ	-11.1163
ယေ	-11.1163
နေသည်	-11.1163
▁သံလွင်	-11.1164
▁ကွဲ	-11.1164
▁ပထဝီ	-11.1167
▁ခံစားရ	-11.1169
▁အရှေ့တိုင်း	-11.1169
ကစ၍	-11.1171
ကျကျ	-11.1171
▁ကတိ	-11.1172
ရွေ့	-11.1173
▁ပျို့	-11.1173
▁ဆင်တူ	-11.1175
42	-11.1175
▁ကျောက်ဖြူ	-11.1177
▁ဟူး	-11.1177
ပင်ကို	-11.1178
▁ပြွန်	-11.1179
▁ရေကြည်	-11.1179
ဂျီး	-11.1182
▁Pu	-11.1184
▁ဖုန်း	-11.1184
ခဲ့ပြီ	-11.1184
▁အမျိုးသားဥယျာဉ်	-11.1185
▁သံလွင်မြစ်	-11.1185
ဆိုတဲ့	-11.1185
တတိယ	-11.1186
တော့၏။	-11.1189
ငုံ	-11.1189
▁လေထု	-11.1191
▁ဖြည့်စွက်	-11.1193
▁အငြိမ်းစားယူ	-11.1194
▁နေမျိုး	-11.1201
ဒွန်	-11.1201
▁တွေ့ရသော	-11.1202
▁မီးတောင်	-11.1206
‡	-11.1207
လူတန်းစား	-11.1207
▁မလေး	-11.1208
▁Hpa	-11.121
▁အသျှင်	-11.1213
ခြ	-11.1214
စည်းရုံး	-11.1215
▁၁၈၉၅	-11.1217
ဘွား	-11.1217
▁သက်ရောက်မှု	-11.1218
လျ	-11.1218
▁ရာထူးမှ	-11.1218
ကုန်၏၊	-11.1219
ဂရိ	-11.1219
ဈ	-11.1221
ဒြပ်စင်	-11.1222
ပျံ့နှံ့	-11.1223
▁အရိပ်	-11.1223
▁သုံးခွ	-11.1225
ဖြစ်၍၊	-11.1226
ကျောင်း၊	-11.1227
don	-11.1228
▁လူတစ်ယောက်	-11.1228
ခုခံ	-11.1229
ိမ်း	-11.123
ဒုံး	-11.123
▁ကဗျာဆရာ	-11.1231
စွမ်းအား	-11.1234
၂၀၁၀	-11.1234
=66	-11.1239
အဆောက်အဦ	-11.1239
တစ်ခုလုံးကို	-11.1242
လုံးဆိုင်ရာ	-11.1244
▁လိုင်း	-11.1245
လွှင့်	-11.1251
သောအားဖြင့်	-11.1253
▁ဓာတ်တော်	-11.1254
Pa	-11.1255
ခြယ်	-11.1256
▁ဂါထာ	-11.126
ချွတ်	-11.1261
သူငယ်	-11.1263
အဖြစ်မှ	-11.1264
နှစ်ခုကို	-11.1265
မြန်မာနိုင်ငံသား	-11.1265
▁ခန့်က	-11.1265
▁ရောဂါပိုး	-11.1265
▁သက်ဆိုင်	-11.1266
ကျောင်း၌	-11.1266
သမ	-11.1267
အနာ	-11.1274
ja	-11.1276
▁ငြင်းပယ်	-11.1277
den	-11.1277
▁တစ်ခုခု	-11.1279
ရှေ	-11.1283
စဉ်းစား	-11.1283
▁တည်းဖြတ်	-11.1287
▁တစ်ရပ်	-11.129
ပါဠိ	-11.1291
▁ချင်းပြည်နယ်	-11.1291
ို့ဗမာအစည်းအရုံး	-11.1293
သို့ရောက်ရှိ	-11.1293
သည့်ပြင်	-11.1295
▁လစ်	-11.1295
▁ဉာဏ်တော်	-11.1296
▁သာယာဝတီ	-11.1297
▁ပိုမို၍	-11.1297
အရပ်ရပ်	-11.1299
တစ်ခုသည်	-11.13
ဝါဒကို	-11.13
BC	-11.1302
လှမ်း	-11.1303
▁သာစည်	-11.1303
မွေ	-11.1304
ဇီးကုန်းမြို့နယ်	-11.131
▁အီရန်နိုင်ငံ	-11.1313
လေ။	-11.1313
သည်ထက်	-11.1313
▁ဘုရင်မင်းမြတ်	-11.1315
တဲ့အခါ	-11.1316
▁စွဲ	-11.1317
လျှင်လည်း	-11.1318
လက်ထပ်	-11.1318
တစ်ခုမှ	-11.1319
▁အိုက်ချန်	-11.132
=83	-11.132
စာကို	-11.1322
ဂုံ	-11.1325
မျ	-11.1325
လာသည်ကို	-11.1328
▁မီးရှို့	-11.1329
ကြသူများ	-11.1329
ရေတပ်	-11.133
အုပ်ချုပ်ရေးမှူး	-11.1333
▁စာရင်းတွင်	-11.1335
▁ချစ်ကြည်ရေး	-11.1338
မှသာလျှင်	-11.1339
အသိုင်းအဝိုင်း	-11.1339
ဟူ၍လည်းကောင်း	-11.134
▁စုဝေး	-11.134
▁ဖြစ်ကြ	-11.1341
▁ဆံတော်	-11.1345
တို့ကလည်း	-11.1347
▁မား	-11.1347
▁ယန်း	-11.1349
▁တီးမှုတ်	-11.135
▁Black	-11.1352
ဒိန်	-11.1354
44	-11.1357
ရာဒေသ	-11.1357
=98	-11.1361
▁ပေါက်ရောက်သည်။	-11.1363
ခုနှစ်မှ	-11.1364
သွားရန်	-11.1366
ဆရာတော်ဘုရားကြီး	-11.1366
ကျွမ်းကျင်	-11.1366
▁ဗောဓိ	-11.1366
▁ဟိုတောင်း	-11.1367
▁မန့်	-11.1368
▁ကာယ	-11.1368
စ္ဆ	-11.137
▁မူတည်၍	-11.1371
▁မြေဩဇာ	-11.1371
▁ညာ	-11.1371
မာလာ	-11.1372
▁ခြင်	-11.1374
▁ထုတ်ဝေသော	-11.1374
▁ပြဆို	-11.1375
ထွက်သည်။	-11.1376
စာများ	-11.1377
▁ကျွန်မ	-11.1382
ချိန်၌	-11.1383
▁ကွက်	-11.1383
▁ပူးပေါင်း၍	-11.1384
▁ရှားတော	-11.1384
ဏ္ဍ	-11.1387
ဒဏ်ကို	-11.1387
ကြသည်ဟု	-11.1387
▁သာမက	-11.1388
ကျို	-11.1393
လမ်းမကြီး	-11.1394
တူးဖော်	-11.1396
▁ကြည်ညို	-11.1396
▁ဆောင်ရွက်ခဲ့	-11.1398
လွိုင်	-11.1399
ထမင်း	-11.14
▁ဥပဒေပြု	-11.14
ဆောင်းပါး	-11.1401
▁ရှိသည်	-11.1403
နွမ်း	-11.1405
▁အခြေပြု	-11.1406
လျန်	-11.1406
▁၁၈၅၂	-11.1406
ဇက်	-11.1407
▁t	-11.1409
ရုပ်ပွားတော်	-11.1414
▁အကွာ	-11.1418
▁ပုံနှိပ်ထုတ်ဝေ	-11.1418
ဖိတ်	-11.1419
▁အသိုက်	-11.1425
sk	-11.1425
ရှဲ	-11.1426
ial	-11.1428
▁မူး	-11.1432
ပတ်လုံး	-11.1432
▁သပိတ်ကျင်း	-11.1434
ရတဲ့	-11.1434
▁မြို့နယ်တစ်ခု	-11.144
▁အပေါ်တွင်	-11.1441
▁ရွာငံမြို့နယ်	-11.1444
▁ကျွန်ုပ်	-11.1445
▁Za	-11.1446
▁ဖိတ်ခေါ်	-11.1448
▁ကြွ	-11.1449
ကြံစည်	-11.1449
▁မရှိဘဲ	-11.1454
မျိုးရိုး	-11.1454
▁စေ့စပ်	-11.1456
ဗားရှင်း	-11.1457
မှုဆိုင်ရာ	-11.1458
▁ရှိကာ	-11.1463
ခြင်းခံခဲ့ရသည်။	-11.1464
="83	-11.1465
သွား၍	-11.1466
▁အားလုံးကို	-11.1467
▁အဘ	-11.1467
ရေကျော်	-11.1468
▁သယ်ယူပို့ဆောင်	-11.1469
▁တရုတ်နိုင်ငံ၊	-11.147
41	-11.1471
ue	-11.1471
ဆင်ခြင်	-11.1472
လှယ်	-11.1473
လိုက်ရာ	-11.1474
ခံခဲ့ရ	-11.1475
လွှား	-11.1475
ကြိုးပမ်း	-11.1476
▁ကွေ့	-11.1477
လေးများ	-11.1478
ဇယား	-11.1478
▁အလီ	-11.1478
သော်လည်း၊	-11.148
တစ်ခုဖြစ်	-11.1482
▁ဒစ်ဂျစ်တယ်	-11.1483
▁နမူနာ	-11.1484
▁ဖိနှိပ်	-11.1485
▁အတန်း	-11.1488
▁၆၈	-11.1489
▁ဖို	-11.149
ခံ၍	-11.149
နော်ရထာ	-11.149
▁ရွာသစ်ကုန်းရွာ	-11.149
ဒပ်	-11.1491
ရည်ညွှန်း	-11.1492
▁ဆေးတက္ကသိုလ်	-11.1493
ပြုံး	-11.1494
မလာ	-11.1494
တောင်ဘက်	-11.15
ညှာ	-11.1501
▁အခြေချ	-11.1503
အဆင့်ဆင့်	-11.1504
တ္တိ	-11.1505
▁system	-11.1505
ချေား	-11.1506
ee	-11.1509
▁heavy	-11.151
▁အစွန်း	-11.1511
▁နီးပါး	-11.1513
▁မြောင်မြို့နယ်	-11.1514
အလျား	-11.1517
▁ဆီမီး	-11.1517
▁နု	-11.1518
▁သဲကန္တာရ	-11.152
ရှိကာ	-11.1525
▁တည်ထားကိုးကွယ်	-11.1526
ဓာတ်ပုံ	-11.153
ရေးဆိုင်ရာ	-11.1531
မြို့ရိုး	-11.1532
▁ကိုယ်ဝန်ဆောင်	-11.1533
ဆုပ်	-11.1533
▁ယေဘုယျ	-11.1535
ရာထူးကို	-11.1537
ရဲဘော်	-11.1539
ကန့်လန့်	-11.1539
▁အကျယ်အဝန်းမှာ	-11.1539
▁ဟူ၍လည်း	-11.1542
တရားကို	-11.1542
မုနိ	-11.1542
▁လှည့်	-11.1545
ဆွယ်	-11.1546
ဒါယက	-11.1546
ting	-11.1548
▁အတတ်ပညာ	-11.155
▁ဦးတင်	-11.1551
▁အသုံးဝင်	-11.1552
▁ကွန်ဂရက်	-11.1554
▁မိုင်ခန့်	-11.1554
ဟယ်	-11.1556
▁ချင်	-11.1557
▁၁၈၈၂	-11.1563
ဓဇ	-11.1564
▁တည်ထောင်သူ	-11.1565
▁ညို	-11.1566
လက်ရှိ	-11.1566
ye	-11.1566
▁ပိ	-11.1567
အကျယ်	-11.1574
▁ရက်နေ့၌	-11.1576
တိန်း	-11.158
015	-11.158
▁ဆဲလ်	-11.1581
ow	-11.1582
အန်း	-11.1586
စာမျက်နှာ	-11.1586
act	-11.1586
ر	-11.1586
က်စ်	-11.1587
▁ဂျိမ်း	-11.1588
▁ထွက်သည်။	-11.1589
နိုင်ငံများနှင့်	-11.159
▁တစ်ခုနှင့်တစ်ခု	-11.1591
▁တိဘက်	-11.1591
အရိုး	-11.1592
▁တစ်လုံး	-11.1593
ချထား	-11.1598
=69	-11.16
ခြင်းငှါ	-11.16
▁အထင်ရှားဆုံး	-11.1601
▁ကျိုး	-11.1602
▁အစိမ်း	-11.1602
▁ရပ်စဲ	-11.1602
▁Burma	-11.1607
သတိ	-11.1609
▁ဈာန်	-11.161
▁ထမ်း	-11.1615
▁ခန့်အပ်ခဲ့သည်။	-11.1615
ပြည်ထောင်စု၏	-11.1616
▁သေးငယ်	-11.1616
ဒွန်း	-11.1616
ချား	-11.1617
ကျိုက်	-11.1618
▁On	-11.1619
တလုံး	-11.162
နေထိုင်ရာ	-11.1622
▁ပိုင်ဆိုင်မှု	-11.1623
▁ပြက္ခဒိန်	-11.1624
▁ဇင်းမယ်	-11.1626
ချန်း	-11.1627
▁အင်ပါယာ	-11.1628
ဖြစ်သွား	-11.163
င်္	-11.163
▁မကျေနပ်	-11.1638
▁ပေါများ	-11.1639
ထားသည်မှာ	-11.164
▁စလင်း	-11.1645
▁လှုံ့ဆော်	-11.1648
▁နောက်မှ	-11.165
▁Cha	-11.1653
ဇယ်	-11.1656
▁ဖီ	-11.1656
မဝင်	-11.1657
နေသောကြောင့်	-11.1658
▁Ko	-11.166
=224	-11.1664
▁ဆောင်ဖမြို့နယ်	-11.1664
ဒ္ဓ	-11.1666
မူပိုင်ခွင့်	-11.1666
▁တစ်နိုင်ငံ	-11.1667
▁အကြီးမားဆုံး	-11.1672
="224	-11.1672
▁ဆိုသူ	-11.1673
တော်ဝင်	-11.1675
▁ထွက်ပေါ်လာ	-11.1676
▁ကွာဝေးသည်။	-11.1676
43	-11.1679
701504	-11.1682
သိပ်	-11.1683
▁အုံ	-11.1687
▁တင့်တယ်	-11.1687
▁နှုတ်ခမ်း	-11.1688
▁ဂျင်	-11.1689
မြား	-11.1691
▁မွတ်စလင်	-11.1692
ေယျ	-11.1692
▁ဆိုက်	-11.1694
ဖြင့်လည်း	-11.1696
နိမိတ်	-11.1697
▁ပြုလုပ်ထား	-11.1699
ရပ်တည်	-11.17
=92	-11.1701
အွန်	-11.1702
ပုံစံများ	-11.1702
▁ပြီးလျှင်	-11.1702
▁ကက်	-11.1702
▁ပြုလုပ်ကြသည်။	-11.1704
ဂိတ်	-11.1705
▁လိုက်လံ	-11.1706
ရွဲ	-11.1707
▁စိုင်	-11.1711
▁နယူးယောက်	-11.1711
သယ်	-11.1712
ပေါ်မူတည်၍	-11.1713
သွန်း	-11.1713
မွေးမြူ	-11.1714
▁ဒါး	-11.1714
ပေမည်။	-11.1715
လိန်း	-11.1717
▁သာစည်မြို့နယ်၊	-11.1717
တွန့်	-11.1717
ပေါ်မှာ	-11.1718
လိုက်၍	-11.1721
ကွပ်	-11.1722
စိုက်ပျိုးကြသည်။	-11.1723
▁အဘယ်ကြောင့်	-11.1727
အသင်း၏	-11.1727
ကျေးဇူး	-11.1731
▁တောင်ထိပ်	-11.1732
▁ကစားနည်း	-11.1732
ပါဒ	-11.1732
▁ချား	-11.1734
ကျည်း	-11.1737
အယ်လ်ဘမ်	-11.1738
ဗြိတိသျှ	-11.1739
▁ဒင်္ဂါး	-11.1739
▁အာဟာရ	-11.1741
mar	-11.1743
သန့်စင်	-11.1744
သားကို	-11.1744
▁လိုလား	-11.1749
▁ဆွဲဆောင်	-11.1749
ထန်းတပင်မြို့နယ်	-11.1749
▁ယု	-11.175
tic	-11.175
▁နှစ်နိုင်ငံ	-11.1752
မှပင်	-11.1754
48	-11.1757
▁များ၏	-11.1757
ထွက်လာ	-11.1757
Re	-11.1757
▁အသက်ရှင်	-11.1758
▁ဆွတ်	-11.1758
လှပ	-11.1761
သမ္	-11.1761
ကျောင်းမှ	-11.1762
▁အလျင်	-11.1762
▁နတ်ဘုရား	-11.1762
▁ကာလအတွင်း	-11.1766
နေအိမ်	-11.1768
▁ဆုံးမ	-11.177
ကျောင်းတော်တစ်ခု	-11.1773
▁ခိ	-11.1774
▁ဆင့်	-11.1774
▁National	-11.1775
▁Kha	-11.1778
▁နည်းဥပဒေ	-11.1778
ရှေ့တွင်	-11.1779
တွေ့ရှိရ	-11.1781
ပြိုင်ပွဲတွင်	-11.1782
▁မျှော်စင်	-11.1783
ကျန်ရစ်	-11.1783
သွားကြ	-11.1786
IA	-11.1787
▁အတွင်းဝန်	-11.1789
သောသူ	-11.1789
▁အလယ်တန်း	-11.1789
မယ်။	-11.1789
လေးစား	-11.1791
တရားဝင်	-11.1791
မှုများနှင့်	-11.1793
တောင်းဆို	-11.1794
ကောင်းစွာ	-11.1794
ခန့်တွင်	-11.1794
ဖန်း	-11.1795
အခွန်	-11.1796
သေးချေ။	-11.1802
▁Lar	-11.1802
▁ထုလုပ်	-11.1803
ထူးခြား	-11.1803
▁အတောင်	-11.1806
▁ဂုဏ်ထူး	-11.1808
ခြင်းခံရ	-11.1809
▁ဖော်ပြသည်။	-11.1812
▁ရောစပ်	-11.1813
▁ဖဲ	-11.1813
မုန်တိုင်း	-11.1813
ဂျ်	-11.1814
▁ဗီတာမင်	-11.1818
▁ရာမ	-11.1819
တင်ပို့	-11.1819
▁တရုတ်၊	-11.182
ဂေါင်း	-11.1821
▁ပြည်မြို့နယ်၊	-11.1821
ပြည်ထောင်စုသမ္မတ	-11.1824
တရားလွှတ်တော်	-11.1825
လိုက်ကြသည်။	-11.1828
ည်	-11.1828
တစ်ခါ	-11.1832
▁၁၈၇၈	-11.1832
▁၁၈၉၈	-11.1835
▁ပြင်သစ်၊	-11.1836
▁နော်	-11.1836
တုပ်	-11.1836
▁လူး	-11.1837
၏သား	-11.1838
ထိခိုက်	-11.1838
="65	-11.184
▁၁၈၉၂	-11.1841
သိမ်းယူ	-11.1841
=95	-11.1843
▁ကာကွယ်ရန်	-11.1846
▁သာယာကုန်းရွာ	-11.1847
လျက်ရှိပြီး	-11.1847
▁အလှူ	-11.1849
▁ဂျပန်တို့	-11.1854
=210	-11.1858
by	-11.1859
▁ကောင်မင်ဆန်း	-11.1861
သန့်ရှင်း	-11.1861
ven	-11.1863
▁ကျီ	-11.1863
ကွေ	-11.1864
နည်းမှာ	-11.1866
များဟု	-11.1867
▁ဝက်ဝံ	-11.1869
▁ဆောက်လုပ်ရေး	-11.1872
လူများ	-11.1874
vo	-11.1875
ဗုံး	-11.1876
ပြည်ထောင်စုတွင်	-11.1877
ning	-11.1879
နိုင်ငံကို	-11.1882
လားဟူ	-11.1882
▁တိမ်ကောသွား	-11.1883
ဆန်သော	-11.1885
များပင်	-11.1888
ဂယ်	-11.189
▁ရာဇဝတ်မှု	-11.189
ဖြစ်ရန်	-11.1894
ဟောင်	-11.1894
▁ဝန်ဆောင်မှုများ	-11.1895
▁ထိုသို့သော	-11.1895
ပညာသင်ကြား	-11.1895
▁အဖွဲ့၏	-11.1896
လာသည်	-11.1897
▁အရှေ့တောင်	-11.1897
မဟုတ်သည့်	-11.1901
ငြိမ်	-11.1903
▁နေရောင်ခြည်	-11.1904
ick	-11.1907
ခြင်းများကို	-11.1909
▁ဂျူ	-11.191
▁အပတ်စဉ်	-11.1911
ဝစ်	-11.1912
ပါဝင်ခဲ့သည်။	-11.1912
▁မိုးမိတ်	-11.1914
ဖြင့်လည်းကောင်း၊	-11.1914
▁အမြတ်	-11.1914
▁အခြေအနေကို	-11.1914
▁ဗုဒ္ဓသာသနာ	-11.1915
▁တပ်မှူး	-11.1915
ten	-11.1916
▁ညီညွတ်	-11.1918
▁သင်ကြားခဲ့သည်။	-11.1918
အချက်များ	-11.1921
ဍ	-11.1922
="87	-11.1925
▁မုတ္တမ	-11.1926
▁အုတ်ဖို	-11.1926
▁လူမျိုးရေး	-11.1927
▁ဝပ်	-11.193
▁အရပ်ရပ်	-11.193
ဗယ်	-11.193
▁ဖြစ်သွား	-11.1931
ခဲ့ကြရသည်။	-11.1932
ပေးထား	-11.1933
▁ကဗျာကို	-11.1933
ို	-11.194
▁ကုန်ကျစရိတ်	-11.194
▁ဝီလီယံ	-11.1941
စကီး	-11.1941
မြစ်၏	-11.1944
အလှ	-11.1945
မျောက်	-11.1946
▁ညီအစ်ကို	-11.1947
ဆန့်	-11.195
=58	-11.1952
ဘုရား၊	-11.1952
မပါဘဲ	-11.1953
▁ဆင်ဖြူရှင်	-11.1954
▁စင်ကာပူနိုင်ငံ	-11.1961
▁ဦးစိန်	-11.1962
ဘက်က	-11.1962
ကောင်းကင်	-11.1963
တွေ၊	-11.1964
▁ချီးမွမ်း	-11.1964
▁လျှော့ချ	-11.1967
▁မဲဆန္ဒနယ်	-11.1969
နယ်၊	-11.1971
▁မှူးမတ်	-11.1971
အစ်	-11.1971
ကြီးအား	-11.1972
▁pa	-11.1972
များပါ	-11.1973
ပေးခဲ့	-11.1976
ကုပ်	-11.1979
ယော်	-11.198
ချွန်း	-11.1982
ထွက်ရှိ	-11.1983
▁Pauk	-11.1983
ဖြန့်	-11.1984
▁မြင်ရ	-11.1987
ဘုန်းကြီး	-11.1987
▁ရှက်	-11.1988
▁ရွာမ	-11.1989
အရွယ်အစား	-11.1989
▁ပို့ချ	-11.199
▁အာဏာရှင်	-11.1991
▁Go	-11.1991
အရှေ့ဘက်	-11.1991
▁တပ်ဖွဲ့	-11.1992
▁၁၈၈၇	-11.1992
▁ဘဒ္ဒန္တ	-11.1992
▁Kaw	-11.1993
▁ခုနှစ်မှာ	-11.1993
▁မှော်	-11.1994
▁၁၈၉၁	-11.1995
ခေ	-11.1998
ကြင်	-11.1998
ဖိအား	-11.2001
ကြာမြင့်	-11.2002
▁ပြုလုပ်ထားသော	-11.2002
▁တစ်နေရာ	-11.2003
▁ထုတ်လွှတ်	-11.2004
အကြံ	-11.2005
▁အလိုရှိ	-11.2005
ရှို	-11.2007
▁ကိလေသာ	-11.2012
=149	-11.2012
▁စည်းရုံးရေး	-11.2013
▁Har	-11.2014
="149	-11.2014
▁စန္ဒ	-11.2017
▁ပြင်းထန်သော	-11.202
Bhone	-11.2021
▁also	-11.2021
▁ဆံ	-11.2022
ကြီးသော	-11.2024
▁ဦးစားပေး	-11.2027
တာဝန်ကို	-11.2027
▁လူ့အဖွဲ့အစည်း	-11.2028
▁သံချို	-11.2028
ix	-11.2028
တွင်းရွာ၊	-11.2029
▁ထိန်း	-11.203
ရိယ	-11.2031
ဂါထာ	-11.2031
▁သုည	-11.2032
တာက	-11.2032
▁စနစ်ကို	-11.2032
▁၁၉၀၁	-11.2035
▁၉၆	-11.2035
ပြီးစီး	-11.2038
နည်း၊	-11.2039
▁စကော့	-11.2039
▁အတွင်းသို့	-11.2041
ိုင်းစစ်ဌာနချုပ်	-11.2042
▁သိုင်း	-11.2043
လိုက်ရသည်။	-11.2044
▁မှစ၍	-11.2053
▁သံလိုက်	-11.2054
▁စကြာဝဠာ	-11.2059
東	-11.2062
ard	-11.2062
▁pro	-11.2068
ခက်ခဲ	-11.2068
လွင့်	-11.2069
▁၁၉၀၅	-11.2071
အနေ	-11.2072
▁တရုတ်လူမျိုး	-11.2074
▁formula	-11.2075
▁မော်စကို	-11.2075
ဖင်	-11.2076
နှင့်တူသော	-11.2078
▁ကျင်းပသည့်	-11.2087
▁ရှိခိုး	-11.209
စောင့်ရှောက်ရေး	-11.209
ure	-11.2092
▁အုန်းပင်	-11.2092
▁ထားသည်။	-11.2093
▁ကိုက်ညီ	-11.2093
ရရှိရန်	-11.2095
သင်္ချာ	-11.2095
▁စာသား	-11.2095
="210	-11.2096
ကျဉ်း	-11.2097
လိုလျှင်	-11.2097
▁ကျောက်တုံး	-11.2098
▁ထိုနေ့	-11.2098
တစ်ဦးဖြစ်သူ	-11.2099
▁ပြုလုပ်ခြင်း	-11.21
ယ်ကျယ်ပြန့်ပြန့်	-11.2102
▁အင်မတန်	-11.2103
▁အိုင်ဖုန်း	-11.2104
▁အရံ	-11.2108
ကြီးထွား	-11.2108
▁မျှော်လင့်	-11.211
နာ၊	-11.2111
▁၇၄	-11.2112
ခွင့်ကို	-11.2112
▁တကောင်း	-11.2113
▁ပန်ဝိုင်	-11.2114
▁အချုပ်အခြာအာဏာ	-11.2116
▁အစပြု	-11.2117
ကြပြီးလျှင်	-11.2118
▁အခိုင်အမာ	-11.212
▁Rock	-11.2121
လေ့လာမှု	-11.2122
▁၂၀ဝ	-11.2123
▁နီး	-11.2125
▁စက္ကန့်	-11.2128
▁အောက်ပိုင်း	-11.2128
▁သုံးခု	-11.2129
▁ပန်းချီကား	-11.2129
▁အစိုးရသည်	-11.2129
▁ထုတ်လုပ်သော	-11.213
▁သိပ်	-11.213
▁အသုံးမပြု	-11.2131
▁စီးဝင်	-11.2134
▁ဖြစ်ထွန်း	-11.2135
▁ဆင်ဖြူ	-11.2135
ice	-11.2136
အမျိုးအစားများ	-11.2136
▁လိုအပ်သည့်	-11.2137
ပြောင်းရွှေ့	-11.2138
ပျဉ်	-11.2139
မုတ်	-11.2139
▁ဖြတ်၍	-11.2143
▁နိမ့်	-11.2144
▁ဖားဆောင်း	-11.2144
▁ဂြိုဟ်ရံလ	-11.2145
▁မရှိခဲ့ပေ။	-11.2147
▁ပါဝင်ဆောင်ရွက်	-11.2147
ထွန်	-11.2149
ပညာရှင်များက	-11.215
ကျွေး	-11.2151
▁နက္ခတ်	-11.2152
▁ယင်းနောက်	-11.2153
▁ပစိဖိတ်	-11.2153
နှစ်တွင်	-11.2155
▁ရိုး	-11.2157
အု	-11.2158
▁ဝါးရုံ	-11.2158
▁လက်ဝှေ့	-11.216
▁အဖွဲ့ဝင်များ	-11.216
သွားကြသည်။	-11.216
▁သာမဏေ	-11.2161
အတွင်းက	-11.2163
ခြင်းမရှိဘဲ	-11.2165
▁ဆန့်ကျင်ဘက်	-11.2165
လေ့ကျင့်	-11.2168
▁တပင်ရွှေထီး	-11.2168
▁ဂေါ	-11.217
ဥစ္စာ	-11.217
▁ကုန်ပစ္စည်း	-11.2171
▁ဘူတာရုံ	-11.2173
▁၈၅	-11.2175
46	-11.2177
▁ခြ	-11.2178
တိုးတက်မှု	-11.2179
▁ထိပ်ဆုံး	-11.2181
အခေါ်	-11.2181
▁စောင်	-11.2181
သပ်	-11.2183
▁စင်တီမီတာ	-11.2184
ပုံများကို	-11.2185
▁ဖီဖာ	-11.2185
များဖြစ်	-11.2185
lic	-11.2186
ဖက်မှ	-11.2187
ဆောင်ရွက်ခြင်း	-11.2187
▁အပြာရောင်	-11.2189
▁ရွာသစ်ရွာ	-11.219
ဒဘူတာ	-11.2192
▁နှစ်နှစ်	-11.2192
လိုက်၏။	-11.2194
မြည်	-11.2197
နှလုံး	-11.2197
သဒ္ဒါ	-11.2198
တတ်မြောက်	-11.2198
မည်ဆိုပါက	-11.2201
▁တွေ့ရလေသည်။	-11.2201
▁တွေ့ရ၏။	-11.2202
▁ဟောင်း	-11.2206
ရရန်	-11.2206
ဒိုက်	-11.2208
ရက်၊	-11.2208
▁စွန့်	-11.2209
ယာမဘူတာ	-11.2211
ဖက်တွင်	-11.2216
နိယ	-11.2219
=88	-11.2222
▁နိုင်ငံအတွင်း	-11.2225
▁နမ်ခမ်းဝူး	-11.2225
▁လောင်စာ	-11.2226
ယူး	-11.2227
53	-11.2228
▁မိုက်ကယ်	-11.2228
▁မြိုင်	-11.2229
တစ်ဦး၏	-11.223
▁ပိုင်ရှင်	-11.223
▁ခုမြောက်	-11.2232
လုပ်ငန်းသည်	-11.2232
=63	-11.2233
▁၁၉၃၃	-11.2234
▁ဝေါ	-11.2236
ဟိတ်	-11.2236
▁ကောင်း၊	-11.2237
ဖြည့်	-11.2238
▁ဆပ်ပြာ	-11.2238
ဗု	-11.224
▁ပြုလုပ်ပေး	-11.2241
▁အကျိုးရှိ	-11.2241
အကျဆုံး	-11.2242
▁ခိုင်မာ	-11.2243
▁အပိုဒ်	-11.2244
စသည်တို့ကို	-11.2244
ပါယ်	-11.2245
Me	-11.2246
▁ဆည်မြောင်း	-11.2247
စားသုံး	-11.2247
▁ဝတ္ထုရှည်	-11.2247
▁Th	-11.2248
▁နှစ်ကြာ	-11.2249
▁ကေအင်န်ဒီအို	-11.2249
=222	-11.2251
▁ရုပ်ရှင်ကား	-11.2253
ပုံများ	-11.2253
ကစားနည်း	-11.2254
ချောင်းဖျားရွာ	-11.2255
ထမ်းဆောင်	-11.2255
▁ရှိသဖြင့်	-11.2257
တွက်ချက်	-11.2261
▁မအောင်မြင်	-11.2261
▁ဘေ	-11.2263
ဆောင်ရွက်ရန်	-11.2264
="222	-11.2267
သံတူကြောင်းကွဲ	-11.2267
ဆွေးနွေးပွဲ	-11.2267
▁ဦးစံ	-11.2267
ရွာဟောင်း	-11.227
▁နီးစပ်	-11.2271
ကျွတ်	-11.2271
ဘုရင်သည်	-11.2273
▁အားနည်း	-11.2274
လည်းရှိသည်။	-11.2275
▁ရေးစပ်	-11.2275
▁သိသိသာသာ	-11.2275
▁၁၉၀၃	-11.2276
▁သုံးကြိမ်	-11.2277
▁ချာ	-11.2278
▁ရှေ့တန်း	-11.2279
▁ငှားရမ်း	-11.2282
▁မြူ	-11.2283
ပါမောက္ခ	-11.2285
▁ချင်းတွင်းမြစ်	-11.2286
py	-11.2287
ထားကြ	-11.2289
▁con	-11.229
သဘောကို	-11.2294
ချီတက်	-11.2295
▁ကိုယ်ထည်	-11.2296
▁Du	-11.2298
=205	-11.2298
ကြီးများသည်	-11.2298
တပါး	-11.23
အစစ်	-11.2302
အတူ	-11.2302
ဖျာ	-11.2305
="205	-11.2305
သူတော်	-11.2306
ကြရ၏။	-11.2307
နှိုက်	-11.231
▁လမ်းလျှောက်	-11.2311
▁စာဖတ်	-11.2313
▁ပွား	-11.2314
▁ကျွန်းဆွယ်	-11.2315
ပြုလုပ်ခြင်း	-11.2316
ကလေးရွာ	-11.2316
သတ်ဖြတ်	-11.2316
ဒါန	-11.2317
ငါ့	-11.2317
▁၁၉၀၆	-11.2318
▁၁၈၂၄	-11.2319
▁အမည်ပြောင်း	-11.2319
▁၁၂။	-11.232
▁ဇီဝဗေဒ	-11.232
လှရွာ	-11.2321
▁ရေကူး	-11.2321
▁၁၈၅၇	-11.2322
ရှပ်	-11.2322
ကျဆင်း	-11.2325
▁ကတော့	-11.2326
▁တည်ငြိမ်	-11.2328
ိယ	-11.2329
လာသည်နှင့်အမျှ	-11.233
▁အလွှာ	-11.233
၄ဝ	-11.2332
▁၁၉၅ဝ	-11.2335
▁ရုပ်ပုံ	-11.2337
သွား၏။	-11.2337
ကြေ	-11.2339
▁Nat	-11.2345
▁အမွေ	-11.2348
ဟုဆို	-11.2349
လူနာ	-11.2351
ညံ့	-11.2351
နိုင်ငံသား	-11.2353
▁ပြတ်	-11.2354
▁စစ်အစိုးရ	-11.2354
▁ခွာ	-11.2356
ance	-11.2358
▁ဆွေမျိုး	-11.2358
န္တိ	-11.2359
တင့်တယ်	-11.236
▁အနည်းငယ်သာ	-11.2361
▁စစ်ကိုင်းခရိုင်	-11.2362
ဝ်	-11.2362
အလုပ်ကို	-11.2363
▁သာဓက	-11.2364
ဂန်း	-11.2367
▁တဏှာ	-11.2368
▁(4)	-11.2368
▁အနုပညာရှင်	-11.237
▁၁၈၅၉	-11.237
▁ဖုံးအုပ်	-11.2371
▁ဒုတိယသမ္မတ	-11.2372
▁နေထိုင်ရာ	-11.2374
အနောက်ပိုင်း	-11.2374
ပျံ့	-11.2377
▁မုံရွာ	-11.2378
▁စတင်ဖွင့်လှစ်	-11.2378
မပြတ်	-11.2379
▁တည်ရှိ၍	-11.2383
သေး၏။	-11.2387
▁ရောက်သွား	-11.2387
▁ပြန်ရောက်	-11.2389
နေပါသည်။	-11.239
အသစ်များ	-11.239
▁power	-11.2391
▁မြား	-11.2392
▁ယခုလက်ရှိ	-11.2392
▁ပြောင်းလဲသွား	-11.2393
▁သံသရာ	-11.2395
ယူကာ	-11.2395
▁ဗျည်း	-11.2396
ပြောင်းလဲခဲ့သည်။	-11.2397
▁နယူးဇီလန်	-11.2397
ဖော့	-11.2402
▁ယုန်	-11.2402
▁ယူနိုက်တက်	-11.2406
▁တိုင်းရင်း	-11.2408
=60	-11.2409
ပေးကာ	-11.2409
ပေါင်းချုပ်	-11.2411
▁အနုပညာရှင်များ	-11.2412
အားလုံး၏	-11.2414
▁တစ်ချို့	-11.2415
သည့်နေရာ	-11.2416
လာသည့်အခါ	-11.2416
ယိ	-11.2416
ဂမုန်း	-11.2416
ဒေသသို့	-11.2416
နွေး	-11.2417
▁ဘရူနိုင်း	-11.2418
တိုင်းတာ	-11.2421
▁နယူးယောက်မြို့	-11.2422
သနည်း	-11.2426
သေန	-11.2427
အမျိုးမျိုးဖြင့်	-11.2429
ပုဂ္ဂိုလ်များ	-11.2431
▁စိုးမိုး	-11.2433
▁ပြဒါး	-11.2433
ل	-11.2433
▁ရင်ဖန့်မြို့နယ်	-11.2434
▁နတ်ပြည်	-11.2435
ဟက်	-11.2436
▁ကဗျာများ	-11.2437
ရန်ဖြစ်သည်။	-11.2438
▁ပုဂံမင်း	-11.2439
၂၀၀	-11.244
ကြီးများတွင်	-11.2441
ကသာ	-11.2445
ts	-11.2447
▁အကြံပြု	-11.2448
▁၁၈၂၁	-11.2449
မှုမရှိ	-11.245
▁၁၈၈၁	-11.245
▁ကျယ်	-11.2451
▁အမြင့်ပေ	-11.2451
▁တွန်း	-11.2453
စိုက်ပျိုးရေး	-11.2454
▁ဟုခေါ်	-11.2457
▁အခွင့်အရေးများ	-11.2459
▁လယ်တီ	-11.2459
▁အလေး	-11.2459
ပင်လယ်အော်	-11.246
နိုင်ခွင့်	-11.2464
▁ဆောင်ရွက်ပေး	-11.2464
ပြန်၏။	-11.2465
▁မရောက်	-11.2465
လျှော	-11.2468
စည်ကား	-11.2469
▁ဖြန့်	-11.247
▁မူလတန်းကျောင်း	-11.2472
များဖြစ်ကြသော	-11.2473
▁သမုတ်	-11.2474
▁ထိုကဲ့သို့သော	-11.2474
ငုတ်	-11.2475
▁၁၈၆၄	-11.2476
ဇနီး	-11.2476
▁ကျောင်းတွင်	-11.2477
ပုံပြင်များ	-11.2478
▁ကျင်း	-11.2481
▁တွေ့မြင်နိုင်	-11.2482
▁နွယ်	-11.2482
▁ရေးသားသော	-11.2483
▁တစ်ပတ်	-11.2484
▁Lan	-11.2486
▁၁၉၀၇	-11.2487
ကျေ	-11.2488
အားလုံးသည်	-11.2488
▁ယူကေ	-11.2489
ယူပြီး	-11.249
ပြပွဲ	-11.2491
▁အပြား	-11.2491
▁၁၈၈၈	-11.2493
▁ကျောက်ကပ်	-11.2493
▁ခေတ်စား	-11.2494
သည့်အလျောက်	-11.2495
ဗြ	-11.2496
ဝန်ကြီးအဖြစ်	-11.2496
ကြသည်ကို	-11.2496
▁တစ်ဝက်	-11.2497
ဖြောင့်	-11.2498
▁အထက်ပိုင်း	-11.2498
ဂျူ	-11.2499
▁မိဘများ	-11.25
လှသည့်	-11.2501
ွိုင်	-11.2502
▁အစ်ကို	-11.2504
▁ပတ်သက်	-11.2505
▁မနော	-11.2507
▁နှဲ	-11.2508
▁ပါသည်။	-11.251
ထားရန်	-11.2511
ပြုရန်	-11.2513
▁ပြုလုပ်ရန်	-11.2514
၂၀၁၅	-11.2515
ဟူသည့်	-11.2516
▁မြောက်မြားစွာ	-11.2519
▁Pi	-11.2521
▁တလိုင်း	-11.2522
အတည်ပြု	-11.2526
ပျိုး	-11.2527
▁ဒို	-11.2528
အံ	-11.2529
004	-11.2531
▁ညောင်ကုန်းရွာ	-11.2532
▁အလောင်းတော်	-11.2533
▁စာပေဆု	-11.2536
▁၁၈၈၉	-11.2542
▁ရပ်နား	-11.2544
▁ကိုလံဘီယာ	-11.2544
▁အမှတ်တရ	-11.2545
ou	-11.2546
▁ဆုတ်ခွာ	-11.2546
▁ဆွေးနွေးပွဲ	-11.2547
▁ဖြစ်ပွားခဲ့သည်။	-11.255
လဟာ	-11.2551
punk	-11.2552
▁အောက်သို့	-11.2553
006	-11.2553
အပ်နှင်း	-11.2553
▁အကွက်	-11.2555
▁တာဝန်ယူခဲ့သည်။	-11.2557
▁အဘိ	-11.2558
▁မွန်ပြည်နယ်	-11.2559
▁ပိုလန်	-11.256
ence	-11.2561
ညှစ်	-11.2561
▁ဆင်စွယ်	-11.2561
=94	-11.2562
▁တရားစီရင်ရေး	-11.2562
▁ပျောက်	-11.2564
လေ့ရှိကြ	-11.2571
▁ကန်တော်	-11.2574
▁ကုန်းဘောင်	-11.2575
လုပ်ဆောင်ခဲ့သည်။	-11.2575
ဒီမိုကရက်တစ်ပါတီ	-11.2576
▁ဂန္ထဝင်	-11.2577
သူဌေး	-11.2577
▁ဆင်းရဲသား	-11.2578
ဟွမ်	-11.2578
▁တစ်ခုအပါအဝင်	-11.2578
▁ကြာမြင့်	-11.2581
▁ခက်	-11.2581
▁ကုန်ကျ	-11.2583
သည်ဟူသော	-11.2584
အချို့က	-11.2584
ပြုလုပ်ရန်	-11.2585
ဘုရင်မ	-11.2586
▁အုပ်ချုပ်သူ	-11.2588
▁ရေအောက်	-11.2591
▁အမှား	-11.2591
▁Asia	-11.2593
▁လေတပ်	-11.2597
▁ရုပ်သေး	-11.2597
ထက်သန်	-11.2597
သည့်အချိန်	-11.2597
▁အဖွဲ့ဝင်အဖြစ်	-11.2597
▁သပြေကုန်း	-11.2599
▁ခွဲထုတ်	-11.2599
▁ဦးသာ	-11.2599
▁အက်စ်	-11.2599
အုပ်ချုပ်မှု	-11.2601
ဖြစ်ခဲ့	-11.2603
▁ပုံရိပ်	-11.2603
و	-11.2604
▁ဘာသာစကားများ	-11.2604
▁ဒန်	-11.2605
▁အာနိသင်	-11.2606
တွင်တည်ရှိသည်။	-11.2607
ငှား	-11.2607
su	-11.2607
နိုင်ရေး	-11.2608
yo	-11.2609
▁အသံလွှင့်	-11.2609
ny	-11.2612
▁၁၈၉၃	-11.2614
ခရိုင်တွင်	-11.2616
60	-11.262
▁တကယ်	-11.262
▁တပ်မ	-11.262
ပိုဒ်	-11.2622
▁လုပ်ကိုင်ကြသည်။	-11.2622
▁ခြောက်သွေ့	-11.2625
ထဲရှိ	-11.2625
▁ဖြစ်သူ	-11.2626
▁၁၈၇၂	-11.2628
▁၆၃	-11.2629
သေခိယသိက္ခာပုဒ်	-11.2631
▁၁၈၆၇	-11.2631
▁နည်းစနစ်	-11.2632
ပါလ	-11.2634
ကြွင်း	-11.2636
ဖူ	-11.2638
▁ဇာတ်လမ်းတွဲ	-11.2638
နိုင်ငံသို့	-11.2639
ပ္	-11.264
▁ရှည်လျား	-11.264
ချ၍	-11.2641
ပေါက်ရွာ	-11.2641
ana	-11.2641
စနစ်ဖြင့်	-11.2642
▁အသုံးပြုကြ	-11.2646
ဝတ်စုံ	-11.2646
=223	-11.2647
="72	-11.2648
▁ဟားခါးမြို့နယ်	-11.265
တွန်း	-11.2651
ွှ	-11.2653
king	-11.2653
▁ဘု	-11.2654
သပိတ်	-11.2656
="223	-11.2658
▁ရှိရာ	-11.2658
▁အိတ်	-11.2659
▁၁၈၈၃	-11.2659
▁ဓလေ့	-11.266
▁ဟီရိုရှီးမား	-11.266
▁ကယ်တင်	-11.2662
Mir	-11.2662
▁အသက်အရွယ်	-11.2663
▁၁၈၉၉	-11.2664
နည်းသော	-11.2665
ယူဆ	-11.2665
ကိရိယာများ	-11.2668
ရသောကြောင့်	-11.2669
▁ကြိတ်	-11.267
ပေးလိုက်	-11.2672
▁post	-11.2672
▁တရားစွဲဆို	-11.2673
▁ပြည်ထဲရေး	-11.2677
▁ဆရာတော်ကြီး	-11.2684
▁မြေဆီလွှာ	-11.2684
ရင်းမြစ်	-11.2685
▁ဖိနပ်	-11.2686
▁စကားပြေ	-11.2686
သူရိယ	-11.2687
▁ကျေနပ်	-11.2689
ဘွတ်	-11.2689
အပူ	-11.2689
=213	-11.269
ef	-11.2692
▁တဖက်	-11.2692
▁တောင်အာရှ	-11.2694
▁သန့်စင်	-11.2694
▁ခေါ	-11.2695
▁ရရှိနိုင်	-11.2696
▁၈ဝ	-11.2698
▁ငြင်းဆို	-11.2701
▁ဟိမဝန္တာ	-11.2702
▁မြဝတီမြို့နယ်	-11.2702
daung	-11.2703
▁၁၈၁၉	-11.2707
ဂတ်	-11.2709
▁ဒီပဲယင်း	-11.2712
ဟောက်	-11.2714
နိဗ္ဗာန်	-11.2722
ဒေါင်	-11.2723
▁မပါဝင်	-11.2724
ခေါင်းဆောင်သော	-11.2726
လွှမ်း	-11.2729
▁ပင့်	-11.2731
="213	-11.2732
▁အေဂျင်စီ	-11.2736
=209	-11.2736
▁ငါ၏	-11.274
တောရ	-11.2742
ချောင်းဝရွာ	-11.2743
ပြည်သို့	-11.2749
ကာရ	-11.2751
▁ပျိုး	-11.2751
ger	-11.2755
ရောက်လာ	-11.2756
▁အမိုး	-11.2756
မှာပဲ	-11.2757
ဇား	-11.2757
နိုင်ခဲ့လေသည်။	-11.2758
မင်းတရားကြီး	-11.2758
▁နေရာကို	-11.2759
လေကြောင်း	-11.276
▁မိန်	-11.2763
ler	-11.2765
တောက်ပ	-11.2766
င္	-11.2766
သုံ	-11.2766
▁အာရုံစိုက်	-11.2766
ဆွေး	-11.2767
▁ရေရှည်	-11.2768
ပုဏ္ဏား	-11.2768
အတတ်ပညာ	-11.2768
ရေးလုပ်ငန်း	-11.2768
min	-11.277
▁အလောင်း	-11.2773
chi	-11.2776
ste	-11.2776
ရည်ကို	-11.2777
၏ဟု	-11.2779
▁အငယ်ဆုံး	-11.278
ပုံး	-11.278
တတ်ကြ	-11.2781
▁၁၈၀၀	-11.2783
aw	-11.2783
▁အနီးတွင်	-11.2783
du	-11.2784
ရှည်လျား	-11.2785
ဓာတု	-11.2785
ဖြစ်ပါက	-11.2786
▁များမှာ	-11.2787
တဲရွာ	-11.2787
▁၁၈၉၇	-11.2788
=202	-11.2788
▁သီဟ	-11.2789
ထွက်၍	-11.2791
အနှစ်	-11.2792
အသိအမှတ်ပြု	-11.2793
▁ပုဂံပြည်	-11.2793
▁ဂဠုန်	-11.2794
ခဲ့ရ၏။	-11.2794
စေကာ	-11.2795
▁School	-11.2797
ဘဝကို	-11.2797
▁လက်ဖြင့်	-11.2798
▁အသုံးပြုမှု	-11.2803
▁ညွှန်ပြ	-11.2804
▁ရေးသားပြုစု	-11.2805
▁တိုးပွားလာ	-11.2805
▁သရက်ကုန်း	-11.2805
မြစ်ဝှမ်း	-11.2806
▁အရေးအခင်း	-11.2807
▁ယူရို	-11.2808
အနွယ်	-11.2809
▁စတင်ကာ	-11.2809
လိုက်ရ	-11.281
=57	-11.281
▁ပွဲဦးထွက်	-11.281
▁မြင့်မားသော	-11.2811
▁ပါဝင်ကြသည်။	-11.2813
=74	-11.2815
▁ခေတ်ပေါ်	-11.2817
▁တစ်စတစ်စ	-11.282
=214	-11.282
=136	-11.282
▁တခါတရံ	-11.282
▁System	-11.282
▁သာသနာပိုင်	-11.2822
▁ကုမ္ပဏီများ	-11.2822
ck	-11.2822
▁၇၁	-11.2822
ညှိနှိုင်း	-11.2823
▁ခေါက်	-11.2825
="136	-11.2826
ty	-11.2826
▁အခွင့်	-11.2826
▁အဆ	-11.2827
▁ကျနော်တို့	-11.2828
▁၁၈၅၀	-11.2829
▁ဒေသတွင်	-11.2829
="214	-11.283
▁ဝိုင်	-11.2831
▁မနက်	-11.2833
စဲ	-11.2833
▁စကော့တလန်	-11.2834
tta	-11.2834
▁မြန်မာဘာသာ	-11.2837
ကြကာ	-11.2838
▁ဤသို့သော	-11.284
ထုတ်လွှင့်	-11.2846
အလယ်တွင်	-11.2847
၌လည်းကောင်း၊	-11.2847
ဘိုင်း	-11.2847
မှတစ်ပါး	-11.2848
▁၁၈၇၉	-11.2848
အကြီး	-11.2849
ရပါတယ်။	-11.285
▁လုပ်ငန်းကို	-11.285
ပေါများ	-11.2851
ယိမ်း	-11.2851
ric	-11.2851
=216	-11.2852
▁ရဟန်းမိန်းမ	-11.2852
▁သင်္ဘောများ	-11.2853
▁သိုက်	-11.2856
သစ်တော	-11.2856
ဗျည်း	-11.2857
▁ကောင်းမှု	-11.2857
အင်္ကျီ	-11.2858
="216	-11.2858
▁ဝင်ရောက်ခဲ့သည်။	-11.2862
ဂေါ့	-11.2863
▁ပြည်သူတို့	-11.2863
လေးခု	-11.2864
▁အောက်ဖော်ပြပါ	-11.2864
▁ပြောင်းလဲမှု	-11.2865
မှုများသည်	-11.2865
▁တပ်မတော်မှ	-11.2867
▁ပွတ်	-11.2867
ခဲ့ကြသော်လည်း	-11.2871
▁ဂျင်း	-11.2873
▁ရှင်းပြ	-11.2875
▁ခေါ်ဆိုသည်။	-11.2875
▁ထမ်းရွက်	-11.2876
▁အနိစ္စရောက်	-11.2876
ကူးစက်	-11.2877
▁ဘရာဇီး	-11.2881
▁မင်းဘူး	-11.2882
▁ဂြိုဟ်တု	-11.2883
သဘောတူညီချက်	-11.2883
တစ်ပုဒ်	-11.2883
▁မိုဟာမက်	-11.2884
စုန်	-11.2885
တောင်အမေရိကတိုက်	-11.2887
▁သစ်စေး	-11.2891
▁စိမ်း	-11.2892
▁ကာကွယ်ပေး	-11.2895
ဟောကြားတော်မူခဲ့	-11.2897
အာဖရိက	-11.2899
▁မြှောက်	-11.29
အကြံပေး	-11.2901
မဟုတ်ပေ။	-11.2902
net	-11.2902
▁သူငယ်	-11.2902
ထွင်	-11.2903
▁ဒိန်းမတ်	-11.2905
စကားပုံတစ်ခု	-11.2905
▁လူ၏	-11.2906
▁ကျောင်းဆရာ	-11.2907
▁စိုင်း	-11.2907
▁ဩစတြီးယား	-11.2907
▁တရားဥပဒေ	-11.2908
=139	-11.2908
ဒါယကာ	-11.2908
ထယ်	-11.2909
ပိုင်ဆိုင်	-11.2909
▁ရှည်လျားသော	-11.291
စဉ်တွင်	-11.291
▁အကြင်	-11.291
="139	-11.2912
▁နားထောင်	-11.2912
▁အကြီး	-11.2914
ဘိုင်	-11.2915
▁ရေပေါ်	-11.2915
▁ပရို	-11.2916
val	-11.2918
▁နိုင်ငံရေးအရ	-11.2919
▁အလယ်တွင်	-11.2923
ဗေ	-11.2924
ဝယ်၊	-11.2926
▁ရေးသားထား	-11.2928
အထွက်	-11.293
ကြောင့်လည်း	-11.2931
An	-11.2932
orn	-11.2933
▁သူရဲ	-11.2935
▁၁၈၆၈	-11.2935
▁ဥပဒေကို	-11.2936
ပါသည်	-11.2936
ကော်ရွာ	-11.2937
နေလျှင်	-11.2937
▁မိုင်ပေါင်း	-11.2937
▁အဆင်ပြေ	-11.2939
003	-11.294
အလျောက်	-11.2944
▁ကော်ဖီ	-11.2946
▁ဝတ္ထုကို	-11.2948
ပါလီမန်	-11.2949
=84	-11.295
မော်ကွန်း	-11.2951
▁ပါဝင်၍	-11.2952
▁လေရှီးမြို့နယ်	-11.2952
=82	-11.2953
တ္	-11.2957
▁Day	-11.2957
အနောက်ဘက်	-11.2957
▁၁၈၃၆	-11.296
▁ဆွတ်ခူး	-11.2961
သော်၊	-11.2961
▁၁၉၀၄	-11.2961
ဂယ်လက်ဆီဖြစ်ပြီး	-11.2962
▁သားငယ်	-11.2963
အင်ဂျင်	-11.2963
ဘဝမှ	-11.2964
▁အရင်းအမြစ်	-11.2966
▁အိုးဘို	-11.297
အသုံးပြုသည်။	-11.2971
တိတိ	-11.2973
ရှစ်ပါး	-11.2973
▁ပေသည်။	-11.2975
▁တစ်ပင်	-11.2976
လျက်ရှိရာ	-11.2977
=206	-11.2978
▁မေရီ	-11.2979
မ္ပ	-11.2979
▁ချေ	-11.2981
▁ရေတွင်းကုန်း	-11.2981
▁သုတ်သင်	-11.2981
▁နတ်သမီး	-11.2982
="206	-11.2985
မင်းက	-11.2985
▁တရုပ်	-11.2988
▁ပါတီ၏	-11.2988
▁မြတ်သော	-11.2989
▁ပဋိ	-11.2991
မထွက်	-11.2991
ိတ	-11.2993
စံတော်ချိန်	-11.2994
ဂျန်	-11.2995
▁ပညတ်	-11.2996
သူရဲကောင်း	-11.2996
ကျမ်းစာ	-11.2997
ဖော်ပြထား	-11.2999
တော်လှန်	-11.3001
နေထိုင်ကြ	-11.3002
▁Nam	-11.3003
▁ပလ္လင်	-11.3003
စေဘဲ	-11.3007
ပန်းခြံ	-11.3007
▁ထိုနေရာတွင်	-11.3008
လေတပ်	-11.3008
▁ရူ	-11.3011
ဆိုဒ်	-11.3012
တီးခတ်	-11.3017
=97	-11.3018
▁တည်မြဲ	-11.302
▁ပေါ့	-11.3021
▁Kyun	-11.3022
ခမိ	-11.3023
အ်	-11.3026
ရုံသာမက	-11.3027
အစားအစာ	-11.303
▁ကဲ	-11.3032
▁အဝတ်အစား	-11.3033
ဗျာ	-11.3034
▁အမည်ရင်း	-11.3034
လုပ်ငန်းရှင်	-11.3035
ထွက်ခွာ	-11.3035
ဆင်နွှဲ	-11.3035
="76	-11.3035
▁မဂ္ဂဇင်းတွင်	-11.3037
▁အဆစ်	-11.3038
ဂိမ်း	-11.3039
ယုန်	-11.3041
အတော်များများ	-11.3041
▁ခေတ်ပြိုင်	-11.3041
•	-11.3042
▁ဖြစ်ခဲ့၏။	-11.3044
▁အသိပညာ	-11.3045
▁ဆိုသူမှ	-11.3045
▁ကဗျာလင်္ကာ	-11.3047
များသော	-11.3049
▁၁၈၂၆	-11.3049
▁သုံးနှုန်း	-11.3051
▁အခ	-11.3052
001	-11.3053
▁ပင်းယ	-11.3053
ဖွဲ	-11.3056
▁မဒညတ	-11.3057
ကြသေးသည်။	-11.3059
▁စတုတ္ထမြောက်	-11.306
▁၁၇၁၇	-11.3061
▁ယုံ	-11.3062
နေရာများတွင်	-11.3063
▁ခတ်	-11.3063
စေမည့်	-11.3065
ကပြ	-11.3066
တောင်းရွာ	-11.3067
ဘွေ	-11.3067
▁အကိုင်း	-11.3068
▁Par	-11.3069
▁၁၇၈၄	-11.307
ကြီးစွာ	-11.307
သူတွေ	-11.3072
▁အာဇာနည်	-11.3074
▁အမျိုးသားရေး	-11.3077
ကောင်ရွာ	-11.3079
▁နခ	-11.3079
▁နာမ်	-11.308
ထားသူ	-11.308
▁အပြင်ဘက်	-11.3081
ပရိ	-11.3082
▁ခိုင်	-11.3084
▁ပင်ပန်း	-11.3086
ရှော	-11.3087
▁ဝါသနာ	-11.3087
တစ်စိတ်တစ်ပိုင်း	-11.3087
အတွေးအခေါ်	-11.3089
▁စိတ်ကူးယဉ်	-11.3089
▁ကရာတေး	-11.309
▁ဆက်သ	-11.3091
သွင်	-11.3092
▁၁၈၃၇	-11.3093
▁ချဲ့ထွင်	-11.3095
နိုင်ငံတို့	-11.3095
ဂြိုဟ်ရံလ	-11.3096
တစ်ခုဖြစ်သည့်	-11.3097
▁မင်းတရားကြီး	-11.3098
ဖြစ်စေရန်	-11.3099
MA	-11.3099
="89	-11.3101
▁ပင့်ဆောင်	-11.3102
ear	-11.3103
မတက်	-11.3103
▁အငြင်းပွားမှု	-11.3103
▁နတ်မောက်	-11.3104
▁Zay	-11.3106
▁စိတ်မ	-11.3106
▁အချုပ်	-11.3108
=50	-11.3109
အပေါင်းတို့	-11.3111
၃၀၀	-11.3114
ဟိန်	-11.3115
▁မြို့ကြီးများ	-11.3116
▁ဖြစ်ခဲ့	-11.3116
▁၉၇	-11.3119
▁Lin	-11.3119
▁တစ်ခါတစ်ရံတွင်	-11.3121
လှဲ	-11.3123
အဆောက်အဦး	-11.3124
နယ်ကို	-11.3126
ဦးခေါင်း	-11.3127
တန့်	-11.3127
▁မြေမျက်နှာသွင်	-11.3131
ပြန်၍	-11.3132
▁လည်ပင်း	-11.3133
အရေးတော်ပုံ	-11.3133
▁စရိတ်	-11.3133
ဇန်နဝါရီ	-11.3136
ခြင်းအတွက်	-11.3139
▁စိတ်ကို	-11.314
ST	-11.314
▁တွေး	-11.3141
▁ဓာတ်အား	-11.3142
▁၁၆၇၅	-11.3147
လက်ပံ	-11.3148
▁ကောက်ခံ	-11.3148
ပါဠိတော်	-11.315
သည့်တိုင်အောင်	-11.315
▁တိုက်ခတ်	-11.3151
ding	-11.3151
အုပ်ချုပ်ပုံ	-11.3152
▁သိရ	-11.3153
▁၁၈၆၁	-11.3156
သွားကာ	-11.3157
မှုတို့ကို	-11.3159
▁ထိုမြို့	-11.316
▁သစ်ပင်များ	-11.316
▁ဟင်းသီးဟင်းရွက်	-11.3161
ဘောလုံးပြိုင်ပွဲ	-11.3162
တည်ရှိနေ	-11.3163
မ့်	-11.3164
ငျ	-11.3167
▁ကွဲပြားသော	-11.3167
▁ဝိပဿနာ	-11.3169
▁ရည်ရွယ်၍	-11.317
နယ်မြေများ	-11.3172
▁ရက်နေ့က	-11.3174
အရပ်သို့	-11.3175
=86	-11.3177
လုပ်ငန်းတွင်	-11.3177
အားပေး	-11.3182
ကလေးများသည်	-11.3184
စောင့်ရှောက်မှု	-11.3185
▁ပျဉ်းမနား	-11.3185
▁ကလေးသူငယ်	-11.3186
▁ကွင်းကြီး	-11.3189
အစဉ်	-11.319
▁၁၈၇၆	-11.3191
iv	-11.3193
▁၁၉၀၈	-11.3194
▁သင့်လျော်	-11.3195
လောင်းရွာ	-11.3196
▁အဝင်	-11.3197
များထံမှ	-11.3198
▁တောကြီး	-11.3201
လက်ရာများ	-11.3203
▁စာသားများကို	-11.3205
ran	-11.3205
▁မဲဇလီ	-11.3207
ပြည်နယ်တွင်	-11.3208
▁မိန့်ခွန်း	-11.321
▁နမ့်ဟူး	-11.321
▁လစဉ်	-11.321
ဝိုး	-11.3215
▁ကလည်း	-11.3215
မျို	-11.3216
▁အဆောင်အယောင်	-11.3218
မြင့်သော	-11.3218
တစ်စုံ	-11.3219
ဆေးများ	-11.3219
=220	-11.3222
▁မိန့်တော်မူ၏။	-11.3226
▁ဖယ်	-11.3227
daw	-11.3229
အဋ္ဌကထာ	-11.3229
=215	-11.323
▁ရပ်ဆိုင်း	-11.323
▁တကွ	-11.323
▁မဆို	-11.3233
ထော	-11.3234
▁အစည်း	-11.3235
▁El	-11.3235
▁၁၈၆၃	-11.3236
="215	-11.3237
▁လစာ	-11.3241
▁သတ္တိ	-11.3241
▁မှည့်ခေါ်	-11.3242
အဖျား	-11.3244
ft	-11.3245
▁ခေါင်းဆောင်သော	-11.3247
▁အင်းဝခေတ်	-11.3248
▁It	-11.3248
▁မြေပြန့်	-11.3252
▁တောင်ကြား	-11.3252
ရွှေ့	-11.3257
▁ခန့်တွင်	-11.326
▁ဘုရားဖူး	-11.326
၂၀၁၁	-11.326
▁နောင်မွန်း	-11.326
▁ရူပ	-11.3261
="220	-11.3264
ကျင်းပသော	-11.3264
တစ်ခုလည်း	-11.3265
ယျ	-11.3265
▁သန်းကျော်	-11.3265
▁၁၈၈၀	-11.3266
all	-11.3267
а	-11.3268
▁ဖွဲ့ဆို	-11.3268
▁ပီတာ	-11.3268
ရေနံ	-11.3269
ဗြဟ္မာ	-11.327
▁၆၀၀	-11.3272
ခြင်းပင်	-11.3272
ဂိုဏ်းဝင်	-11.3273
▁ဗက်	-11.3277
ပြင်ပ	-11.3278
အေဒီ	-11.3278
ဖြတ်သန်း	-11.328
သားများသည်	-11.328
လူကြီး	-11.3281
="86	-11.3287
▁မြို့ကို	-11.329
၂၀၁၄	-11.3292
အပြည့်	-11.3294
▁So	-11.3295
▁ရှိတတ်သည်။	-11.3295
ဟိုက်	-11.3297
တော်မူလေသည်။	-11.33
ပြည့်ရှင်	-11.3301
ore	-11.3302
တလုပ်	-11.3302
▁ပတ်သက်သည့်	-11.3302
▁သမ္မတအဖြစ်	-11.3303
ထုတ်ဝေခဲ့သည်။	-11.3303
▁ကံကြီး	-11.3304
▁သိကြ	-11.3306
ထွဋ်	-11.3308
ပေါ်လာ	-11.3308
▁ခြံ	-11.3308
ခြင်	-11.3309
▁အပို	-11.3309
▁၁၃။	-11.3312
လိမ်း	-11.3312
▁လက်ကိုင်	-11.3313
▁ညောင်ပင်သာရွာ	-11.3314
ရေးဌာန	-11.3314
တို့အပြင်	-11.3315
▁ဆိုရပေမည်။	-11.3315
▁တို့မှာ	-11.3316
တကျ	-11.3317
နန့်	-11.3318
BS	-11.3319
ata	-11.3319
ဉာဏ	-11.3322
စရိုက်	-11.3323
ဘူး၊	-11.3323
▁၁၉၀၂	-11.3323
▁ထွက်ရှိ	-11.3326
ပြည်တွင်း	-11.3327
အလေးချိန်	-11.3327
ဖုတ်	-11.3328
ရာသို့	-11.3329
▁သူပုန်	-11.3329
▁ဖွံ့ဖြိုးမှု	-11.333
▁ဒေဝ	-11.3338
ဗူ	-11.3339
=56	-11.3339
▁ရိက္ခာ	-11.334
တော့မည်	-11.3341
တပ်များကို	-11.3346
▁ကြည်လင်	-11.3349
▁ဘန်ကောက်မြို့	-11.3349
▁ဆရာမ	-11.3351
ကွန်ရက်	-11.3351
▁20	-11.3352
▁ရောဂါများ	-11.3354
တက်၍	-11.3354
အစွန်း	-11.3356
နိုင်လောက်အောင်	-11.3357
▁သတင်းထောက်	-11.3358
▁no	-11.3359
▁ကြူ	-11.336
qu	-11.336
▁ဖြစ်ကြသော	-11.336
▁အဓိကထား	-11.3361
009	-11.3361
▁မကောင်းသော	-11.3361
အောင်မြင်မှု	-11.3362
ကုန်သွယ်ရေး	-11.3363
ပုံနှိပ်	-11.3363
▁ပျောက်ကင်း	-11.3365
ဟောပြော	-11.3365
▁၂၅၀	-11.3366
▁ဂလက်ဆီဖြစ်ပြီး	-11.3366
▁Paing	-11.3367
ဂုတ်	-11.3369
▁ထည့်၍	-11.337
တိုးမြှင့်	-11.3372
▁ချေား	-11.3373
ရပ်စ်	-11.3373
▁၁၈၅၄	-11.3373
ခဲ့စဉ်က	-11.3375
▁သောက်သုံး	-11.3375
အမွေအနှစ်	-11.3375
▁ဗေဒင်	-11.3377
ဂျူး	-11.3378
=75	-11.3378
▁ဓနိ	-11.3379
-2	-11.338
ကျွမ်း	-11.3382
▁လက်ရာများ	-11.3382
▁ရာဇဝတ်	-11.3382
▁ကွယ်	-11.3382
ology	-11.3383
▁နန္ဒ	-11.3384
▁အမရပူရမြို့	-11.3387
သုံးဆယ်	-11.3387
▁တပ်မတော်ကာကွယ်	-11.3388
▁ချန်ပီယံ	-11.3391
▁တနင်္သာရီတိုင်း	-11.3391
ခိဘူတာ	-11.3393
▁အကူအညီပေး	-11.3394
▁ထိုနေရာ	-11.3395
ပေးထားသည်။	-11.34
တက်ကြွ	-11.3403
▁ထိုအပင်	-11.3403
=132	-11.3406
ုတ်	-11.3406
ph	-11.3411
အဆင်း	-11.3413
▁တု	-11.3414
▁station	-11.3416
▁ဗဒုံမင်း	-11.3416
▁မျိုးချစ်	-11.3416
ဗင်း	-11.3417
▁ပုံပြင်	-11.342
ကော်ပိုရေးရှင်း	-11.342
pi	-11.342
▁မဟုတ်ချေ။	-11.3421
ပါရမီ	-11.3421
ရှေးဟောင်း	-11.3421
▁အလေ့အထ	-11.3422
ရင်းနှီး	-11.3422
▁အနိမ့်ဆုံး	-11.3424
="132	-11.3425
▁သုခ	-11.3425
NA	-11.3426
လုပ်သား	-11.3426
အသင်းတော်	-11.3427
▁တပ်သား	-11.343
▁ကုန်းသာ	-11.343
▁အလုံးစုံ	-11.343
မွန်းရွာ	-11.3431
▁စွမ်းရည်	-11.3432
▁တမန်တော်	-11.3432
▁၁၈၆၆	-11.3433
အချက်အလက်များ	-11.3433
စေလို	-11.3435
▁ရှိပေသည်။	-11.3435
စေတတ်သော	-11.3435
ထားကြောင်း	-11.3436
▁မွန်ဂို	-11.3439
တို့ဖြစ်ကြသည်။	-11.3444
▁ဟင်္သာတ	-11.3444
▁မြေယာ	-11.3445
ဘက်ကမ်း	-11.3446
▁ကြီးမားသည့်	-11.3447
▁ဆမ်	-11.3448
▁Hu	-11.3448
▁လော်	-11.3448
tor	-11.3448
▁မင်းကြီးသည်	-11.3451
▁ရွှံ့	-11.3451
▁အယ်ဒီတာချုပ်	-11.3453
=221	-11.3453
▁အကြားတွင်	-11.3454
▁ရှုမြင်	-11.3457
▁လိုင်စင်	-11.3459
လတ်သော်	-11.3459
▁ချွန်	-11.3459
▁တာကော်	-11.346
▁ငယ်မည်မှာ	-11.3464
အစောပိုင်း	-11.3464
▁နွေ	-11.3464
ကုသိုလ်	-11.3465
bu	-11.3468
ဟိဂရှိ	-11.3469
▁တမူးမြို့နယ်	-11.347
par	-11.3472
▁၁၈၆၅	-11.3475
ဝု	-11.3476
▁မာလာ	-11.3478
▁အကာအကွယ်	-11.3479
kg	-11.348
ဖောင်း	-11.3481
▁ကိုယ်ရေး	-11.3481
▁ဘွဲ့ကို	-11.3481
ချက်များအရ	-11.3481
51	-11.3481
ိတ်	-11.3482
▁၁၈၃၄	-11.3482
▁သူနှင့်	-11.3484
ရှုံး	-11.3484
▁စီးပွားရေးနှင့်	-11.3485
▁မှားယွင်း	-11.3486
ကား၊	-11.3488
စသည်ဖြင့်	-11.3489
ညွှန်း	-11.349
▁အရေးပါသည့်	-11.3492
အဝ	-11.3493
▁အသင်းတော်	-11.3493
=46	-11.3495
▁နော့	-11.3498
▁ခရစ်ယာန်ဘာသာ	-11.3498
=111	-11.3499
▁မင်းကွန်း	-11.3499
▁ဆက်သွယ်မှု	-11.3499
ကျစ်	-11.35
="221	-11.35
▁သုတ္တန်တစ်ခု	-11.3501
ွပ်ကဲမှုဌာနချုပ်	-11.3502
▁မကျီးကုန်း	-11.3502
▁စီးပွားရေးအရ	-11.3502
ိန်း	-11.3503
ရကြောင်း	-11.3503
မီယာ	-11.3503
ပစ်ခတ်	-11.3504
တစ်ခုစီ	-11.3505
ဆုံးမ	-11.3505
မှန်ကန်	-11.3506
ငြားအံ့၊	-11.3506
ချက်မှာ	-11.3507
=201	-11.3507
▁ပြုမူ	-11.3507
▁သတင်းမီဒီယာ	-11.3509
▁ကိုယ်ဝန်	-11.351
▁ကမ္ဘာတွင်	-11.351
▁ရေးဖွဲ့	-11.3512
အက်ဥပဒေ	-11.3513
▁ပါရဂူဘွဲ့	-11.3513
▁ယူဆောင်	-11.3515
စသည်	-11.3516
အပါး	-11.3516
gu	-11.3516
▁နက္ခတ္တဗေဒ	-11.3517
="202	-11.3518
ကြီးများ၏	-11.3519
▁ကုန်ဆုံး	-11.3519
▁သွတ်သွင်း	-11.3521
▁ပန်းပွင့်	-11.3521
▁အင်ကြင်း	-11.3522
▁သူငယ်ချင်း	-11.3524
ဌာန၊	-11.3524
▁နွေး	-11.3526
မှည့်	-11.3526
▁တစ်နည်း	-11.3529
▁စေ့	-11.353
နေသော်လည်း	-11.3534
="88	-11.3539
ze	-11.354
▁Chinese	-11.354
▁မြင်တွေ့	-11.354
▁အရေးတော်ပုံ	-11.3541
လာခဲ့ရာ	-11.3544
ပါ၏။	-11.3544
▁မိုးမိတ်ခရိုင်	-11.3545
IS	-11.3546
ب	-11.3546
▁ဘာလူစကိုနီ	-11.3546
▁မည်သူမျှ	-11.3549
▁ကျောင်းတိုက်	-11.355
ကြိမ်မြောက်	-11.3551
ပတ်လမ်း	-11.3553
▁အကျိုးပြု	-11.3559
▁ကိုးကွယ်မှု	-11.3559
▁၁၇၈၅	-11.356
ထည့်၍	-11.356
သီဟ	-11.3561
▁သားကောင်	-11.3562
▁ဖြန့်ချိခဲ့သည်။	-11.3563
များကိုမူ	-11.3563
▁ကျယ်ပြန့်သော	-11.3564
▁Tu	-11.3566
ဖျက်သိမ်း	-11.3567
▁အသုံးပြုသူများ	-11.3567
ကူးပြောင်း	-11.357
▁ဇော်ဂျီ	-11.357
တမ်	-11.3571
▁အစိုးရနှင့်	-11.3573
▁ဝန်းရံ	-11.3573
၎င်း၏	-11.3576
▁တစ်ခုတည်း	-11.3577
▁ဖော်ပြချက်	-11.3577
ဖေး	-11.3578
ဒန်း	-11.3578
▁တိုက်ပွဲများ	-11.3581
▁Law	-11.3582
▁ဒေါ်အောင်ဆန်းစု	-11.3582
အစားထိုး	-11.3582
ကျိ	-11.3583
▁ဗိုင်းရပ်စ်	-11.3584
ခရာ	-11.3587
▁နိုင်ငံတွင်	-11.359
▁၁၈၇၁	-11.359
▁လက်မခန့်	-11.3591
▁အများက	-11.3592
စမစ်	-11.3593
▁မဘိမ်းမြို့နယ်	-11.3593
ရှိသည့်အနက်	-11.3594
▁ဒါယကာ	-11.3594
▁အဆောက်အဦးများ	-11.3596
သံ၊	-11.3596
▁ပြောင်	-11.3597
▁ပျောက်၏။	-11.3599
အက်ဖ်	-11.36
▁Yae	-11.3601
ပို့ချ	-11.3601
ယှက်	-11.3602
မြို့များ	-11.3603
▁ချီးမြှင့်ခြင်း	-11.3603
▁ကျောင်းများ	-11.3604
ထိုက်သော	-11.3604
▁ညီညွတ်ရေး	-11.3605
ခ်ျ	-11.3606
ကြတယ်။	-11.3606
▁ဖြစ်ပျက်	-11.3608
▁ငို	-11.3608
▁ထုထည်	-11.3609
အားကစားကွင်း	-11.361
ဘာသာစကားဖြင့်	-11.3611
▁လျှပ်	-11.3614
မှို	-11.3614
အရည်အသွေး	-11.3615
▁၁၈၅၆	-11.3616
▁ဖြစ်ပေါ်လာသော	-11.3619
ဈာန်	-11.3619
▁ဒတ်ချ်	-11.3619
▁ပတ်သက်ပြီး	-11.362
▁Kyaukta	-11.362
mon	-11.362
ကထေရ်	-11.3621
▁၁၈၆၉	-11.3622
ဆေးပညာ	-11.3623
မျက်နှာပြင်အထက်	-11.3623
▁လဲလှယ်	-11.3624
▁သင်္ဂြိုဟ်	-11.3625
မူဝါဒ	-11.3626
▁သရေခေတ္တရာ	-11.3627
▁အရောင်းအဝယ်	-11.3628
ပြက္ခဒိန်	-11.3628
နေတတ်	-11.3628
▁မြန်မာနိုင်ငံမှ	-11.3629
▁ဝဲကြီး	-11.3631
▁အထောက်အထားများ	-11.3633
တော့၊	-11.3634
ွင်း	-11.3636
▁ကွန်း	-11.3638
▁အီလက်ထရွန်းနစ်	-11.3638
▁လွယ်လုံ	-11.3639
▁ရွှေရောင်	-11.3639
▁တရားတော်	-11.364
▁သတ်မှတ်ကြသည်။	-11.3641
လုပ်ထုံးလုပ်နည်း	-11.3641
လေလေ	-11.3641
▁အပြီးသတ်	-11.3642
▁ကန်ကြီး	-11.3644
▁ကျွန်းကြီး	-11.3645
သည်ရှိသော်	-11.3646
ကာလများတွင်	-11.3647
ရမည်၊	-11.3647
▁သတ်မှတ်သည်။	-11.3648
တော်၊	-11.3649
▁ရှင်သာမဏေ	-11.3649
▁its	-11.365
န္န	-11.3653
▁စာမူ	-11.3654
▁အထူးပြု	-11.3655
အတိုင်းအတာ	-11.3657
က္ကာ	-11.3657
▁ရဟန်းတို့သည်	-11.3658
▁သီဟသူ	-11.3658
mu	-11.3659
▁သိပ္ပံနှင့်	-11.366
ခွင့်ပေး	-11.3661
းမား	-11.3661
ချိုင်း	-11.3662
ရတယ်။	-11.3666
ခဲ့သလို	-11.3666
▁မြို့တွင်း	-11.3666
တစ်နေရာ	-11.3671
ပြီဖြစ်သည်။	-11.3672
ကြသည်မှာ	-11.3673
ise	-11.3677
ရှိသည်ကို	-11.3677
▁တိုးပွား	-11.3678
▁ပဉ္စ	-11.3679
▁ကြီးကျယ်	-11.3679
▁ထိုကျောင်း	-11.368
တစ်စောင်	-11.368
▁နေရာများတွင်	-11.3681
▁မီးခိုး	-11.3682
ခရီးသွားလုပ်ငန်း	-11.3684
ဖျောက်	-11.3687
လွယ်ကူ	-11.3688
ō	-11.3688
အောင်ဆန်းစုကြည်	-11.3689
ကျန်းမာရေးဌာနခွဲ	-11.3691
ရန်သူ	-11.3691
▁စတု	-11.3693
▁အဝိုင်း	-11.3696
▁ဖြတ်တောက်	-11.3698
▁တောင်ဘက်သို့	-11.3698
▁၁၈၂၈	-11.3699
▁တောင်ကြီးမြို့	-11.3699
သူနှင့်	-11.3701
အပင်များ	-11.3703
တစ်ဝိုက်	-11.3704
▁ပြဿနာများ	-11.3706
သုံးဦး	-11.3707
ခံခဲ့ရပြီး	-11.3708
▁အစားထိုးခြင်း	-11.3709
▁စားသုံးသူ	-11.371
▁ဘူမိဗေဒ	-11.371
▁စုံစမ်းစစ်ဆေး	-11.3711
book	-11.3711
မရမ်း	-11.3711
အတု	-11.3711
▁မြိတ်	-11.3711
▁ပုသိမ်မြို့	-11.3713
q	-11.3713
م	-11.3713
မမှန်	-11.3713
▁စာတိုက်	-11.3713
▁တစ်ရက်	-11.3715
49	-11.3716
▁ကင်ဆာ	-11.3717
▁၁၈၅၃	-11.3719
▁မဟာယာန	-11.372
▁၁၈၅၁	-11.3721
▁စူးစမ်း	-11.3721
=108	-11.3722
ကြောင့်ဖြစ်သည်။	-11.3723
ဆေးဝါး	-11.3725
ကိုမဆို	-11.3727
▁ကြွယ်ဝ	-11.3727
▁ပါဝင်ယှဉ်ပြိုင်	-11.3728
▁လူနည်းစု	-11.3728
၂၀၁၆	-11.3732
▁le	-11.3732
စကို	-11.3734
ဖျင်	-11.3735
▁ထိုင်းနိုင်ငံ၏	-11.3735
ခံစားရ	-11.3735
ကွေ့ရွာ	-11.3736
▁ကောင်းမွန်စွာ	-11.3736
▁လွတ်မြောက်ရေး	-11.3736
=85	-11.3737
▁သနား	-11.3738
▁လုပ်ငန်းစဉ်	-11.374
▁ကဲ့ရဲ့	-11.3742
ပျစ်	-11.3742
သုံးမျိုး	-11.3745
▁ကမ္ဘာကြီး	-11.3745
▁စစ်သည်	-11.3746
▁အခန်းကဏ္ဍ	-11.3747
▁၁၈၇၃	-11.3749
ထွား	-11.3751
▁ကြိယာ	-11.3751
▁စီးပွားဖြစ်	-11.3752
လက်အောက်တွင်	-11.3752
ကျမ်းများ	-11.3752
▁ချောက်	-11.3753
▁Ru	-11.3753
▁အသိဉာဏ်	-11.3756
▁ဟော်	-11.3758
▁အပင်မျိုး	-11.3758
သင့်သော	-11.376
၅ဝ	-11.3762
▁ပရ	-11.3763
▁၂ဝဝဝ	-11.3765
▁ဖန်ဆင်း	-11.3766
ဆီကို	-11.3766
▁Star	-11.3767
ကောက်ယူ	-11.377
▁ကျောင်းစုရွာ	-11.377
▁ပြိုကွဲ	-11.3771
သတည်း။	-11.3772
ထရာ	-11.3772
▁အလက်	-11.3772
ဆင်းတု	-11.3774
ဟပ်	-11.3777
▁တောင်သူ	-11.3777
▁ပါတီဝင်	-11.3778
▁ကြို့ပင်	-11.3779
အိမ်တော်	-11.3781
▁ဘိုင်	-11.3781
ခဝ	-11.3783
dy	-11.3784
▁သတ်မှတ်ပေး	-11.3786
ခဲ့။	-11.3787
▁ကုန်းမြင့်	-11.379
▁လာဘ်	-11.379
▁ချောင်းဆိုး	-11.379
သံဃာ	-11.3791
▁မွေးမြူရေး	-11.3792
▁အရွက်များ	-11.3792
သည့်အနေဖြင့်	-11.3794
လျှာ	-11.3794
▁ကျော်ကြားသော	-11.3794
▁ကလေးသူငယ်များ	-11.3796
▁အသုံးပြုပြီး	-11.3796
▁ဗန်	-11.3796
ကဲ့	-11.3796
သားတို့သည်	-11.3798
ငင်း	-11.3798
▁သို့နှင့်	-11.3799
နှုန်းဖြင့်	-11.3799
▁ကီး	-11.3801
▁ခေါ်ဆိုကြသည်။	-11.3801
▁မြို့ရွာ	-11.3803
▁၁၉၀၉	-11.3803
▁မြစ်ဝ	-11.3804
သွားရ	-11.3804
Q	-11.3805
အသင်းများ	-11.3808
ထကြွ	-11.3812
▁အနန္တ	-11.3812
▁ပြန့်ပွား	-11.3814
North	-11.3817
ဖြို	-11.3817
▁ဝိဇ္ဇာဘွဲ့	-11.3817
▁အကျိုးအမြတ်	-11.3818
ထက်ပင်	-11.3818
အရာဝတ္ထု	-11.382
အာဏာပိုင်	-11.3821
▁ကထိက	-11.3821
သက်ရောက်မှု	-11.3824
▁ရောမမြို့	-11.3825
▁ရှူ	-11.3825
▁သဘောတူညီ	-11.3826
▁အကျိုးကျေးဇူး	-11.3827
▁ဒုံးပျံ	-11.3827
▁အာဂျင်တီးနား	-11.3832
▁ခရီးထွက်	-11.3834
သံကို	-11.3835
ရာမှာ	-11.3836
▁ထုတ်ပြန်ခဲ့သည်။	-11.3837
▁ال	-11.3837
▁မြစ်ဖျားခံ	-11.3838
ပြိုင်ပွဲများ	-11.3839
▁ရိုက်နှိပ်	-11.384
မေ့	-11.3842
အစုံ	-11.3844
▁မော်တော်ကားလမ်း	-11.3851
ခဲ့သော်	-11.3853
ကောင်စီက	-11.3853
▁ပဲခူးမြို့	-11.3854
▁သတိုး	-11.3855
▁သမား	-11.3856
▁သားသမီးများ	-11.3856
▁အာဖဂန်နစ္စတန်	-11.3857
▁အိရှိ	-11.3858
▁ကြားဖြတ်	-11.3858
ိဿ	-11.3858
ထင်ရှားသော	-11.3859
အလုပ်လုပ်	-11.386
ဆေ	-11.3862
ern	-11.3862
▁ဂိမ်း	-11.3863
တွင်းမှ	-11.3864
၌ကား	-11.3864
▁ဧည့်သည်	-11.3865
စွပ်စွဲ	-11.3865
▁မပြတ်	-11.3865
52	-11.3865
▁ဘန်း	-11.3867
▁ဗျ	-11.3869
▁၉၉	-11.3869
ဖြစ်၏	-11.3869
▁အပျို	-11.3869
san	-11.3877
ရေတွက်	-11.3879
▁နိုင်ငံပိုင်	-11.3879
ဒေသကို	-11.3879
▁ခူ	-11.388
·	-11.3881
-1	-11.3881
ထွက်ပြေး	-11.3882
ရေကြောင်း	-11.3882
▁ပြည်နယ်နှင့်	-11.3883
ကိုဖြစ်စေ၊	-11.3884
ဗဲ	-11.3887
▁ကြမ်း	-11.3888
▁၁၇၉၅	-11.3888
တစ်ခုနှင့်	-11.389
▁ဘူတာ	-11.3891
ဌာနများ	-11.3891
▁Htan	-11.3891
▁မဏိပူရ	-11.3891
ဒေသသည်	-11.3892
per	-11.3894
▁စင်ကြယ်	-11.3895
▁ဖီဂျီ	-11.3896
=67	-11.3896
▁တွေ့ရှိခဲ့သည်။	-11.3897
▁စာဆိုတော်	-11.3898
▁စစ်ပွဲများ	-11.3898
▁တစ်ဦးချင်း	-11.39
▁အိန္ဒိယ၊	-11.3902
▁ခုတ်	-11.3904
သောနေရာ	-11.3905
▁သမ	-11.391
▁အကြောင်းကြား	-11.3911
ဇေယျာ	-11.3912
▁ရာဇာဓိရာဇ်	-11.3914
SS	-11.3915
▁ဗျိုင်း	-11.3915
▁သင်္ကြန်	-11.3918
တြ	-11.3919
▁ဆောက်တည်	-11.3921
▁Mon	-11.3921
▁မိမိအား	-11.3921
▁ဇီးပင်	-11.3921
="85	-11.3923
▁လူသားတို့	-11.3923
▁ကြို့ကုန်း	-11.3924
▁နှိပ်စက်	-11.3925
▁အီလက်ထရောနစ်	-11.3929
mm	-11.3929
大	-11.393
ပူရ	-11.393
▁ဆော်	-11.393
စစ်သား	-11.3931
တစ်ခုဖြစ်သော	-11.3932
▁သက်သက်	-11.3932
စေခဲ့	-11.3932
စပ်ဆို	-11.3933
ပင်မျိုး	-11.3935
▁မြင်းစီး	-11.3938
တော်တွင်	-11.3939
▁ထင်မြင်	-11.3939
▁နက်ဗျူလာ	-11.394
ကမ္မ	-11.3941
လေပြီ။	-11.3942
ရှိုး	-11.3942
ဘက်၌	-11.3944
▁သရုပ်	-11.3944
Ch	-11.3945
မ္ဗ	-11.3947
▁ညောင်ပင်ကြီး	-11.3949
တောင်ထိပ်	-11.3951
▁ဟွန်း	-11.3952
▁l	-11.3954
▁သာယာဝတီမင်း	-11.3954
ရည်ရွယ်	-11.3955
စုံစမ်း	-11.3956
▁သတိပြု	-11.3959
ဟော့	-11.3959
▁ချိုးဖောက်	-11.396
▁အောက်ဘက်	-11.396
▁တွေကို	-11.3961
▁သီးနှံ	-11.3963
တော်၏	-11.3963
▁သစ်ရွက်	-11.3965
ညဉ့်	-11.3965
▁ကိရိယာများ	-11.3966
ခြင်းမရှိပေ။	-11.3967
တောင်ကုန်း	-11.3967
▁ကြီးပွား	-11.3968
လိုး	-11.3969
သီးခြား	-11.3969
▁ကန်း	-11.3969
▁ရောင်စုံ	-11.3972
အသင်းသည်	-11.3973
▁သတ်မှတ်ချက်	-11.3977
▁အင်္ဂတေ	-11.3978
▁ဆင်းသက်လာ	-11.3979
▁ပန်ခမ့်မြို့နယ်	-11.3979
ه	-11.3979
တို့ထက်	-11.3979
=78	-11.3979
▁record	-11.3979
နေရင်း	-11.398
▁ဝဲဒေါင့်	-11.398
▁ဆော့ဖ်ဝဲ	-11.3982
ထိရောက်	-11.3983
▁ပြိုင်	-11.3983
▁Lel	-11.3984
သမင်	-11.3988
▁Music	-11.399
▁၂၀၉၃	-11.3992
ဌာနမှ	-11.3992
▁နှုတ်သီး	-11.3992
▁ဘီလျံ	-11.3992
▁တွန်းလှန်	-11.3993
▁အရှေ့အလယ်ပိုင်း	-11.3994
သုပ်	-11.3997
ဝိုက်	-11.3997
နယ်မှ	-11.3998
▁အောင်နိုင်	-11.3998
တည်ထား	-11.4
▁မြင့်တက်လာ	-11.4
IP	-11.4
တည်၍	-11.4
▁ရေနှင့်	-11.4001
ပုဒ်မ	-11.4003
အစဉ်အလာ	-11.4003
Ka	-11.4004
▁ဘိုးတော်	-11.4004
▁ဘူမိ	-11.4005
▁အနောက်တောင်	-11.4007
▁တာဝန်ပေးအပ်	-11.4007
ဇန	-11.4009
▁အဖြစ်သို့	-11.401
အောက်ရှိ	-11.4011
▁ဆုတံဆိပ်	-11.4013
မဖြစ်မီ	-11.4016
▁နှစ်ပါး	-11.4017
တစ်မျိုးဖြစ်ပြီး	-11.4018
▁မြို့တော်မှာ	-11.4018
▁ဘာသာတရား	-11.4018
လှချေ။	-11.402
▁၉၃	-11.402
▁အတိုင်ပင်ခံ	-11.4022
="73	-11.4025
▁ယေရှု	-11.4028
အုပ်စု၌	-11.4029
▁ရှောင်ကြဉ်	-11.4033
သို့ပြန်	-11.4035
▁၁၈၄၈	-11.4037
မည့်အကြောင်း	-11.4038
▁အိမ်ရှေ့မင်း	-11.4039
▁Bar	-11.404
မရှိချေ။	-11.4042
ပွက်	-11.4044
▁ကျယ်ဝန်း	-11.4044
▁မေးခွန်း	-11.4045
▁အသင်းကြီး	-11.4046
တစ်နိုင်ငံ	-11.4046
gy	-11.4046
▁ရေပြင်	-11.4048
ရေးတွင်	-11.4048
▁လွှင့်	-11.4051
▁ရပ်စောက်	-11.4052
စူ	-11.4053
▁ထန်	-11.4054
လုပ်ငန်းနှင့်	-11.4055
လိုက်သည့်	-11.4055
▁အလံနီ	-11.4056
ပြုသော	-11.4058
ဆိုပြီး	-11.406
မင်းလှ	-11.4061
▁မန္တ	-11.4062
ura	-11.4063
ort	-11.4063
နီးစပ်	-11.4063
ပြောင်းလဲမှု	-11.4065
▁အမည်နာမ	-11.4065
ခဲ့တာ	-11.4067
▁၃ဝဝ	-11.4068
ချဲ့	-11.4069
▁တမာ	-11.4069
▁ကူကီး	-11.4071
▁လု	-11.4073
▁မှတ်တမ်းတင်ထား	-11.4076
အုပ်ချုပ်ခဲ့သည်။	-11.4076
▁မည်သို့ပင်	-11.4077
▁၂၁၁၆	-11.4077
▁ထွက်ခွာသွား	-11.4083
ွိ	-11.4086
အကွာအဝေး	-11.4086
မြောင်ရွာ	-11.4087
▁ကျောင်းကုန်း	-11.4091
ဟာရ	-11.4091
▁မှား	-11.4093
ချဲ့ထွင်	-11.4095
▁ပဒေသရာဇ်	-11.4097
ယူနိုက်တက်	-11.4099
▁စည်ပင်	-11.4099
men	-11.4099
▁သုတေသနပြု	-11.41
ချိန်မှာ	-11.41
ကင်ဆာ	-11.4101
ဟောင်းများ	-11.4101
ရှိခြင်း	-11.4104
ိယထေရ်	-11.4105
တိုက်တွင်	-11.4105
▁ခေါင်းစဉ်	-11.4107
ကြီ	-11.4108
ဆရာတော်ကြီး	-11.4109
ဉ္ဇ	-11.4111
ဘဝတွင်	-11.4113
▁ကျောက်ဆောင်	-11.4115
ပျ	-11.4116
▁တိုက်ပွဲဝင်	-11.4116
ဖိနပ်	-11.4119
တချို့	-11.4119
ရှောက်	-11.412
▁ဤအ	-11.4121
▁hardcore	-11.4127
▁အလုံး	-11.4128
▁ကျမ်းများ	-11.4128
▁Thi	-11.4128
▁%	-11.413
▁Per	-11.4131
▁နယ်သာလန်နိုင်ငံ	-11.4132
▁အတူတူ	-11.4132
▁အင်ဒို	-11.4134
▁အဆက်မပြတ်	-11.4134
▁ကတည်းက	-11.4134
▁နှာ	-11.4138
ative	-11.4138
▁မလုပ်	-11.4138
▁တစ်ဆူ	-11.414
=91	-11.4144
ပြူး	-11.4149
အသင်းကြီး	-11.4149
ပါရှိ	-11.4151
▁ဆောင်ရွက်ချက်	-11.4152
▁အစပြု၍	-11.4152
▁ချုံ	-11.4153
ပြစ်မှု	-11.4154
ဟုပင်	-11.4159
▁ဝတ္ထုများ	-11.4159
▁မတိုင်မီ	-11.4159
▁တူသည်။	-11.4162
လျက်ရှိ၏။	-11.4164
▁Ad	-11.4164
▁မုံရွာမြို့နယ်၊	-11.4165
ical	-11.4166
▁လွတ်လပ်ရေးရ	-11.4169
▁အပေါင်း	-11.4169
▁ပြန့်	-11.4169
▁ပင်လယ်ပြင်	-11.4169
ပရိုဂရမ်	-11.4171
ရှုပ်ထွေး	-11.4171
▁ဆရာတော်၏	-11.4171
▁နေထိုင်သူ	-11.4172
▁ကျွမ်းကျင်သူ	-11.4173
မော်လမြိုင်မြို့	-11.4173
အေဂျင်စီ	-11.4174
▁လူဝီ	-11.4174
=48	-11.4175
ဇရပ်	-11.4175
▁ဂရိနိုင်ငံ	-11.4175
▁စာရေးသူ	-11.4176
▁တစ်စိတ်တစ်ဒေသ	-11.4178
▁မြောက်လတ္တီတွဒ်	-11.4178
▁ကျော်လွန်	-11.4179
ခဲ့ဘူး	-11.418
▁လျှော်	-11.4181
လက်အောက်ခံ	-11.4181
▁ကဗျာအမျိုးအစား	-11.4182
သားရေ	-11.4183
▁သို့ဖြစ်ရာ	-11.4184
စကြာ	-11.4184
▁ယနေ့အထိ	-11.4187
ခန္ဓာ	-11.4188
မှောင်	-11.4189
▁၁၈၃၀	-11.4192
MS	-11.4193
မှုအား	-11.4193
လွတ်မြောက်	-11.4195
သရေ	-11.4196
မိုင်ရွာ	-11.4198
▁၂၁၁၇	-11.4199
ီး	-11.4199
ခေး	-11.42
▁သားမွေး	-11.42
မြို့မ	-11.4201
▁အာသာ	-11.4202
▁ဖိတ်ကြား	-11.4204
▁လက်နက်များ	-11.4205
ငှက်များ	-11.4206
low	-11.4206
▁ဂုံညင်းတန်း	-11.4208
▁ကြီးစိုး	-11.4209
▁12	-11.4209
အခြေချ	-11.4209
▁100	-11.4209
▁ဟိုး	-11.421
ဖြ	-11.4212
▁နှုန်း	-11.4214
ဖျော်	-11.4214
တရားတော်	-11.4215
နှိုင်း	-11.4218
▁စမ်းချောင်း	-11.4218
▁ရေးခဲ့သည်။	-11.4219
တုံ့ပြန်	-11.4219
▁စေတီတော်ကို	-11.422
▁စစ်တွေ	-11.4221
▁ပါရှိသော	-11.4221
▁ဒဏ်	-11.4221
▁စစ်တွေမြို့	-11.4224
=55	-11.4224
ရှိပေသည်။	-11.4225
တာဝန်များကို	-11.4226
▁ယေ	-11.4227
▁server	-11.4228
▁အကျိုးဆက်	-11.4228
အူး	-11.4229
▁တစ်ကောင်	-11.423
အထူးသဖြင့်	-11.4232
ပြီးသား	-11.4232
ရှိသောကြောင့်	-11.4233
ဗန်း	-11.4236
နေသူများ	-11.4237
▁ဖွင့်ဆို	-11.4237
▁၁၈၆၂	-11.4244
SA	-11.4245
▁မီးဖို	-11.425
gi	-11.4252
▁တက္ကသိုလ်တွင်	-11.4253
▁မိုးရေချိန်	-11.4253
မျိုး၊	-11.4254
စနစ်များ	-11.4254
=51	-11.4259
မျိုးနွယ်စု	-11.4261
▁သေဆုံးသူ	-11.4263
ကမ္ဘာလုံးဆိုင်ရာ	-11.4265
မူ၊	-11.4265
ပုံစံဖြင့်	-11.4269
▁အလယ်တန်းကျောင်း	-11.4269
har	-11.4269
▁အရေ	-11.4269
kan	-11.4269
▁black	-11.427
▁လူသိများသော	-11.4271
ဆမ်	-11.4271
gan	-11.4272
▁တစ်စု	-11.4274
West	-11.4275
သယ်ဆောင်	-11.4277
▁ပုပ်ရဟန်းမင်း	-11.4278
▁အဘယ့်ကြောင့်	-11.4278
▁အိမ်ထောင်ပြု	-11.4279
▁ရေငုပ်သင်္ဘော	-11.428
▁စာရင်းအရ	-11.428
▁အစီရင်ခံ	-11.4282
ရောမ	-11.4282
မျိုးတို့	-11.4282
ks	-11.4283
▁မြေမျက်နှာပြင်	-11.4287
▁အကုန်	-11.4289
▁ဈေးနှုန်း	-11.4295
ဒေသများသို့	-11.4296
▁ဟိုင်	-11.4296
▁မပြုလုပ်	-11.4296
ဂေး	-11.4297
pro	-11.4298
▁မော်ဒယ်	-11.4299
နိုင်ငံများသို့	-11.4299
ae	-11.4299
အရင်းအမြစ်	-11.4301
တပ်များသည်	-11.4301
▁ဂွ	-11.4303
▁လှုပ်	-11.4304
ness	-11.4304
▁အောက်လွှတ်တော်	-11.431
▁ကူးယူ	-11.4312
ဇေ	-11.4313
De	-11.4313
စစ်သည်	-11.4314
▁ရသ	-11.4317
ွီ	-11.4317
▁ခုနှစ်ကတည်းက	-11.4318
ပိုင်ဆိုင်မှု	-11.4319
ham	-11.432
အောက်တိုဘာ	-11.4321
▁Ex	-11.4323
ရန်လည်း	-11.4324
တိုးတက်လာ	-11.4328
နီယမ်	-11.4328
▁နက္ခတာရာ	-11.4329
▁လတ်တလော	-11.4329
ခန့်မှန်း	-11.4329
▁ငါးနှစ်	-11.433
▁အကျုံးဝင်	-11.433
တစ်မျိုးမှာ	-11.4331
▁၁၉၂ဝ	-11.4331
▁လွန်ခဲ့သည့်	-11.4331
ဗိုက်	-11.4332
စေရမည်။	-11.4333
▁Maung	-11.4334
if	-11.4335
ခြင်းပင်ဖြစ်သည်။	-11.4336
ွိုက်	-11.4336
ဝိန်း	-11.4338
ဂီရိ	-11.4338
van	-11.4339
▁ရွာကြီး	-11.434
▁အစီအစဉ်များ	-11.4343
▁ပုရပိုက်	-11.4343
ညီညွတ်	-11.4343
▁သန်းခန့်	-11.4344
▁လူသူ	-11.4345
▁Long	-11.4345
၂၀၀၀	-11.4346
▁ဆစ်	-11.4349
၂၀၀၈	-11.435
ထူထပ်	-11.435
ပေးခဲ့ပြီး	-11.4354
အမြတ်	-11.4355
▁အညီ	-11.4355
ကြိုးပမ်းမှု	-11.4356
▁Ge	-11.4357
▁ပဋိသန္ဓေ	-11.4357
စေရ	-11.4358
ဘိက္ခုနီ	-11.4358
▁ရွတ်ဆို	-11.4361
▁ဟိုပန်	-11.4363
▁မီးသွေး	-11.4364
တွေ့ရှိနိုင်သည်။	-11.4366
▁ရသော	-11.4366
ွာ	-11.4367
ဘာသာရေး	-11.4369
ရောက်ရှိလာ	-11.4369
လာနိုင်	-11.437
▁ဖရန့်	-11.4371
မမြင်	-11.4373
▁မြန်မာတို့၏	-11.4374
▁ဖူးမြော်	-11.4375
▁တတိယအကြိမ်	-11.4377
=106	-11.4377
▁ဆုတ်	-11.4377
▁မော့	-11.4379
▁ကြွရောက်	-11.438
▁တနိုင်းမြို့နယ်	-11.438
▁Kyon	-11.438
*	-11.438
ဝဲလ်	-11.438
လာပြီးလျှင်	-11.4381
▁ကျွဲနွား	-11.4381
▁မည်သူမဆို	-11.4381
▁မုဒုံမြို့နယ်	-11.4382
▁ပြိုင်ဘက်	-11.4384
▁အကြမ်း	-11.4384
▁ဝါရှင်တန်	-11.4387
ဖျော်ဖြေ	-11.4387
အသုံးပြုသော	-11.4388
တောင်တန်းများ	-11.4388
လိုသူ	-11.4389
န်ရွာ၊	-11.4389
▁၅ဝဝ	-11.4389
ခံနေရ	-11.4391
ရှိခြင်း၊	-11.4392
တရုပ်	-11.4392
ဘာသာစကားကို	-11.4393
နှစ်ရပ်	-11.4393
▁နိုင်ငံတွင်း	-11.4394
ထွာ	-11.4394
▁မာန်	-11.4396
တော်မူခြင်း	-11.4397
▁Sh	-11.4397
▁မရှိတော့	-11.4397
▁မမြင်	-11.4397
ကြည်ညို	-11.4397
="75	-11.4398
စက်မှု	-11.4398
nic	-11.44
ဂါမ	-11.4402
ပုပ္ဖိယထေရ်	-11.4404
▁ကွေး	-11.4404
▁သိမ်းသွင်း	-11.4405
စီးရီး	-11.4405
▁ကယ်ဆယ်ရေး	-11.4406
ခေါင်းစဉ်	-11.4406
လှည့်လည်	-11.4407
တိုင်ရွာ	-11.4407
ရန်ပုံငွေ	-11.4408
Al	-11.4408
တည်ရှိရာ	-11.4409
▁သရက်ပင်	-11.441
▁ဇယား	-11.4413
▁ဆရာစံ	-11.4415
▁ပြင်သစ်တို့	-11.4416
▁ဇာတ်ကောင်	-11.4416
မစား	-11.4418
တဲ့အတွက်	-11.4418
▁ဖောင်ဒေးရှင်း	-11.4419
နံ့သာ	-11.4419
▁Award	-11.4425
▁နွေရာသီတွင်	-11.4426
="64	-11.4429
▁ပေးထားခြင်း	-11.4429
ဘ၀	-11.4431
ွံ	-11.4431
▁Seik	-11.4432
▁ပို့ဆောင်ရေး	-11.4432
ဘရ	-11.4433
ကြသောကြောင့်	-11.4433
▁အလွတ်	-11.4434
▁ဗဟိုဌာနချုပ်	-11.4434
▁တစ်နည်းအားဖြင့်	-11.4435
▁Yan	-11.4438
▁ခေါ်ဝေါ်ကြသည်။	-11.444
=54	-11.4442
ရုံမက	-11.4442
▁အတော်အတန်	-11.4443
▁ဒြပ်	-11.4445
မရောက်	-11.4445
▁ဒဂုန်	-11.4445
ဖြစ်လာပြီး	-11.4446
မှုများ၊	-11.4446
ရဟတ်	-11.4449
ဟိုတယ်	-11.4449
▁၁၈၇၅	-11.445
▁ဒဿန	-11.445
mit	-11.4454
ကတည်းကပင်	-11.4454
▁ချေမှုန်း	-11.4455
▁မွေးသည်။	-11.4455
ငတ်	-11.4458
▁ဖျော်ဖြေရေး	-11.446
ဗိုလ်မှူးကြီး	-11.4461
=107	-11.4461
ရာအရပ်	-11.4462
လီယာ	-11.4462
▁ကျန်စစ်သား	-11.4464
▁တပ်များ	-11.4465
များတွင်မူ	-11.4466
စေရ။	-11.4466
▁အနည်းငယ်မျှ	-11.4467
သီး၊	-11.4467
အကယ်ဒမီ	-11.4467
ဖြစ်နေသည်။	-11.447
ပြောကြားခဲ့သည်။	-11.447
▁ရှေးရိုး	-11.4471
zi	-11.4472
ခဏ	-11.4473
▁သဘောကျ	-11.4473
စည်းမျဉ်း	-11.4474
တစ်ဦးသည်	-11.4474
▁ကြိုဆို	-11.4474
မရှိပဲ	-11.4474
▁သွပ်	-11.4475
ခရစ်ယာန်	-11.4475
တစ်နှစ်	-11.4477
ထူးချွန်	-11.4478
▁ရုပ်သံလိုင်း	-11.4478
ပုံစံကို	-11.4479
များအနေဖြင့်	-11.4481
▁သပြု	-11.4482
▁*	-11.4482
▁ရရှိနိုင်သည်။	-11.4482
▁မသေ	-11.4483
▁တော်ကီးန်	-11.4483
▁သလိပ်	-11.4484
▁၁၄။	-11.4486
▁မောင်နှမ	-11.4486
မိုင်ခန့်	-11.4489
▁ဖော်ပြပါ	-11.4489
▁၁၈၄၁	-11.449
ရေကို	-11.4491
▁ရေးသားထားသည်။	-11.4492
တာတွေ	-11.4493
ight	-11.4493
▁တာဝန်များကို	-11.4493
▁7	-11.4493
▁မအူ	-11.4495
▁နို့တိုက်သတ္တဝါ	-11.4498
ချိုင်	-11.4499
သင်တန်းကျောင်း	-11.4501
▁မတူညီသော	-11.4501
အနောက်စု	-11.4502
▁တစ်ဦးတည်း	-11.4504
ညောင်း	-11.4505
▁ခွက်	-11.4505
▁ယူဆရသည်။	-11.4506
our	-11.4508
▁ဘုတ်	-11.4508
▁၎င်းအား	-11.451
ထို့အတွက်ကြောင့်	-11.4511
▁သမိုင်းပညာရှင်	-11.4512
▁ရှုံးနိမ့်	-11.4513
▁တဘက်	-11.4513
ခဲ့ကြသည့်	-11.4515
▁လေးထောင့်	-11.4518
ခွဲများ	-11.4518
လိုင်ရွာ	-11.4519
▁ချထား	-11.4519
▁နေထိုင်သော	-11.4521
▁စာပေနှင့်	-11.4521
လုံးတွင်	-11.4521
လမ်းညွှန်	-11.4522
▁၁၈၇၄	-11.4523
ပုတ္တ	-11.4525
▁သားပေါက်	-11.4525
ဂတ	-11.4525
လုပ်ကြံ	-11.4526
အတိုင်းပင်	-11.4526
war	-11.4526
▁ကျော်ကို	-11.4527
▁ပတ်လည်	-11.4528
▁ဒိ	-11.4528
▁Dr	-11.453
▁အငွေ့	-11.4531
▁စိတ္တ	-11.4533
=218	-11.4534
=93	-11.4535
နိုင်ငံများ၏	-11.4536
ome	-11.4539
နှေး	-11.454
▁ရှန်	-11.454
="218	-11.4541
▁had	-11.4542
အဂ္ဂ	-11.4543
ခဲ့သည့်အတွက်	-11.4543
သေတ္တာ	-11.4543
ကထာ	-11.4544
▁ဟုခေါ်သည့်	-11.4544
▁နေထိုင်ခဲ့သည်။	-11.4544
ပဲခူး	-11.4544
▁ပါဝင်လေသည်။	-11.4545
မဟုတ်။	-11.4549
ဟောကြား	-11.455
▁အသီးအသီး	-11.455
နှိပ်	-11.4551
▁အစချီ	-11.4553
▁စက်ဝိုင်း	-11.4553
002	-11.4556
▁ဖြစ်နေသည်။	-11.4561
ပရာ	-11.4562
▁တာဝန်ပေး	-11.4562
▁လှမ်း	-11.4562
လုပ်ရန်	-11.4562
ကိစ္စများ	-11.4563
▁တို့ဗမာ	-11.4564
မောင်းနှင်	-11.4567
▁အတတ်	-11.4567
▁ရှိပါတယ်။	-11.4568
day	-11.4571
▁မရနိုင်	-11.4571
▁တောက်ပ	-11.4573
▁လူတစ်ဦး	-11.4573
▁အပန်းဖြေ	-11.4573
တားမြစ်	-11.4574
▁ဝင်ရောက်ယှဉ်	-11.4576
သိမြင်	-11.4577
အခြေပြု	-11.458
အလို့ငှာ	-11.4581
▁၁၆၉၉	-11.4582
▁အားကိုး	-11.4583
▁အကြော	-11.4585
▁အီကွေတာ	-11.4587
上	-11.4587
မဏ္ဍိုင်	-11.4587
မရှိပါ။	-11.4587
▁ပြည်နယ်များ	-11.4587
▁ဆွန်	-11.4587
ကျင်းပခဲ့သည်။	-11.4587
စီးတီး	-11.4588
ရာ၌လည်း	-11.4591
▁ဟစ်	-11.4591
▁အကြီးဆုံးမြို့	-11.4592
▁စကားရပ်	-11.4592
▁ဘန်ကောက်	-11.4593
တ္ထိ	-11.4593
မေးမြန်း	-11.4595
လေးဆယ်	-11.4596
မြစ်နှင့်	-11.4596
ငါးရာ	-11.4596
▁အာလူး	-11.4596
အောက်စု	-11.4597
▁အထက်တွင်	-11.4599
▁ပြောသည်။	-11.46
မွ	-11.46
▁မုံ	-11.4602
ဂျယ်	-11.4602
▁ဦးချို	-11.4603
▁ရေချိုး	-11.4604
▁သံပုရာ	-11.4606
▁ရေယာဉ်	-11.4606
▁ခန့်ရှိသည်။	-11.461
▁၁၇၈၉	-11.4612
▁၁၈၇၀	-11.4614
▁၁၈၄၆	-11.4616
ယူခြင်း	-11.4617
▁ယူအက်စ်	-11.4618
အောက်သို့	-11.4619
▁နာရီတွင်	-11.4622
▁သက်သေခံ	-11.4624
▁ဗေ	-11.4624
▁အကျွန်ုပ်	-11.4624
ဘက်ခြမ်း	-11.4625
▁နေထိုင်ကြ	-11.4626
သာရှိသည်။	-11.4627
▁တရားအားထုတ်	-11.4629
▁စန်း	-11.4629
ဖောက်လုပ်	-11.4629
ဒေါက်	-11.4629
▁၁၈၂၅	-11.463
▁ခမာ	-11.4631
▁ဖွင့်ပွဲ	-11.4631
ဟရ	-11.4632
▁ချိတ်	-11.4632
▁ခွဲဝေ	-11.4632
▁၁၈၂၇	-11.4632
မျိုးနှင့်	-11.4632
▁နံ	-11.4634
ကန့်သတ်	-11.4636
▁စကြဝဠာ	-11.4636
▁လေ့လာမှု	-11.4638
▁ဆီးရီးယား	-11.4638
ကြွယ်ဝ	-11.4638
о	-11.4639
ဖြင့်လည်းကောင်း	-11.4639
▁death	-11.464
▁ကမ္ဘာအနှံ့	-11.464
မှတ်တမ်းတင်	-11.4643
St	-11.4645
လာပြီးနောက်	-11.4648
▁လုံ့လ	-11.4648
ဖော်ပြခဲ့သည်။	-11.4649
▁မိစ္ဆာ	-11.465
▁တက်ကြွ	-11.465
▁အချိုး	-11.4654
အကြောင်းအရာများ	-11.4656
▁၁၈၉၀	-11.4656
မှတ်ပုံတင်	-11.466
ရှယ်	-11.466
အိမ်ထောင်	-11.4661
အသစ်ကို	-11.4662
နေချိန်တွင်	-11.4662
▁မြတ်နိုး	-11.4664
ပို့ဆောင်	-11.4664
▁သင်တန်းများ	-11.4666
နည်းလမ်းများ	-11.4666
▁ဟိုက်	-11.4666
▁အဂ	-11.4667
▁ထွက်သော	-11.4667
▁အရှေ့အာရှ	-11.4667
အောင်၊	-11.4668
လယ်ရွာ	-11.4669
tro	-11.4669
ဝင်၍	-11.467
▁အလုံ	-11.467
▁ဒူ	-11.467
▁၁၆၈၄	-11.467
▁သုံးဆောင်	-11.467
CE	-11.4671
=217	-11.4671
▁ဖုန်	-11.4672
▁၁၆၈၂	-11.4672
ast	-11.4673
ယေး	-11.4674
▁တိုင်းသူပြည်သား	-11.4675
="217	-11.4676
▁အဖြစ်လည်း	-11.468
သလား	-11.4681
▁ညွှန်းဆို	-11.4682
▁ဝါးတော	-11.4682
▁ရရှိခဲ့ပြီး	-11.4684
အဖွဲ့ဝင်များ	-11.4686
▁မင်းရဲ	-11.4687
▁အိဝ	-11.4689
လွှမ်းမိုးမှု	-11.4689
▁ရရှိခဲ့	-11.4689
▁ပဓာန	-11.469
▁အိန္ဒိယနိုင်ငံ၏	-11.4691
▁အထောက်အကူပြု	-11.4691
▁၃၀၀၀	-11.4691
▁တပ်ဦး	-11.4692
▁ရွာတွင်	-11.4693
▁ရေးသားခဲ့သော	-11.4695
▁သုံးဦး	-11.4696
နှိမ်နင်း	-11.4699
ဝူ	-11.4701
ဖောင်ဒေးရှင်း	-11.4704
▁အထပ်	-11.4704
▁အတော်ပင်	-11.4706
▁ထူးခြားချက်	-11.4706
▁ယူဇနာ	-11.4709
မိဖုရားခေါင်ကြီး	-11.4709
▁ဟုဆိုသည်။	-11.4711
▁ရှေ့သို့	-11.4714
စာအုပ်ကို	-11.4714
စမ်းရွာ	-11.4715
ခန	-11.4715
▁ဆရာကြီးသည်	-11.4716
▁ပဲ့	-11.4717
▁16	-11.4718
▁အမြန်ဆုံး	-11.472
▁အခြားသူများ	-11.472
ကျွန်းများ	-11.4722
▁ငြင်းဆန်	-11.4723
ပန်ဝိုင်မြို့နယ်	-11.4724
▁တည်ဆောက်ရေး	-11.4725
▁အင်္ဂလိပ်အစိုးရ	-11.4725
▁ထုတ်ကုန်	-11.4726
="93	-11.4726
တစ်နိုင်ငံလုံး	-11.4727
AN	-11.4729
သစ်ရွာ၊	-11.473
ခြင်းမျိုး	-11.473
▁ဤကန်	-11.4732
▁n	-11.4733
ကြူး	-11.4734
▁United	-11.4736
ဂျေား	-11.4736
▁ဆောင်ရွက်နိုင်	-11.4736
ဆုံးရှုံး	-11.4742
▁စတင်ခဲ့ပြီး	-11.4742
▁နာဝီးမြို့နယ်	-11.4743
လူ့	-11.4744
တည်ဆောက်ရေး	-11.4745
တစ်ပိုင်း	-11.4746
မလုပ်	-11.4746
တင်၊	-11.4746
မှန်သမျှ	-11.4747
▁မိမိကိုယ်တိုင်	-11.4748
ဓုတင်	-11.4748
▁၇၀၀	-11.475
န္တရ	-11.4751
▁စာသင်ကျောင်း	-11.4751
ပညာရှိ	-11.4751
▁ထားဝယ်မြို့	-11.4751
▁ကျန်ရှိ	-11.4755
="108	-11.4757
ပေ၏။	-11.4758
ဝင်ရိုးစွန်း	-11.4759
ကျယ်ဝန်း	-11.4759
▁ကျွဲခြံ	-11.4759
▁မြင်သာ	-11.4763
▁၁၇၈၈	-11.4763
အနီး၌	-11.4764
▁ပျောက်ဆုံး	-11.4766
▁ပင်လုံ	-11.4766
ser	-11.4767
▁ထုံ	-11.4768
ဗွေ	-11.4768
ဆရာများ	-11.4768
▁မန်ကျည်း	-11.477
▁ဘုရားကုန်း	-11.4771
▁ထိုရွာသည်	-11.4772
▁ရု	-11.4773
▁နည်းလမ်းများ	-11.4773
▁ပြုလုပ်နိုင်	-11.4773
သွားလျှင်	-11.4774
စနစ်သည်	-11.4777
များသည်။	-11.4779
တမံ	-11.4779
LA	-11.4784
="92	-11.4785
▁အငြင်းပွား	-11.4785
စည်းကမ်း	-11.4785
▁အလေးထား	-11.479
▁နေထိုင်သူများ	-11.4791
ကြီးကြပ်	-11.4792
▁ကင်မရာ	-11.4793
▁ကိုယ်စားပြုသည်။	-11.4794
▁နှစ်ခန့်	-11.4795
အထက်ပိုင်း	-11.4796
တွင်ပါဝင်	-11.4796
ပါကစ္စတန်နိုင်ငံ	-11.4797
▁Mawlamyine	-11.4798
山	-11.4798
▁ပထမဦးစွာ	-11.4798
▁ဝိုင်းဝန်း	-11.4799
▁စာသင်	-11.4799
၌ရှိသော	-11.48
▁ထိရောက်စွာ	-11.48
ရူပဗေဒ	-11.4802
▁has	-11.4805
red	-11.4806
သင်္ဘောများ	-11.4806
▁နောက်ခံသမိုင်း	-11.4806
▁လက်ဆက်	-11.4806
▁တစ်နေ့လျှင်	-11.4808
ထက်မြက်	-11.481
သတ္တဝါများ	-11.4813
ox	-11.4813
▁သူကိုယ်တိုင်	-11.4815
▁၁၅ဝ	-11.4816
ဖယ်ရှား	-11.4816
▁၁၈၅၅	-11.4816
▁အုံး	-11.4817
နောက်ခံ	-11.4819
=208	-11.4819
="84	-11.482
▁ကော်မတီဝင်	-11.4821
▁နေရောင်	-11.4822
ရသည်ဟု	-11.4822
che	-11.4822
▁ပုံတူ	-11.4824
▁ဖလမ်းမြို့နယ်၊	-11.4824
အဝင်	-11.4826
ခြင်းဆိုင်ရာ	-11.4828
မွေ့	-11.4828
မကင်း	-11.4829
▁ကနေ	-11.4829
တတ်ပြီး	-11.4831
▁အမရပူရမြို့နယ်၊	-11.4831
ကျက်စား	-11.4834
မျိုးဖြင့်	-11.4836
ကာလက	-11.4836
▁dis	-11.4837
▁တပည့်တော်	-11.4837
▁အအေး	-11.4838
▁အမိန့်ပေး	-11.4838
▁ချော	-11.4843
▁စွယ်တော်	-11.4843
ယ့်	-11.4844
ling	-11.4844
▁အဋ္ဌမ	-11.4845
▁ရွှေတံဆိပ်	-11.4845
au	-11.4845
▁ကန်တော့	-11.4846
▁အထင်အရှား	-11.4848
▁Google	-11.4848
စီးပွား	-11.4848
ပြီးတော့	-11.4849
ဇူး	-11.485
▁မုံရွာမြို့	-11.485
အစိုးရမှ	-11.4851
ဎ	-11.4851
▁ဩစတြေးလျနိုင်ငံ	-11.4851
▁zone	-11.4852
ဖခင်	-11.4852
▁days	-11.4854
မိသည်။	-11.4854
▁သူနာပြု	-11.4854
▁ရှိကြောင်း	-11.4855
tri	-11.4856
▁အမျိုးအစားများ	-11.4856
▁၁၈၁၂	-11.4857
▁ဗုဒ္ဓဘာသာကို	-11.4858
▁တနင်္ဂနွေ	-11.4859
▁ဇနီးဖြစ်သူ	-11.4861
▁ဟင်	-11.4864
▁ဖျက်	-11.4864
▁လျှပ်စစ်သံလိုက်	-11.4864
နိုင်၊	-11.4865
ခုတွင်	-11.4865
▁ဒဂုံ	-11.4865
၂၀၁၂	-11.4865
lon	-11.4867
မြတ်စွာဘုရားရှင်	-11.4868
ထားခဲ့	-11.4868
▁ထောပတ်	-11.4869
ရှိဘူတာ	-11.4871
အနည်းဆုံး	-11.4872
လက်ဝဲ	-11.4872
ဆန္ဒပြ	-11.4873
အဆောင်	-11.4873
ယယ်	-11.4873
▁ငွေစက္ကူ	-11.4873
▁ထိုစာအုပ်	-11.4873
▁un	-11.4874
▁၉၄	-11.4876
ဂျော့	-11.4876
▁စစ်သူကြီး	-11.4876
▁ဇေယျ	-11.4877
▁ရေအားလျှပ်စစ်	-11.4878
▁ခန့်အပ်ခြင်း	-11.4878
▁ဘုရားသခင်၏	-11.4878
ဖြစ်ခဲ့ပြီး	-11.488
ငါသည်	-11.488
ဖေါက်	-11.4881
▁လမ်းများ	-11.4883
▁ရဲတိုက်	-11.4884
နွန်	-11.4885
▁သုံးသည်။	-11.4886
ဥပဒေကို	-11.4886
▁သင်္ခါရ	-11.489
▁ထိုင်းနိုင်ငံ၊	-11.489
▁ချောင်	-11.4891
▁ချိုင့်ဝှမ်း	-11.4891
အော	-11.4892
▁ကုဋေ	-11.4892
▁ခွင့်	-11.4893
▁me	-11.4893
▁ဆက်နွယ်	-11.4895
▁၁၈၂၂	-11.4895
gar	-11.4895
▁အသင်းဝင်	-11.4896
▁We	-11.4897
▁အညာ	-11.4898
="208	-11.4898
▁တရုတ်တို့	-11.49
▁အပ	-11.49
▁ပစိဖိတ်သမုဒ္ဒရာ	-11.49
မြှင့်တင်	-11.4903
တော်မူရာ	-11.4904
ပြုပြီး	-11.4906
▁များမကြာမီ	-11.4907
▁ကျင်းပသည်။	-11.4907
ကြေညာခဲ့သည်။	-11.4907
▁ခရစ်ယန်	-11.4907
အရှိဆုံး	-11.491
ကြီးငယ်	-11.4911
နိုင်တဲ့	-11.4912
ခုနှစ်အထိ	-11.4913
နှစ်ဆယ်	-11.4914
ဟူသည်မှာ	-11.4915
▁သွယ်	-11.4915
▁၁၈၂၃	-11.4917
▁စားပွဲ	-11.4917
▁ပဲခူးတိုင်း	-11.4919
▁ပန်းခြံ	-11.492
သီဟသူ	-11.4921
▁ဂွေးကုန်း	-11.4922
▁သံသယ	-11.4923
တည်ထောင်ခဲ့သည်။	-11.4925
▁၁၇၆၉	-11.4925
ရုပ်မြင်သံကြား	-11.4926
ပညတ်	-11.4926
▁အလွန်ပင်	-11.4927
▁ကမ်းလှမ်း	-11.4927
▁ချဉ်	-11.4929
ထရို	-11.4929
ကဗျာများ	-11.493
တတ်သဖြင့်	-11.493
▁ဦးဖိုး	-11.493
▁သူရ	-11.4931
မင်းတို့	-11.4931
ကြားရှိ	-11.4932
နိုင်ဘဲ	-11.4933
ကလောင်	-11.4934
ခါနီး	-11.4935
▁အရည်ပျော်	-11.4938
▁ငါးပိ	-11.4938
▁လွှဲပြောင်းပေး	-11.4939
▁နာဇီ	-11.494
▁ဟူ၍လည်းကောင်း၊	-11.4941
▁Shan	-11.4941
ရည်ရွယ်ချက်ဖြင့်	-11.4941
▁အသုံးများ	-11.4941
▁ထာဝရ	-11.4942
ပါဝင်မှု	-11.4942
▁မက္က	-11.4943
တို့ထံမှ	-11.4944
▁၁၂၀	-11.4944
▁အယူ	-11.4945
▁ခဏ	-11.4945
မြန်မာအမျိုးသမီး	-11.4945
ထန်ရွာ	-11.4948
သို့လည်း	-11.4948
ပေးကြသည်။	-11.4949
ခြင်းဟု	-11.495
ခန့်ထား	-11.495
▁ရေးသားထားသော	-11.495
▁ပင့်ကူ	-11.4951
▁အင်းဝမြို့	-11.4951
ထွက်သော	-11.4953
လှာ	-11.4954
▁ဟစ်တလာ	-11.4955
▁ရင်းမြစ်	-11.4957
၂၀၁၃	-11.4957
▁အင်္ဂ	-11.4958
▁မြင့်တက်	-11.4958
=135	-11.4959
▁တောင်းခံ	-11.4959
တည်ရာ	-11.4959
တွေ့ရှိရသည်။	-11.4962
အလီ	-11.4964
▁တောင်တန်းများ	-11.4964
▁အခေါ်အဝေါ်	-11.4964
▁နေသည်။	-11.4965
ပန္န	-11.4965
ထုတ်လုပ်ခြင်း	-11.4966
▁ဖာရင်ဟိုက်	-11.4966
▁အင်္ကျီ	-11.4967
="135	-11.4968
▁နောက်လိုက်	-11.497
▁အဘိုး	-11.4972
တစ်ခုအနေဖြင့်	-11.4972
ပြည်သူ	-11.4973
ei	-11.4973
▁ပါဝင်ခဲ့ပြီး	-11.4974
ပေးသူ	-11.4977
▁ရှိနေသည်။	-11.4977
▁ထပ်ဆင့်	-11.4979
▁သာလွန်	-11.498
▁အသုံးပြုပုံ	-11.498
▁သဗ္ဗ	-11.4983
သောအရာ	-11.4983
▁Maw	-11.4983
▁အာသံ	-11.4984
▁ချီးမြှောက်	-11.4984
▁ထင်ရှားစွာ	-11.4984
▁အနိုင်	-11.4984
▁တန်ချိန်	-11.4986
▁အမှတ်လက္ခဏာ	-11.4987
▁မြောက်ကိုရီးယား	-11.4987
ပင်၏	-11.4988
အသိ	-11.4988
ဝီး	-11.4989
နေခဲ့	-11.499
နတ်သမီး	-11.4991
▁သုံးဆယ်	-11.4993
▁ငှက်ဖျားရောဂါ	-11.4993
▁Am	-11.4994
▁အာဏာကို	-11.4997
=137	-11.5001
▁အစ္စလာမ်ဘာသာ	-11.5001
ပေးလေသည်။	-11.5001
▁စာရွက်စာတမ်း	-11.5003
ကလေးကို	-11.5003
▁ဂျွန်ဆင်	-11.5005
▁သက္ကတ	-11.5006
ဇိုး	-11.5006
="137	-11.5007
နိတ်	-11.5007
ခြားနား	-11.5008
▁စစ်ချီ	-11.5009
ုပ်သံဇာတ်လမ်းတွဲ	-11.501
▁ထိုအကြောင်းကို	-11.501
ကြိမ်တိုင်တိုင်	-11.5012
စားခြင်း	-11.5012
▁ဟိုင်း	-11.5012
▁နဂါးငွေ့တန်း	-11.5013
▁တန်ဆောင်မုန်း	-11.5015
▁အစာကို	-11.5016
▁ဤသုတ္တန်	-11.5016
▁ဝမ်းနည်း	-11.5016
အရွက်	-11.5016
ပရို	-11.5016
ယူရန်	-11.5019
▁အကောင်း	-11.5019
ကိစ္စကို	-11.502
ors	-11.5022
ကရိယာ	-11.5023
စည်သူ	-11.5025
▁သတ်မှတ်ခြင်း	-11.5026
▁သုံးမျိုး	-11.5026
ရသည်မှာ	-11.5027
▁၈၁	-11.5027
သည်ဟူ၍	-11.5028
နိုင်ငံများမှ	-11.5028
▁ကမ္မဋ္ဌာန်း	-11.5029
▁ခေါင်းဆောင်မှု	-11.5031
အမေရိက	-11.5032
▁ရောင်ခြည်	-11.5032
▁ကြေညာသည်။	-11.5032
▁ပျဉ်	-11.5034
ပဲ။	-11.5035
နေစဉ်အတွင်း	-11.5038
ပညာသင်	-11.5038
လျှို့ဝှက်	-11.5039
တစ်ချပ်	-11.5039
ွင်	-11.5039
▁စုပ်ယူ	-11.5039
▁စက်ရုံများ	-11.504
တစ်ချို့	-11.5041
▁၁၈၃၉	-11.5046
▁လမ်းမကြီး	-11.5046
မိန်း	-11.5047
ရိုင်းတိရစ္ဆာန်	-11.5048
ဇာတ်လမ်းများ	-11.505
ဆွန်း	-11.5051
▁၎င်းတွင်	-11.5051
bit	-11.5053
ပြုလုပ်၍	-11.5053
သွားသဖြင့်	-11.5057
▁Nga	-11.5058
ရှိ၍၊	-11.5059
▁စစ်ကြောင်း	-11.5059
သွားမည်	-11.5059
ဖြင့်ပင်	-11.506
ကြီးများနှင့်	-11.5061
▁နေရာဒေသ	-11.5061
ဖြစ်နိုင်သည်။	-11.5061
ရလဒ်	-11.5063
လှံ	-11.5065
လိုကြောင်း	-11.5066
ကောက်ခံ	-11.5066
ခဲ့လေ	-11.5066
စစ်ကိုင်း	-11.5067
▁ယူအေအီး	-11.5068
▁two	-11.5068
▁ဒါပေမယ့်	-11.5069
များအားလုံး	-11.507
55	-11.507
ဂေ	-11.5072
▁ပါဠိတော်	-11.5073
▁ယင်းတို့အနက်	-11.5074
▁ဝန်ကြီးအဖြစ်	-11.5075
▁ဆိုက်ရောက်	-11.5076
▁သေဒဏ်	-11.5077
ဖွဲ့ဆို	-11.5077
ပေပြီ။	-11.5078
ကောင့်	-11.5078
▁ပါဠိဘာသာ	-11.5079
▁တည်ဆောက်ရန်	-11.5079
▁ပုံ။	-11.5082
▁သံဃ	-11.5082
▁မပြော	-11.5083
▁ရွှေပြည်	-11.5084
ခန့်သာ	-11.5084
▁မြန်မာ့သမိုင်း	-11.5084
ယန်ကျေးရွာအုပ်စု	-11.5085
ခဲ့ကြသည်	-11.5085
▁တယ်ပင်	-11.5086
▁၁၆၇၇	-11.5087
ခိုင်မာ	-11.509
များဖြစ်ပြီး	-11.509
န္ဓ	-11.509
ပြောင်းလဲခြင်း	-11.509
သုံးယောက်	-11.5091
▁ပေါ်လစီ	-11.5092
ဆံ့	-11.5092
လိယ	-11.5093
▁ထီးနန်းကို	-11.5094
ဖြစ်ကြသည်။	-11.5094
▁ကလောင်အမည်	-11.5095
▁Let	-11.5095
အရာရှိများ	-11.5096
▁Sun	-11.5096
▁ညီနောင်	-11.5096
▁တည်ထောင်ခဲ့ပြီး	-11.5097
ရုံ၊	-11.5098
▁နေရ	-11.5099
ဒေသ၏	-11.51
▁ကျန်ရစ်	-11.51
နယ်သည်	-11.5101
ရွှေ့ပြောင်း	-11.5101
▁လက္ခဏာများ	-11.5101
▁စစ်ဆေးခြင်း	-11.5103
▁၁၇၆၄	-11.5104
နှစ်များတွင်	-11.5104
▁တံတားဦး	-11.5105
▁လိုချင်	-11.5106
သည်ဖြစ်စေ	-11.5107
အမှတ်အသား	-11.5108
▁ဘရာဇီးနိုင်ငံ	-11.5111
ren	-11.5112
▁တယ်လီဖုန်း	-11.5113
အချို့သည်	-11.5114
▁အသုံးပြုထားသည်။	-11.5114
▁ဝေးကွာ	-11.5114
▁လောဘ	-11.5115
ပင်ပန်း	-11.5115
▁၈၆	-11.5115
▁one	-11.5116
▁နိုင်ငံရေး၊	-11.5117
▁ဖြစ်ရာ	-11.5117
unt	-11.5117
▁ဟိန္ဒူဘာသာ	-11.5118
တော်စပ်သူ	-11.5121
▁စကြဝတေးမင်း	-11.5123
သမာ	-11.5126
လယ်ကျေးရွာအုပ်စု	-11.5126
▁ဆက်မြောက်	-11.513
သျှင်	-11.5131
▁ပရိယတ္တိ	-11.5132
="111	-11.5133
နေတာ	-11.5133
▁သမ္မာ	-11.5133
▁အနိစ္စ	-11.5133
58	-11.5135
ဘွဲ့ဖြင့်	-11.5135
ာန်	-11.5136
သည်ဖြစ်၍	-11.5136
▁ခမ်း	-11.5136
▁ကလေးငယ်	-11.5137
ဖစ်	-11.5139
▁မိခင်ဖြစ်သူ	-11.5139
ဟန်း	-11.514
▁မပေး	-11.514
လက်နက်များ	-11.5141
▁ထူထပ်	-11.5142
▁ငြိမ်းချမ်း	-11.5142
▁တစ်ခုဖြစ်ပြီး	-11.5143
▁ဆော	-11.5143
▁တိတ်	-11.5144
ကြခြင်းဖြစ်သည်။	-11.5146
▁ကြောက်ရွံ့	-11.5147
အမိန့်ကြော်ငြာစာ	-11.5148
▁ကန်၏	-11.515
စခန်းများ	-11.5151
ဖိန်း	-11.5151
▁သဏ္ဌာန်	-11.5151
▁Inn	-11.5151
="82	-11.5152
701505	-11.5153
tal	-11.5154
အထိမ်းအမှတ်	-11.5156
▁သေဆုံးခဲ့သည်။	-11.5157
▁အနီးရှိ	-11.5159
▁သဘာဝဓာတ်ငွေ့	-11.5159
▁လွှဲ	-11.5159
▁သိုလှောင်	-11.5159
▁ဒလ	-11.5159
ခရိုင်ခွဲ	-11.5163
▁ဆင်ခေါင်း	-11.5167
များလည်းရှိသည်။	-11.5167
ပွဲတော်ကို	-11.5167
▁လှေကား	-11.5168
ဆောင်းပါးများ	-11.5168
အသုံးပြုမှု	-11.5169
▁ဖလား	-11.517
ထားလျှင်	-11.517
မယ်တော်	-11.5172
▁အသုံးပြုခွင့်	-11.5173
▁၎င်းမှာ	-11.5173
▁ရှုမဝ	-11.5173
▁ကျတီ	-11.5175
▁ကျွန်တော့်	-11.5175
▁ဦးခင်မောင်	-11.5176
▁၂၀၂၁ခုနှစ်	-11.5176
▁ယင်	-11.5178
▁အလှူခံ	-11.5178
▁တည်ရှိရာ	-11.518
▁ထွန်းကားခဲ့သည်။	-11.518
▁အကောင်အထည်	-11.5181
▁name	-11.5182
ငွေကို	-11.5182
▁ရှမ်းစု	-11.5184
ကျယ်ပြန့်	-11.5185
▁အိန	-11.5185
▁လောင်ကျွမ်း	-11.5185
▁ရည်ရွယ်ချက်မှာ	-11.5186
▁US	-11.5189
▁နဖူး	-11.519
▁အဖို	-11.5191
ခွင့်ရှိသည်။	-11.5191
▁ဖြုတ်	-11.5191
▁new	-11.5192
▁မဲပေး	-11.5192
ကြရာတွင်	-11.5195
▁တီးဝိုင်းသည်	-11.5195
▁ဤသည်မှာ	-11.5195
တက	-11.5197
law	-11.5197
အရည်အချင်း	-11.5198
အွန်း	-11.5198
▁အဆက်	-11.5199
▁၁၇၉၂	-11.52
▁၁၇၅၈	-11.52
▁ထိုးဖောက်	-11.5201
ဏီ	-11.5202
ရှားပါး	-11.5203
▁ရဟန်းတော်	-11.5203
▁ကြားတွင်	-11.5206
▁အနော်ရထာ	-11.5207
▁ကျောက်တောင်	-11.5208
ဆိုရှယ်လစ်	-11.5208
မုခ်	-11.5208
▁၈၂	-11.5208
▁၁၈၃၃	-11.5209
နမူနာ	-11.5209
အထောက်အပံ့	-11.521
ရှေ့လောင်ဂျီတွဒ်	-11.5211
အိပ်မက်	-11.5212
▁စာအုပ်တွင်	-11.5213
မည်မျှ	-11.5213
▁ကျိုင်း	-11.5214
▁ခဲယဉ်း	-11.5215
ကျောင်းသို့	-11.5217
▁၇၆	-11.522
ဇုံ	-11.522
စတား	-11.5221
မြို့မှာ	-11.5221
="67	-11.5221
▁၁၈၁၅	-11.5222
ဗန်းမော်မြို့နယ်	-11.5224
▁မှီခို	-11.5224
ep	-11.5225
▁တိုင်အောင်	-11.5228
ဗော	-11.5228
▁ပူး	-11.523
ရောဂါများ	-11.523
▁တိုကျိုမြို့	-11.523
RC	-11.5231
▁၁၈၁၁	-11.5233
▁အင်ဆူလင်	-11.5234
kin	-11.5235
▁လိုအပ်သလို	-11.5236
▁မတွေ့ရ	-11.5236
လုပ်ငန်းစဉ်	-11.5237
▁ကျူး	-11.5239
ay	-11.5239
ဖျင်း	-11.524
ရခဲ့သည်။	-11.524
▁ပြည်မ	-11.5242
▁ဖြန့်ဝေ	-11.5242
▁တရားကို	-11.5244
▁မီလီမီတာ	-11.5245
တွင်လည်းကောင်း	-11.5246
▁၁၆၆၄	-11.5246
▁သုတ	-11.5246
▁ဇရပ်	-11.5247
▁လုပ်သား	-11.5248
အသုံးပြုကြသည်။	-11.5248
အမျိုးသမီးများ	-11.5248
မောင်၊	-11.5249
သိန်	-11.5251
အီရန်	-11.5252
ကဒ်	-11.5254
ဇာတ်တော်	-11.5254
ရှိရာသို့	-11.5256
▁တိုက်ခိုက်ရေး	-11.5258
▁နှစ်အောက်	-11.526
ဇူလိုင်	-11.5262
နှင့်တူ	-11.5262
▁မိုးလေဝသ	-11.5264
ys	-11.5264
ဇလုပ်	-11.5264
68	-11.5265
ခွန်း	-11.5265
ဒေသ၌	-11.5265
ဂန္ဓာ	-11.5266
ထောက်လှမ်းရေး	-11.5269
အများစုကို	-11.5271
လျူ	-11.5272
ဖရုံ	-11.5272
nes	-11.5273
ခလုတ်	-11.5274
န်းရွာ၊	-11.5275
▁ဂျီဩမေတြီ	-11.5276
ရာသီတွင်	-11.5276
ins	-11.5277
▁ဝန်ကြီးများ	-11.5279
Sa	-11.5279
မီက	-11.528
▁ဖြန့်ဖြူး	-11.5281
▁ကြားရ	-11.5284
▁ချောင်းဖျား	-11.5284
▁ဂွေးပင်	-11.5286
အမှတ်မှာ	-11.5287
▁သင်ကြားပို့ချ	-11.5287
▁လှူဒါန်းခဲ့သည်။	-11.5288
များအကြောင်း	-11.5288
ပမ်း	-11.5289
ِ	-11.529
=110	-11.529
▁နယ်သာလန်	-11.529
▁ဝတ္ထုတိုများ	-11.529
တွတ်	-11.529
▁ဖွံ့ဖြိုးဆဲ	-11.5291
▁ပြန်သွား	-11.5292
ပျင်း	-11.5294
▁ထင်မှတ်	-11.5294
▁လိုအပ်ချက်	-11.5294
နှစ်ကြာ	-11.5294
▁ရောင်းဝယ်	-11.5295
▁တင်စား	-11.5296
ခဲ့သည်၊	-11.5298
ean	-11.5299
အနု	-11.53
▁ဆိုလျှင်	-11.5303
ချစ်ခင်	-11.5305
▁ယူခဲ့သည်။	-11.5305
သိဒ္ဓိ	-11.5306
▁သက်ဆိုင်သည့်	-11.5306
▁၁၇၅၂	-11.5306
▁အောင်း	-11.5307
▁ဆိပ်သာ	-11.5307
▁စီးပွားရေး၊	-11.5312
▁၁၅။	-11.5318
မဏိ	-11.5319
တစ်ပင်	-11.532
များမှာမူ	-11.532
ဖေဖော်ဝါရီ	-11.532
▁မျိုးနွယ်စု	-11.5323
▁ကျန်း	-11.5324
="110	-11.5325
ရေလက်ကြား	-11.5325
ကွန်ဂရက်	-11.5326
မှိန်	-11.5328
အချို့မှာ	-11.5328
ပြုလုပ်ခဲ့သည်။	-11.5329
ဆက်စပ်	-11.5329
▁ဆိုပြီး	-11.533
▁ဂျပန်ခေတ်	-11.5331
သမုတ်	-11.5331
▁ဂီတကို	-11.5331
▁ခင်ပွန်း	-11.5332
မှတ်တမ်းများ	-11.5333
ယီ	-11.5334
လိုအပ်သော	-11.5334
▁အလွန်အမင်း	-11.5334
▁ကမ္ဘာဦး	-11.5336
မြတ်နိုး	-11.5336
▁ကညင်ကုန်း	-11.5337
လမ်းမ	-11.5337
=52	-11.5338
▁မိန့်တော်မူ	-11.534
▁သံဃာတော်များ	-11.534
ပါဟု	-11.5342
▁နယ်ခြား	-11.5346
▁မိုက်ခရိုဆော့ဖ်	-11.5346
▁ဂျော်ဂျီယာ	-11.5346
▁တာဝန်ကို	-11.5346
▁မိတ်ဆက်	-11.5347
ဿာ	-11.5349
ကြည်လင်	-11.535
လုံးကြီး	-11.5351
တိုက်ရိုက်	-11.5351
တပ်သား	-11.5351
ဆန်ဆန်	-11.5352
▁ပြုလုပ်ထားသည်။	-11.5352
လက်သို့	-11.5352
bar	-11.5352
▁လက်တွဲ	-11.5353
အဝတ်	-11.5354
▁ကြိုးကြာ	-11.5356
ပြသည်။	-11.5358
▁ယခုခေတ်တွင်	-11.5358
တိရစ္ဆာန်များ	-11.536
ျု	-11.5362
▁မျက်မှောက်ခေတ်	-11.5362
တာရာ	-11.5363
▁၁၈၇၇	-11.5365
▁ဖြစ်စေသည်။	-11.5365
ဆရာအဖြစ်	-11.5365
line	-11.5367
▁အမှုန့်	-11.5367
▁အဆိုရှိသည်။	-11.5368
မြေပုံ	-11.5368
▁ရနိုင်	-11.5371
လျှို	-11.5371
▁အချမ်းသာဆုံး	-11.5374
ဆင်းတုတော်	-11.5374
တဲ့၊	-11.5376
▁တယ်	-11.5382
လုံးဝ	-11.5383
="66	-11.5384
ညီညွတ်ရေး	-11.5384
▁တရားလွှတ်တော်	-11.5386
▁နေအဖွဲ့အစည်း	-11.5387
▁ဒက်	-11.5388
▁ဇာတ်ညွှန်း	-11.5388
ပင်ဖြစ်	-11.5389
အရေးပါ	-11.539
စေတီကို	-11.5391
ပြစ်ဒဏ်	-11.5391
တွာ	-11.5392
▁ရစ်ချတ်	-11.5393
▁စည်းစိမ်	-11.5394
ကြပါ	-11.5395
▁အမှုထမ်းခဲ့သည်။	-11.5396
▁Or	-11.5397
▁ယနေ့ခေတ်တွင်	-11.5397
လက်အောက်ရှိ	-11.5398
▁Gra	-11.5398
ချောင်းဖျား	-11.5398
▁အိန္ဒိယနှင့်	-11.5399
▁နံ့သာ	-11.5401
နည်	-11.5402
▁စူပါ	-11.5402
▁Billboard	-11.5402
▁မလို	-11.5409
▁ပြသခဲ့သည်။	-11.5409
▁၁၇၉၃	-11.541
▁မိုင်းပတ်	-11.541
▁များက	-11.541
ပြန့်ပွား	-11.541
ရောင်ခြင်း၊	-11.5411
▁တောတွင်း	-11.5413
▁ကျွမ်းကျင်မှု	-11.5413
▁ပြောက်ကျား	-11.5413
▁ဝတ်ပြု	-11.5414
▁သာမန်အားဖြင့်	-11.5414
▁ဗားရှင်း	-11.5416
▁ထိုကျွန်း	-11.5416
▁ဆင်ယင်	-11.5417
ပါရှိသော	-11.5417
ဖြစ်နေသော	-11.5417
▁စူဠ	-11.5417
တန	-11.5418
▁နက္ခတ္တပညာရှင်	-11.5418
▁အသေ	-11.5419
▁သောကြောင့်	-11.5419
မည်၊	-11.542
အနွယ်ဝင်	-11.5421
နိပါတ်	-11.5423
▁ပြုလုပ်သည်။	-11.5425
▁စိ	-11.5425
သူများ၊	-11.5427
မရွာ	-11.5428
▁ဘုရားချောင်း	-11.5428
▁မြန်	-11.5429
ခြင်းဖြစ်	-11.543
▁ရေစီး	-11.5431
အောက်၌	-11.5432
▁၁၇၅၉	-11.5432
အံ့၊	-11.5432
မြို့အနီး	-11.5433
မင်းခေါင်	-11.5434
▁နူးညံ့	-11.5434
▁၁၁၀	-11.5438
▁ကျန်းမာရေးနှင့်	-11.5439
=104	-11.5439
တိုက်စား	-11.5441
▁စည်းလုံး	-11.5441
▁အရင်းရှင်	-11.5443
ဂံ	-11.5444
▁သော်လည်းကောင်း၊	-11.5444
▁ငဖဲမြို့နယ်	-11.5445
နန်းတက်	-11.5445
သူမ	-11.5447
ကျောက်တိုင်	-11.5447
▁ပြုတ်	-11.5448
ကာလ၌	-11.5449
▁ကျနော်	-11.5452
လုပ်ပိုင်ခွင့်	-11.5452
▁ချစ်သူ	-11.5452
▁ပြောင်းလဲလာ	-11.5453
ဒေသနှင့်	-11.5453
▁ဘာသာပြန်ဆို	-11.5453
အခွေ	-11.5453
▁ရရှိသည့်	-11.5455
▁နေထိုင်ကြသော	-11.5456
▁အထူးပင်	-11.5457
▁အရပ်သား	-11.5458
ရေတွင်း	-11.5458
ကသိုဏ်း	-11.5458
ဘုရားသည်	-11.5459
ပို့ဆောင်ရေး	-11.5461
▁စနေ	-11.5462
စေရာ	-11.5462
ဘိန်း	-11.5463
▁ဂရမ်	-11.5464
za	-11.5465
အားလည်း	-11.5466
▁အညိုရောင်	-11.5466
▁၁၈၄၇	-11.5467
▁မလိုလား	-11.5467
အခါက	-11.5468
အရေးကြီး	-11.5469
တတ်၍	-11.547
▁ညွန့်ပေါင်း	-11.547
▁၁၇၆၃	-11.5474
▁တပ်ဆင်ထား	-11.5477
၂၀၁၇	-11.5477
ကျမ်းတွင်	-11.5478
▁သို	-11.5479
▁ဖော်ဆောင်	-11.5479
ခဲ့ခြင်းကြောင့်	-11.5479
▁စတင်တည်ထောင်ခဲ့	-11.548
▁up	-11.548
▁ချပ်	-11.548
ရွန်း	-11.548
လောက်သာ	-11.5481
▁တင်ပို့ရောင်းချ	-11.5481
ဘောလုံးအသင်း	-11.5482
▁ဖုဂျိ	-11.5483
▁စီးဝင်သည်။	-11.5483
▁ဆိုလိုသည်မှာ	-11.5485
▁သဘောတူညီမှု	-11.5485
Ar	-11.5485
မရှိ။	-11.5486
အထည်	-11.5486
စာပေများ	-11.5487
▁ပညာဆည်းပူး	-11.5487
▁အစေး	-11.5488
▁၁၇၆၀	-11.549
▁ဧချင်း	-11.549
လှကျေးရွာအုပ်စု	-11.5493
ဘိက္ခုနီမ	-11.5496
▁ချောင်းဝ	-11.5496
ဒရာ	-11.5498
လျက်ရှိကြသည်။	-11.5498
▁Tar	-11.5499
တပ်ဦး	-11.5499
▁ကျည်	-11.55
နတ်မင်း	-11.55
▁စဝ်	-11.5502
▁သတ္တမ	-11.5503
▁တံငါ	-11.5503
ဘားမား	-11.5503
▁ဖောင်း	-11.5503
▁ခင်မောင်	-11.5504
▁ဟားခါးခရိုင်	-11.5505
နေရသော	-11.5505
အရှေ့စု	-11.5509
န္တာ	-11.5509
တောင်ကြီး	-11.551
▁လူပျို	-11.551
လောက်က	-11.5511
=62	-11.5512
ုပ္	-11.5513
▁ဖြစ်ခဲ့ပြီး	-11.5515
▁လက်ထပ်ခဲ့သည်။	-11.5516
▁ပေးရန်	-11.5516
ပန်းပင်	-11.5516
▁alternative	-11.5516
е	-11.5516
▁တယ်လီစကုပ်	-11.5516
မြောက်ပိုင်း၊	-11.5519
လာသောကြောင့်	-11.5521
တောင်ကြား	-11.5523
▁ကျောင်းတော်ကို	-11.5529
လေ့ရှိ၏။	-11.553
တစ်ခုသို့	-11.553
တိုင်ပင်	-11.5533
▁ပါလာ	-11.5535
ကျွန်း၏	-11.5537
▁အုပ်ချုပ်သည်။	-11.5538
အရောက်တွင်	-11.554
နိုင်သမျှ	-11.5541
▁ကွာဝေး	-11.5543
ဂရမ်	-11.5546
မြစ်၊	-11.5546
ကလို	-11.5547
▁ဘွဲ့အမည်	-11.5547
တန်ချိန်	-11.5547
ရေးမှူး	-11.5549
▁မျိုးပွား	-11.5552
မလဲ	-11.5553
ဂါဝါ	-11.5553
မျှား	-11.5553
ဖြင်	-11.5553
▁ထက်မြက်	-11.5555
▁ဒဏ်ရာရ	-11.5559
▁စားသောက်ဆိုင်	-11.556
CP	-11.556
ကြကြောင်း	-11.5563
▁ဩဝါဒ	-11.5563
တတ်လေသည်။	-11.5563
so	-11.5563
="56	-11.5564
ပျား	-11.5564
ကောင်းများ	-11.5564
Po	-11.5565
ဒဏ်ရာ	-11.5565
ဂုဏ်ရည်	-11.5565
▁ချူ	-11.5565
အစိုးရကို	-11.5565
ရှိသူများ	-11.5566
မိုတို	-11.5568
▁တန်ဆာဆင်	-11.5572
နှော	-11.5572
▁အာဏာရ	-11.5572
▁ဇင်	-11.5574
▁mainstream	-11.5574
အချင်း	-11.5574
▁ဝါဂွမ်း	-11.5574
ဂုဏ်ပြု	-11.5575
စွတ်	-11.5575
တားဆီး	-11.5575
▁သေဆုံးသွား	-11.5576
တွမ်	-11.5577
▁တံတိုင်း	-11.5577
ted	-11.5578
▁ဃ	-11.5579
▁ကြမ်းတမ်း	-11.5579
▁ဝီရိယ	-11.5579
▁မည်သို့မျှ	-11.558
ရရှိသည့်	-11.558
▁၁၇၉၁	-11.558
▁ရန်ကုန်မြို့ရှိ	-11.5581
▁အပြိုင်	-11.5582
▁၁၈၄၉	-11.5583
နံ့	-11.5584
▁၁၆၄၄	-11.5584
တက်လာ	-11.5585
▁ညီမျှ	-11.5585
▁အနွယ်	-11.5587
လမ်းကို	-11.5587
▁သံဘို	-11.5588
သုံးနှုန်း	-11.5588
▁အသက်မွေးဝမ်း	-11.5591
▁စီမံခန့်ခွဲရေး	-11.5592
▁အာရ	-11.5592
▁ပြည်တော်သာ	-11.5593
▁အင်းမ	-11.5593
▁ကမ်	-11.5593
လက်ထက်က	-11.5593
▁ကျွန်းကလေး	-11.5594
▁၇ဝ	-11.5597
ပါတီ၏	-11.5597
ဂျား	-11.5598
▁အသုံးဝင်ပုံ	-11.5599
▁ပျော့	-11.5599
ပလင်	-11.5599
သာသနာပြု	-11.56
▁အဲဒါ	-11.5601
လီရှော	-11.5604
လောကသို့	-11.5604
ခင်မောင်	-11.5604
▁ဟန်ဂေရီ	-11.5605
▁ဝံပုလွေ	-11.5605
တွင်ပါဝင်သော	-11.5606
og	-11.5608
ကိုင်တွယ်	-11.5609
▁အင်ပိုင်ယာ	-11.5609
ထုတ်၍	-11.561
ဝန်ကြီးဌာန၏	-11.561
▁တစ်ပြိုင်နက်	-11.5612
ney	-11.5612
တွင်ကား	-11.5613
၍လည်း	-11.5614
▁မလိုအပ်	-11.5614
ရာ၏၊	-11.5615
port	-11.5617
ဧပြီ	-11.5618
▁ရက်ကန်း	-11.5619
ကောင်စီသည်	-11.5619
▁အလှအပ	-11.562
▁King	-11.562
▁IV	-11.562
စိတ်ဝင်စား	-11.5622
▁ရင့်	-11.5623
နိုင်လျှင်	-11.5623
▁BD	-11.5623
ဖွင့်ဆိုချက်	-11.5625
▁၉ဝ	-11.5625
လပ်စ်	-11.5625
မို့၊	-11.5625
ကျူးကျော်	-11.563
ဂျာမန်	-11.5631
ရင်းနှီးမြုပ်နှံ	-11.5631
▁guitar	-11.5631
▁အီတာလျံ	-11.5632
rit	-11.5632
▁သုတေသီ	-11.5633
ပေ၊	-11.5634
အာဏာကို	-11.5635
▁နမ့်ဖိုင်	-11.5636
▁အယ်လ်ဘမ်	-11.5638
ထိတွေ့	-11.5639
များသာမက	-11.5639
▁မြင့်သည်။	-11.564
▁ဆင်ကူး	-11.5641
▁၁၈၄၂	-11.5641
ဖွံ့ဖြိုးမှု	-11.5641
▁၁၇၃၁	-11.5642
သွားနိုင်သည်။	-11.5642
တယ်ဆိုတာ	-11.5643
သေးငယ်	-11.5644
ကိုလိုနီ	-11.5644
မြိတ်	-11.5646
တစ်စီး	-11.5646
▁သင်ယူခဲ့သည်။	-11.5647
အသုံးပြုခြင်း	-11.5648
တရ	-11.5649
အတွင်းဝန်	-11.5649
▁ဇွဲ	-11.565
▁၁၆၈၃	-11.565
ဒေသများ၌	-11.5651
အကြောင်းရင်း	-11.5651
မချိဘူတာ	-11.5651
▁အံ့ဩ	-11.5652
သည်လည်းကောင်း၊	-11.5655
▁(5)	-11.5657
အရှိန်	-11.566
ဘရာ	-11.566
▁၁၈၀၇	-11.5662
ုန်း	-11.5664
▁ဖြုတ်ချ	-11.5666
လက်ပန်	-11.5668
▁ဖြစ်လာလေသည်။	-11.5668
လွမ်	-11.5668
▁ကျူတော	-11.5669
လိုစိတ်	-11.567
ကြွေး	-11.5671
▁comp	-11.5671
▁စတော့	-11.5673
▁ဝိတိုရိယ	-11.5674
EC	-11.5675
ဝန်ထမ်းများ	-11.5676
▁ဤမျှ	-11.5679
ဠာ	-11.5679
sang	-11.568
▁15	-11.568
ပါကြောင်း	-11.568
▁ပျောက်ကွယ်	-11.5681
▁ကိုးကွယ်ယုံကြည်	-11.5682
▁လျင်မြန်	-11.5682
light	-11.5683
ဘစ်	-11.5684
▁ဝေါဟာရကို	-11.5687
▁Naruto	-11.569
=133	-11.569
▁ကောက်ညှင်း	-11.5691
၏အဓိက	-11.5692
▁အောင်မြေ	-11.5694
▁ပြည်သူ့ရဲဘော်	-11.5694
▁စစ်ကိုင်းတိုင်း	-11.5695
▁လာသည်။	-11.5696
လျောက်	-11.5696
▁နွားနို့	-11.5696
▁ပေါ်ပေါက်ခဲ့	-11.5697
▁ဂျာမန်တို့	-11.5697
▁၁၈၄၃	-11.5698
▁စာရင်းသွင်း	-11.5698
▁တရားခံ	-11.57
များထံ	-11.57
▁ရေနွေး	-11.5701
ဂရီ	-11.5703
▁ထုံးစံ	-11.5705
နေဝင်း	-11.5706
▁ဘားမား	-11.5706
နှစ်ခုလုံး	-11.5707
▁ကုမ္ပဏီ၏	-11.5707
နယ်ပယ်တွင်	-11.5708
="133	-11.5708
▁၁၇၀၆	-11.5708
▁၁၇၆၅	-11.5708
▁ကျောင်းသူ	-11.571
▁အဖမ်း	-11.571
▁Wi	-11.5712
▁ဗုဒ္ဓ၏	-11.5713
ina	-11.5714
▁လျော့	-11.5715
▁၁၇၅၇	-11.5716
▁ဖြာထွက်	-11.5717
ဆောင်ရွက်ရေး	-11.5718
=96	-11.5718
▁ဖြစ်တတ်သည်။	-11.572
▁ဖြစ်ကြ၏။	-11.5722
▁ကျွန်းချောင်း	-11.5723
▁ရှည်သည်။	-11.5723
▁နပိုလီယန်	-11.5723
▁ကက်သလစ်	-11.5723
စထ	-11.5724
အရာကို	-11.5731
ဇန်း	-11.5733
▁လွတ်လပ်မှု	-11.5733
▁ဦးဆောင်မှု	-11.5734
▁ဂျီစီဘီအေ	-11.5734
ဒီဇင်ဘာ	-11.5735
သူလည်း	-11.5736
▁အိမ်ထောင်ကျ	-11.5739
▁၁၈၄၅	-11.574
▁module	-11.5741
▁ရွာသာ	-11.5741
ဗောဓိ	-11.5743
▁သာသန	-11.5743
ပသ	-11.5744
▁ဗောဓိပင်	-11.5745
ွမ်း	-11.5746
▁စင်္ကာပူ	-11.5747
ّ	-11.5748
▁first	-11.5748
▁language	-11.5748
bin	-11.5748
▁Kyaung	-11.5749
=212	-11.5749
'()	-11.575
ထိမ်း	-11.575
mil	-11.5752
▁ဂေါတမ	-11.5753
▁နှစ်သား	-11.5754
▁ပေးသည်။	-11.5755
▁သေချာစွာ	-11.5756
▁pre	-11.5757
▁မြောင်	-11.5757
▁ဥပဒေများ	-11.5758
="98	-11.576
သေးသည့်	-11.576
▁အတို	-11.5761
▁အလုပ်အမှုဆောင်	-11.5761
▁Africa	-11.5761
▁ရောက်သည်။	-11.5761
cy	-11.5762
တို့တွင်လည်း	-11.5762
▁အဓမ္မ	-11.5763
▁ကိစ္စရပ်များ	-11.5764
▁သီချင်းကို	-11.5764
▁ယင်းကဲ့သို့	-11.5766
ဘုရင်ခံ	-11.5767
▁မြန်မာ့ရုပ်ရှင်	-11.577
ဝူး	-11.5771
သီတာ	-11.5771
▁ဆေးလိပ်	-11.5772
▁ထောင်စု	-11.5773
▁၁ဝဝဝ	-11.5774
နောက်တွင်	-11.5774
▁ကြိုက်	-11.5774
ငြား	-11.5775
တစ်ဝိုက်တွင်	-11.5775
ချိတ်ဆက်	-11.5776
▁တောတောင်	-11.5776
▁ဗိုလ်ကြီး	-11.5776
ပြီးသည့်	-11.5776
ပေးရမည်။	-11.5778
▁ငှက်မျိုးစိတ်	-11.5779
မင်းများ	-11.5779
▁ဆူပူ	-11.5779
ဗီးယား	-11.578
▁ကိုယ်စား	-11.5781
အင်္ဂလိပ်လူမျိုး	-11.5782
▁တွေ့ဆုံဆွေးနွေး	-11.5783
တပ်ကို	-11.5783
▁ပြန်လည်တည်ဆောက်	-11.5784
▁အချို့ကို	-11.5784
70151	-11.5784
▁ပုံနှိပ်တိုက်	-11.5785
လည်းဖြစ်	-11.5785
စိုးရိမ်	-11.5786
▁လေးမျက်နှာ	-11.5788
▁၈၃	-11.5788
cent	-11.5789
▁အကဲဖြတ်	-11.5791
▁၁၆၇၂	-11.5793
▁ကောင်းမွန်သော	-11.5794
▁မော်စကိုမြို့	-11.5794
▁တည်ဆောက်မှု	-11.5794
နိုဝင်ဘာ	-11.5797
▁လှပသော	-11.5798
▁အဖေ	-11.5799
▁ခူး	-11.5799
▁ဝိညာဉ်	-11.5801
▁ခြုံ	-11.5802
ထုတ်ဖော်	-11.5802
အကောင်အထည်ဖော်	-11.5806
ခြစ်	-11.5806
▁တပ်ပေါင်းစု	-11.5806
=130	-11.5807
▁အသုံးအဆောင်	-11.5807
▁မြစိမ်းရောင်	-11.5807
▁ကြားနာ	-11.5808
ပုံဖော်	-11.5808
ချူပ်	-11.5809
▁ထိုမှတစ်ဆင့်	-11.5809
နှီး	-11.5812
▁ဂျပ်	-11.5813
▁တည်တံ့	-11.5813
▁တပ်မြို့	-11.5813
ဖွားမြင်	-11.5814
▁စွန့်စား	-11.5816
▁ဥရောပတိုက်တွင်	-11.5816
="212	-11.5816
ဝန်ထောက်	-11.5816
ဥမင်	-11.5816
ကြီးဖြစ်သည်။	-11.5818
ခေါ်ယူ	-11.5819
လုပ်ခြင်း	-11.5819
နိုင်ငံအဖြစ်	-11.5819
▁နိုင်ငံကို	-11.582
သွားပြီ	-11.5821
ဘုရားရှိခိုး	-11.5821
စက်တင်ဘာ	-11.5823
တော်မြတ်	-11.5824
▁များပြားလာ	-11.5824
ပင်ဖြစ်၏။	-11.5825
▁ကျော်ခန့်	-11.5826
စိမ်	-11.5826
▁၁၇၀၅	-11.5826
ဝတ္ထုများ	-11.5827
▁ဗား	-11.5828
▁ရိုက်ကူးခဲ့သည်။	-11.5829
out	-11.5829
သလော	-11.583
="130	-11.5831
▁ဘွဲ့တံဆိပ်	-11.5832
▁တစ်စုံတစ်ရာ	-11.5832
သင်္ချိုင်း	-11.5833
▁မကောင်းမှု	-11.5835
မှစတင်၍	-11.5835
▁တန်ဆောင်း	-11.5835
မှာကား	-11.5835
စဉ်အတွင်း	-11.5839
ရတော့သည်။	-11.5839
သည်ဟုဆို	-11.5839
▁ဆန့်ကျင်ရေး	-11.584
▁ပရိသတ်များ	-11.5841
▁နှော	-11.5841
ကျန့်	-11.5845
▁ပါဝင်မှု	-11.5845
ပညာသည်	-11.5846
▁သည်းခြေ	-11.5846
▁အထောက်အကူ	-11.5847
tin	-11.5848
ဆိုလို	-11.5849
န္ဒာ	-11.5849
ပီယာ	-11.585
let	-11.585
▁နောက်ဆုံး၌	-11.585
▁Sha	-11.5851
▁ပိုက်ဆံ	-11.5853
ိပ်	-11.5854
▁လျော့ချ	-11.5854
ြောက်အမေရိကတိုက်	-11.5856
▁ဟူသည်	-11.5856
ခြင်းခံရသော	-11.5857
▁ဘုရင်၏	-11.5858
▁၇၈	-11.5858
ဘဝသို့	-11.5859
အဖြေ	-11.5859
▁ပြောင်းလဲခြင်း	-11.586
▁အသိအမှတ်	-11.5861
pho	-11.5863
ကြောင်းနှင့်	-11.5864
ညွှတ်	-11.5865
မှအစ	-11.5866
▁သင့်လျော်သော	-11.5867
▁music	-11.5868
ွိုင်း	-11.587
▁Metal	-11.5871
▁၂၁၅၉	-11.5874
▁အချို့သည်	-11.5875
▁မိုးရေ	-11.5876
▁တခါ	-11.5877
▁မှော်ဘီ	-11.5878
ပေါက်ကွဲ	-11.5879
▁ဖောက်ပြန်	-11.5882
လိုလား	-11.5884
▁ပေါ်ထွန်းလာ	-11.5885
တောင်ပိုင်းရှိ	-11.5887
▁Kar	-11.5888
လေးကျေးရွာအုပ်စု	-11.5889
သူပုန်	-11.5889
အဝေး	-11.589
ရှိပါတယ်။	-11.5891
▁၁၆၈၈	-11.5891
ဂမ်	-11.5893
အဆင်	-11.5893
▁ယူနန်ပြည်နယ်	-11.5893
လျှ	-11.5894
▁ဇီ	-11.5895
ပြည့်ဝ	-11.5895
▁ကျောက်စိမ်း	-11.5897
▁ဖွဲ့စည်းထား	-11.5897
ဇမ်	-11.5898
▁ချွတ်	-11.5899
▁ယူနိုက်တက်ကင်းဒ	-11.5899
စေခြင်းဖြင့်	-11.5899
▁17	-11.5901
ပြည်သူများ	-11.5901
▁များဖြင့်	-11.5901
Mo	-11.5902
▁၉၈	-11.5904
▁ဂျိုး	-11.5904
yin	-11.5904
▁ပြန်လည်ဖွဲ့စည်း	-11.5907
▁သံဃာတော်	-11.5908
ခဲ့ပုံ	-11.5908
ခေါ်သည်။	-11.5909
ဂေါင်	-11.591
ြန်မာနိုင်ငံတော်	-11.591
ပေါ်ထွက်လာ	-11.5915
ဝေးသော	-11.5915
▁he	-11.5916
▁ချေ။	-11.5916
▁ဘွဲ့ရ	-11.5917
ပျူ	-11.5923
သမီးတော်	-11.5925
▁အတိအလင်း	-11.5926
ခန္ဓာကိုယ်	-11.5926
နှယ်	-11.5927
ကလောင်ဖာမြို့နယ်	-11.5927
မန်တွန်းမြို့နယ်	-11.5927
့ချ်	-11.5927
ဂုဏ်ထူး	-11.593
▁ဖွဲ့နွဲ့	-11.593
▁UTC	-11.5932
▁Red	-11.5932
တခုခု	-11.5935
▁တစ်မြို့	-11.5938
="63	-11.5939
▁Hs	-11.5939
▁တပေါင်းလ	-11.594
▁အကောက်	-11.594
အလုံး	-11.5942
ခေါင်းဆောင်အဖြစ်	-11.5946
▁ရွေ့ပြောင်း	-11.5946
ရတာ	-11.5947
▁ပေါ်ထွက်	-11.5948
▁ဝန်ဆောင်မှုပေး	-11.5949
▁တစ်ဦးတစ်ယောက်	-11.595
သိမ်းဆည်း	-11.5951
▁စီးရီး	-11.5952
▁လွင်ပြင်	-11.5952
▁ချွေး	-11.5952
▁Shi	-11.5953
▁သိက္ခာပုဒ်	-11.5954
▁ပျက်ကွက်	-11.5955
[...]
