<unk>
<s>
</s>
▁
၊
.
/
="
doc
>
▁<
)
▁(
သည်
"
d
တွင်
ကို
wiki
my
org
?
://
https
curi
▁title
url
wikipedia
▁id
ရွာ၊
နှင့်
▁ဖြစ်သည်။
၌
ကျေးရွာအုပ်စု
▁ဦး၊
၏
▁မ
▁တည်ရှိသည်။
က
▁ရွာနေရာကုတ်မှာ
မြို့နယ်
မှ
များ
▁သ
သော
▁()
ရွာ
-
မှာ
▁၂၀၁၄
န်းခေါင်စာရင်းအရ
▁ကျား
▁လူဦးရေ
▁စုစုပေါင်း
၍
ခဲ့သည်။
▁ဦးနေထိုင်သည်။
(
များကို
သည်။
မြို့နယ်၊
ကြီး
▁သည်
▁နှင့်
ပြီး
အား
မ
သည့်
;
သို့
ကာ
▁ထို
၁
။
ဖြင့်
ခြင်း
▁အ
,
ရန်
ရှိ
ဖြစ်သည်။
▁ရှမ်းပြည်နယ်
▁ခုနှစ်
လည်း
တိုင်းဒေသကြီး၊
&
▁ခုနှစ်တွင်
▁ဦး
▁"
အ
ရာ
တောင်
ပင်
အဖြစ်
▁MMR
▁-
▁ကို
ဟု
တို့
▁တွင်
သာ
မြောက်
lt
gt
s
ရ
၂
မှု
ပါ
▁က
ရေး
အတွက်
အရှေ့
▁ရက်။
()
▁ရှိသည်။
များသည်
ဝ
တ
▁ဤ
သူ
တော်
လာ
မြို့
ကြသည်။
▁သို့မဟုတ်
▁အခြား
တို့ကို
အောင်
များနှင့်
များတွင်
▁မြန်မာနိုင်ငံ
စ
▁စစ်ကိုင်း
'
တို့သည်
ခရိုင်၊
ကုန်းရွာ၊
▁ဟု
၃
ခြင်း၊
▁မြန်မာ
တာ
တို့၏
၏။
လ
ဦး
▁မန္တလေး
▁&
”
▁မှ
▁ယင်း
ခဲ့ပြီး
လျှင်
▁၂
လေသည်။
▁the
ခ
▁သို့သော်
▁ရက်နေ့တွင်
ပုံ
ကား
▁၏
လေး
နေ
▁ရေ
ပေါင်း
▁“
ြီး
သ
▁အဖြစ်
▁၁
အနောက်
ခဲ့ကြသည်။
များ၊
▁နှစ်
▁ပဲခူးတိုင်းဒေသက
ဖြစ်သော
နီ
၄
မင်း
လျက်
စွာ
▁တ
သား
နိုင်သည်။
▁နေထိုင်သည်။
▁၃
▁အမေရိကန်
ကုန်း
ဆိုင်ရာ
သဖြင့်
▁of
အတွင်း
ချောင်း
ကြောင့်
▁'
၅
တစ်ခု
▁လူ
▁၄
ရေ
များမှာ
ထက်
နိုင်
▁မကွေး
▁ခုနှစ်၊
ထားသော
ရှိသည်။
ပ
နာ
ရသည်။
ဖြစ်
ဖြစ်ပြီး
▁သူ၏
▁Ward
စီ
း
ကြောင်း
အထိ
နိုင်ငံ
▁ကျိုင်းတုံ
▁သည်။
ပြီးနောက်
▁စတင်
မျိုး
တိုင်း
▁ရှိ
တဲ့
▁ရွှေ
:
ခဲ့သော
▁နိုင်ငံ
များ၏
ခေါ်
ရင်း
ကောင်း
နှစ်
တင်
▁အမှတ်
ကန်
▁၅
;/
လေ
▁ရက်
အရ
တစ်
စ်
ရာတွင်
သွား
2
မူ
တန်း
▁တောင်
နေသော
▁အဓိက
▁အသက်
သစ်
ထားသည်။
နဲ့
▁ပြန်လည်
စာ
▁ဒုတိယ
▁သော
သုံး
▁။
ကျွန်း
ထား
ဝါ
န
လ်
▁Town
တွေ
3
ပေါက်
တိုက်
လုံး
စား
ကျော်
လို
▁အမျိုးသား
ပေး
၆
ဟာ
ဂ
ဝင်
မာ
ကိုလည်း
လိုက်
ခံ
သော်လည်း
▁၎င်း
▁ထို့နောက်
တော
့
▁၆
▁အလွန်
၇
▁ဖြစ်
ရှင်
ဟူ၍
လီ
တို
ကျောင်း
1
▁မင်း
4
ကျ
▁−
ရီ
▁တစ်
ရှိသော
▁ခု
ခဲ့
▁တည်ရှိသည့်
လက်
သောအခါ
အားဖြင့်
ပြင်
ဘဲ
5
ကြ
▁ပထမဆုံး
တို့တွင်
▁and
▁ဤရွာ
▁၁၀
▁စီးပွားရေး
ကလေး
▁အတွက်
ချက်
သည်ဟု
▁၇
e
ဖြစ်၍
စု
မီ
များက
တက်
▁လ
ငယ်
6
မြို့တွင်
▁အစိုးရ
▁ထို့ကြောင့်
▁အိမ်
▁လက်
မိ
▁ပထမ
လူ
ပန်း
များဖြင့်
ပြန်
▁ဂျပန်နိုင်ငံ၊
ခဲ့လေသည်။
▁ကျောက်
ရက်
စုရွာ၊
ဒ
▁ပေ
▁သူသည်
▁နိုင်ငံရေး
▁၁၅
ခြင်းကို
ဘ
ရွှေ
ကွင်း
▁ထိုသို့
8
▁စ
▁ရ
ဒီ
▁မတ်လ
ချင်း
▁နောက်
မျှ
▁ရန်ကုန်
တိုင်
ပြီးလျှင်
၈
ကဲ့သို့
▁အထိ
▁စစ်
စစ်
▁တို့
▁ပြည်ထောင်စု
▁ရပ်ကွက်
▁ရေး
▁နေ
ရင်
တော့
ဖြူ
7
ယူ
y
▁ပ
တပ်
▁ပါဝင်
ပဲ
ဆင်
နည်း
လှ
အောက်
များအား
▁မိမိ
တန်
▁၁၂
▁တိမ်ကောသွားပြီ
9
0
လူဦးရေစုစုပေါင်း
▁ကျော်
t
▁ငါး
မှုကို
နယ်
လမ်း
▁၁၄
▁ကချင်ပြည်နယ်၊
မြေ
▁၈
စဉ်
▁ခေါ်
▁ဆောင်ရွက်
ရိုး
ဆုံး
▁၃၀
▁တရုတ်
၁၈
ဒါ
▁ဝ
▁နေရာ
သံ
▁နောင်
ရပ်ကွက်
▁အား
▁အင်္ဂလိပ်
ထားသည့်
▁ဖြစ်ပြီး
▁အသုံးပြု
စေ
▁=
▁ဆရာ
ယာ
မှုများ
▁ဘူတာတစ်ခု
▁နိုင်ငံတော်
ပေါ်
နား
ပြု
ခန့်
▁ပါဝင်သည်။
▁A
▁ကျောင်း
ခဲ့သည့်
ဆို
ခွဲ
▁၂၅
ယ
ချောင်းရွာ
▁၂၄
တီ
▁ကိုယ်ပိုင်
၁၉
ထွက်
ဆောင်
၁၂
ပိုင်း
▁တက္ကသိုလ်
▁သို့
▁အဲခိ
▁သုံး
▁မြေ
တူ
▁အာ
တို့က
▁၁၁
ဘုရား
အဖွဲ့
)"
သော်
▁ပါ
သောကြောင့်
▁၉
ခဲ့ရာ
ချ
▁စာ
၉
▁ပြုလုပ်
များမှ
▁စိတ်
ပေ
▁အချို့
ဆာ
ရပ်
ပေါ်တွင်
▁ကောင်း
ခေတ်
▁မဟာ
▁ဘုရား
▁ဆက်လက်
▁ဆင်
လုပ်
ပြ
ဒေသ
▁မိုင်
▁ပန်
နိုင်သော
▁အတွင်း
ing
ရာ၌
▁The
▁၂၂
ရဲ့
ဆေး
▁ကမ္ဘာ့
၁၀
သည်လည်း
▁in
ဆန်
▁ဝင်ရောက်
ထ
▁၂၃
▁ထို့ပြင်
လို့
လုပ်ငန်း
▁များ
in
▁အထူး
စေရန်
ခုနှစ်တွင်
ဟောင်း
▁၂၇
▁မောင်
▁၁၆
▁")
▁S
▁သူ
တတ်
▁No
ဘာ
ပွဲ
ကုန်
အို
▁ရုပ်ရှင်
駅
▁၂၆
ဆီ
▁ခန့်
ဆ
စိတ်
o
ဇ
▁လေ
▁နား
▁သူ့
ကျောက်
ချိန်
▁ထိုအခါ
၁၁
▁မေလ
နေရာ
သီး
ခဲ့ရသည်။
ထုတ်
’
လဲ
မန်
လျက်ရှိသည်။
နှင့်အတူ
▁ဂျပန်
န်
မည့်
ဟန်
▁မြို့
▁အရှင်
ဖြစ်သည့်
▁နမ့်
▁ကရင်ပြည်နယ်
▁တနင်္သာရီ
သိ
▁သမိုင်း
၁၅
ဖို့
ခုနှစ်
al
▁အခြေခံ
▁ငွေ
ချုပ်ခွင့်ရဒေသ
▁ရေးသား
▁ဒီ
▁to
များအတွက်
မြင့်
နိုင်ရန်
▁တစ်ခု
▁သံ
ကြား
▁အောက်
▁ပန်း
ရသော
လင်း
ခင်
▁ဧပြီလ
▁နတ်
▁သို့ရာတွင်
လေ့ရှိသည်။
ပန်
▁ရှင်
ခဲ့၏။
▁ရက်တွင်
ပညာ
ထိ
▁၂၈
တွင်း
▁အဆိုပါ
စက်
ဆက်
▁ပညာ
n
▁လုပ်ငန်း
အနေဖြင့်
ပိုင်
er
လူမျိုး
အတိုင်း
အပေါ်
▁၂၀
▁ရောက်
မြစ်
▁ဗြိတိသျှ
▁ကိုယ်ပိုင်အုပ်
လောက်
▁မန်
၁၄
▁ဇွန်လ
ဟူသော
၂၀
မည်
၁၃
▁a
ဘူတာ
၁၆
ငွေ
▁မိုင်းပျဉ်း
သေ
S
▁မိုး
ပါက
ဖ
53"
▁စာပေ
▁ဖြစ်၏။
လုံ
▁C
52"
၁၇
61"
▁ဖွဲ့စည်း
54"
နို
▁ပိုမို
85"
51"
မီး
▁ဩဂုတ်လ
စေသည်။
87"
48"
63"
▁၁၃
▁သန်း
▁ဟူ၍
စနစ်
▁သမ္မတ
65"
46"
ခြင်းနှင့်
ရစ်
99"
67"
▁လေး
နတ်
03"
55"
%
59"
42"
69"
တည်း
09"
▁ယခုအခါ
29"
16"
မောင်
83"
73"
30"
79"
သူများ
62"
12"
28"
94"
19"
33"
86"
70"
39"
72"
60"
40"
14"
43"
ဝန်
64"
36"
44"
47"
04"
10"
နောင်
15"
i
89"
78"
68"
24"
57"
ရောက်
50"
▁စသည့်
95"
23"
07"
လာသည်။
32"
45"
35"
ဖြစ်၏။
ထဲတွင်
နန်း
ခွင့်
49"
41"
ထိုး
82"
ရည်
▁ပြောင်းလဲ
80"
75"
31"
76"
71"
81"
13"
21"
08"
02"
93"
88"
01"
▁အိန္ဒိယ
77"
97"
မြန်မာ
▁မီး
58"
96"
37"
74"
▁ယဉ်ကျေးမှု
11"
18"
၀၀၀
▁ဟူသော
ခု
25"
90"
92"
66"
ဆု
38"
27"
20"
▁တော်
▁ယခု
▁ဇန်နဝါရီလ
▁ဆေး
▁၁၈
ပြည်နယ်
98"
06"
05"
ပါ။
▁ဝမ်
34"
ပြည်
22"
91"
ဇာ
ed
84"
▁လွိုင်လင်ခရိုင်
မိုး
ဆရာတော်
c
T
▁၎င်း၏
▁ဤသို့
ကုန်းရွာ
56"
▁သွား
▁သား
▁H
26"
▁အောင်
▁မြန်မာ့
အင်း
▁သာယာဝတီခရိုင်
br
အကြောင်း
လေ့
အိုင်
▁တော
ခန်း
▁ဥပဒေ
▁ဖြစ်ကြသည်။
များစွာ
ဟ
x
▁ပြည်နယ်
ရဲ
17"
▁ပြန်
ရန်အတွက်
B
▁ဆို
တရား
ပစ်
▁ဖေဖော်ဝါရီလ
ပါး
တို့မှ
00"
အုပ်ချုပ်ခွင့်ရ
▁ဇူလိုင်လ
▁များစွာ
▁အထက်
▁လုပ်
ကင်း
▁တိုက်ခိုက်
နက်
▁၂၉
▁အောက်တိုဘာလ
လယ်
သန်း
▁စက်တင်ဘာလ
ရမည်။
ရို
ခြင်းဖြင့်
စီး
▁ဒေသ
ဘုရင်
ဘက်
▁ဒီဇင်ဘာလ
အိမ်
ဥ
▁ခ
ဗ
▁ဒေါ်
▁ဆိုသည်။
▁င
နိုင်ခဲ့သည်။
ရှာ
နောက်
▁အကြောင်း
အာ
ဝင်း
ချီ
်
မဲ
ပုံစံ
▁တွေ့ရသည်။
များကိုလည်း
▁ဖြင့်
▁စသော
▁မည်သည့်
▁ကန်
▁အချိန်
▁သိ
ကူး
ပါသည်။
▁နောက်ဆုံး
▁B
ဆရာ
သည့်အခါ
ငှက်
ဆိုင်
▁လည်းကောင်း၊
ဂါ
▁ဘ
စကား
ဒ်
▁အမျိုးသမီး
တွင်လည်း
▁နိုဝင်ဘာလ
▁၁၉
၃၀
ရှည်
ကျမ်း
A
▁ပြု
ပတ်
▁‘
▁အင်
▁သက္ကရာဇ်
m
▁အထူးသဖြင့်
နေသည်။
▁တရား
အထက်
▁စိုက်ပျိုး
ဝမ်
ရုံ
တိုင်း၊
တို့နှင့်
ငါး
a
သုတ်
▁ဥ
လွယ်
တို့မှာ
▁သွေး
ခဲ့သော်လည်း
ရောင်
r
▁ဆိုသည်မှာ
▁ကလေး
ရော
တတ်သည်။
မှုကြောင့်
▁ရောဂါ
▁မာ
▁ကိုယ်
▁ပို၍
P
ဘာသာစကား
ဖက်
၂၅
နေ့
တို့ဖြင့်
▁စကား
ခဲ
▁နိုင်ငံတကာ
မွန်
▁၃၁
၂၄
▁P
ပါတယ်။
▁လားရှိုးခရိုင်
▁အခြားသော
ကပ်
▁ကွတ်ခိုင်
စံ
▁အမည်
တိုး
ဘီ
▁ရှမ်း
▁အနောက်
▁ဂီတ
▁လေ့လာ
▁ကိုးကား
▁ဝါ
C
ကောင်
▁မြင်း
▁၁၇
▁တပ်မတော်
▁မြောက်
အထူးဒေသ
▁အသံ
မ်
ပို
လိုက်သည်။
ပြား
▁စာအုပ်
တစ်ဦး
▁ဘုရင်
▁ပြော
▁သတ်မှတ်
အုပ်
လောင်း
▁ဗိုလ်ချုပ်
▁န
▁တိုက်
▁ပြည်သူ့
မဲ့
▁K
ာ
လာခဲ့သည်။
▁သစ်
နေသည့်
များလည်း
▁ဒေါက်တာ
▁၁ဝ
င
▁လမ်း
▁ဗိုလ်
တက္ကသိုလ်
▁မူလ
▁ယူ
▁ဆ
▁ရာခိုင်နှုန်း
ဖူး
ဘဝ
▁ပညာရေး
အပြင်
ကြ၏။
ံ
▁တာ
ညို
ထောင်
အိုး
▁ဘဝ
ဝေ
id
ပစ္စည်း
ချုပ်
မိုင်
▁အများဆုံး
▁သခင်
▁ခေါင်းဆောင်
တ်
▁ပြင်သစ်
ကွဲ
ရှိပြီး
▁ထို့အပြင်
▁ပေါက်
▁တရားဝင်
▁နေထိုင်
ကံ
ကာလ
ခေါင်း
လင်
▁နန်း
ရောဂါ
ည
E
▁သဘာဝ
▁ဖော်ပြ
▁ရန်ကုန်မြို့
▁လုပ်ကိုင်
ခို
▁F
▁ပါတီ
▁အရ
ချင်
အစိုးရ
▁အဖွဲ့ဝင်
ဝါး
▁အလုပ်
မှစ၍
ကလည်း
▁ရွေးချယ်
▁ဥက္ကဋ္ဌ
▁မျိုး
စိန်
▁လက်ရှိ
မှာလည်း
▁ကျန်
▁NGC
ရုံး
တို့အား
လွန်
▁ရရှိခဲ့သည်။
▁ပြည်
တော်မူ
▁ကျောင်းသား
အေး
တံ
နိုင်သည့်
▁Ma
▁ပြည်ခရိုင်
မော်
▁စက်
လန်
ပူ
▁မိုင်းမော
က်
မယ်
ဘာသာ
တွဲ
▁ကမ္ဘာ
၂၆
ပြည်ထောင်စု
လည်
ထံ
၄၀
▁ပြည့်နှစ်
၂၃
၂၁
▁တော်လှန်ရေး
▁D
တည်
ဆောင်ရွက်
ဓာတ်
ပီ
▁လည်း
ဌာန
ဖြစ်စေ
စရာ
▁ရှေး
ကြည့်
▁ဆောင်
ဂျီ
ခရိုင်
▁၃၅
▁မြစ်ကြီးနား
သတ်
တန့်ယန်းမြို့နယ်
ကြလေသည်။
▁အုပ်ချုပ်ရေး
▁ပင်လယ်
ရိ
တောင်း
▁တက်
ပါတီ
ကြာ
▁အင်း
မေ
ပြော
▁ဟို
▁၂၀၁၀
မြတ်
ns
▁ခေါ်သည်။
▁ဥရောပ
▁မိုင်းဆတ်
▁ပေး
▁မိမိတို့
g
▁၂၁
▁မော်လမြိုင်
▁ယောက်
၂၈
တိ
▁E
▁လာ
သင်
▁သူတို့
▁များကို
▁M
▁ပါဝင်သော
ထွန်း
တီး
▁ဆာ
▁ကာ
၂၉
အဆင့်
ဆိုသည်မှာ
K
▁မဲ
အပြည်ပြည်ဆိုင်ရာ
▁ကျန်းမာရေး
▁ပင်လောင်း
ရေးသား
▁ဗဟို
▁ပေါင်း
▁လက်ခံ
▁ပုံ
မတ်
နု
▁ဂ
စာပေ
▁ရှိပြီး
▁အဆင့်
L
ခါ
▁အပင်
ထားပြီး
ဆင်း
ဝိုင်း
၂၇
▁ထည့်သွင်း
၀
▁အို
စင်
▁ဝါး
စပ်
▁အမျိုးအစား
သကဲ့သို့
▁တို့ကို
▁အဖွဲ့
၂၂
ရွက်
▁နောက်ပိုင်းတွင်
▁အရှေ့
အမှတ်
ကောက်
▁ပြည်တွင်း
▁ချင်းပြည်နယ်၊
▁တောင်ငူခရိုင်၊
စေခဲ့သည်။
ကူ
▁ပဲခူးခရိုင်
ဆန်း
ရက်နေ့တွင်
▁သီပေါမြို့နယ်
သီ
လည်းကောင်း၊
▁ကရင်
▁သမိုင်းကြောင်း
တောရွာ
▁ကုန်း
▁ကျ
▁မြို့တော်
▁တပ်
▁အောင်မြင်
ရိုက်
ခြင်းဖြစ်သည်။
▁ကွန်ပျူတာ
မြို့၊
ဆွဲ
ပျက်
▁ဝက်
▁ပအိုဝ်း
▁ဝင်
အင်
ဖွယ်
▁ဝန်ကြီးချုပ်
▁အမျိုးမျိုး
▁လေသည်။
▁ဖြစ်သော
▁ခုနှစ်မှ
တောင်ကြီးခရိုင်၊
ပါဝင်
ဖြစ်သူ
ပိုး
▁စား
ဒို
▁ဗုဒ္ဓဘာသာ
▁ရာစု
အမည်
များ၌
▁တတိယ
▁တည်
▁ဖြစ်လေသည်။
ဘူး
▁တင်
ကိုယ်
▁အိန္ဒိယနိုင်ငံ
ရှိသည့်
▁သတင်းစာ
▁ငှက်
▁အချို့သော
k
h
F
▁အခန်း
▁metal
▁ကျွန်း
▁အာရှ
သက်
သင့်
ပု
▁ညောင်ရွှေ
▁ထင်ရှားသော
▁ရရှိ
ဆိပ်
ဆိုး
▁ဆရာတော်
▁ခု၊
ထို
]]
▁နာရီ
ဗာ
▁အောက်ပါအတိုင်း
G
▁ရခိုင်
▁မြစ်
▁၃၂
D
▁အပါအဝင်
ကိုသာ
ဘွဲ့
▁အခါ
ခြောက်
ခင်း
▁လွယ်
H
ခဲ့ခြင်း
▁၂၀၁၅
စေတီ
▁ပန်ဆန်း
၅၀
စခန်း
▁မွန်
▁မေ
အသင်း
စုံ
ခြင်းသည်
▁ကျောက်မဲခရိုင်
▁သေ
စော
ထဲသို့
▁၎င်းသည်
▁ဘာသာစကား
ပ်
တစ်မျိုး
▁ဆီ
M
ကော်
ရုပ်ရှင်
▁မှာ
တွေကို
▁သွားရောက်
ဖာ
လစ်
▁ထပ်မံ
p
▁မှတ်တမ်း
စတင်
ပေးခဲ့သည်။
လား
မြင်
ပေသည်။
▁သင်္ဘော
မို
▁၅၀
▁ယခင်
နိ
▁ရက်နေ့
▁တိုင်းရင်းသား
▁ရှေးဟောင်း
ဖြစ်စေ၊
▁ဘာ
▁ကွန်
▁သတင်း
ရသည့်
▁လည်းကောင်း
time
it
၄၅
▁သာ
ထားခြင်း
င်
▁[[
▁ထွက်
ရာမှ
ဝါဒ
▁ကိုယ်စားလှယ်
ကိုင်
▁ပူးပေါင်း
▁သီချင်း
▁နှစ်ပေါင်း
▁မွန်ပြည်နယ်၊
ေ
▁သို့သော်လည်း
▁ဆန်
▁၂၀၁၆
သမား
▁တိုးတက်
▁ဘီစီ
ရ်
▁အင်တာနက်
လည်းကောင်း
▁အနုပညာ
▁တိုင်းပြည်
▁ဘားအံမြို့နယ်
ဝယ်
▁တာဝန်ထမ်းဆောင်
ဖျား
တယ်
ရေးအတွက်
တစ်ခုကို
အနက်
▁ကံ
ဖတ်
သွားသည်။
▁သရုပ်ဆောင်
မရှိ
U
ခြင်းကြောင့်
အပ်
သမိုင်း
အလယ်
အသုံးပြု
▁ခေါင်း
▁မင်းသား
▁ထိုကြောင့်
ခေါင်းဆောင်
ကြီးကို
▁တာဝန်
ကြီးများ
လော
လားရှိုးမြို့နယ်
▁ထောင်
▁သူတို့၏
ယား
ပြုလုပ်
နေစဉ်
▁ပုံစံ
▁၄၀
ရုပ်
ခုံ
၃၃
▁ဗုဒ္ဓ
▁တည်ဆောက်
တို့၌
▁မြင်
▁အုပ်ချုပ်
ပန်ခမ်း
▁G
▁အိမ်ခြေပေါင်း
▁မီတာ
▁အကြီးဆုံး
▁၃၃
ဖွဲ့
▁ဆက်
▁စော
▁အနည်းငယ်
၃၆
▁သားတော်
▁လိုက်
တုံး
ပေ။
▁တောင်ကြီး
▁ကား
ကြိုး
▁ကြာ
format
နမ့်
များကြောင့်
▁၂၀၁၁
၃၂
ီ
မြ
▁ရဟန်း
▁ထိုနောက်
▁ချောင်း
▁လူထု
▁၂၀၀၈
ချေ။
သို့မဟုတ်
ဆဲ
▁တိုင်း
▁ခေတ်
တွေ့
▁အလယ်
▁ပစ္စည်း
မှူး
အမျိုးသား
မှန်
၉၈
၉၉
▁၁။
▁ပြောင်းရွှေ့
▁ထိုင်းနိုင်ငံ
an
▁ရှိသော
▁ပခုက္ကူခရိုင်
text
ကောင်စီ
▁ကိုယ်တိုင်
▁အက်
ဟို
▁အောက်ပါ
▁ယခင်က
ပေးရန်
▁၎င်းတို့၏
အတွင်းရှိ
ရှိ၍
လာကြသည်။
ဆယ်
ကြည်
အလိုက်
စာအုပ်
|
၈၅
ခြေ
▁အဓိပ္ပာယ်
တစ်ခုဖြစ်သည်။
▁အင်အား
▁ရွှေတောင်
▁ထင်ရှား
လတ်
▁ရွှေဘိုခရိုင်၊
သဘော
သွေး
ပွင့်
▁ပြောင်း
▁ထိန်းသိမ်း
▁အကောင်းဆုံး
ပြည့်
ကြရသည်။
▁များသောအားဖြင့်
၉၅
▁အီ
၃၄
ကြပြီး
ဆောင်ရွက်ခဲ့သည်။
▁ဗ
▁ရှိကာ၊
▁လွိုင်ကော်
ဝိ
တိုက်ခိုက်
▁ပါး
ကန်ရွာ
▁ဟာ
▁ကဗျာ
မျိုးကို
▁လွတ်လပ်ရေး
စိုး
ဘို
တောင်ရွာ၊
သိန်း
▁၂၀၂၀
▁ည
၃၁
မြို့သည်
▁အလုပ်သမား
▁ဥပမာ
၇၅
▁မိသားစု
ပြောင်း
▁တစ်ဦး
▁တည်ထောင်
▁ကီလိုမီတာ
▁ဘားအံခရိုင်
▁ပြောဆို
မင်းသား
၅၉
၈၆
model
O
▁ကင်း
စွဲ
▁၂၀၁၂
ချိန်တွင်
၃၉
▁ဝတ္ထု
▁ကျေးသီးမြို့နယ်
▁အခြေအနေ
အုပ်စု
ချောင်
မဟာ
▁လုံး
▁L
၈၈
▁အရောင်
▁အစိတ်အပိုင်း
၆၉
▁၂၀၁၇
th
အမျိုးအစား
ကိုင်း
▁တွေ့
ထပ်
▁လုပ်ဆောင်
ခဲ့သည်
၉၆
▁တက်ရောက်
ရွာသစ်ရွာ၊
▁အနက်
▁ကာလ
▁I
▁T
▁သီးခြား
▁ကုမ္ပဏီ
တယ်။
▁နှစ်စဉ်
▁စီ
လိ
▁မိမိ၏
သီချင်း
ly
▁၂။
လာသော
stamp
ဖြစ်ကာ
၈၉
▁ဗမာပြည်
၄၂
▁လူမျိုး
ချို
▁တို့သည်
၆၈
သေး
contributor
▁မရှိ
၉၀
▁သမီး
▁မကွေးခရိုင်
ကီ
ကွက်
▁rock
၀၀
▁ကြိုးစား
ဥပဒေ
၎င်း
▁မူဆယ်ခရိုင်
အမျိုးမျိုး
၄၆
▁စိန်
▁ဖြစ်လာ
ကျင်း
ခဲ့သည်ဟု
ကဏ္ဍ
စသော
နီး
▁လွှတ်တော်
ဘုံ
▁အဖွဲ့အစည်း
▁လာရောက်
▁မြန်မာနိုင်ငံ၏
▁သုံးစွဲ
ခတ်
▁ခရိုင်
ခိုင်
ခ်
▁မတ်
▁၃၈
၃၇
ထဲ
ထဲမှ
▁၃၄
▁နိုင်ငံခြား
မန်း
၇၄
▁ဒေါ်လာ
or
ရှိ၏။
▁လက်မ
▁သင်ကြား
▁အရှေ့တောင်အာရှ
ကြီးရွာ
သွင်း
ရလေသည်။
၃၅
တူး
ဝတ်
တဲ
လိပ်
၈၀
l
ချစ်
▁ရှာဖွေ
▁ကော့
ဂူ
▁လက်နက်
▁အသင်း
၄၉
▁ပြည့်နှစ်တွင်
▁ရွေးကောက်ပွဲ
▁မြန်မာပြည်
▁အေ
▁နည်းပညာ
▁ယင်းသို့
ဂို
ရမည်
▁ခြေ
▁လှိုင်းဘွဲ့
ကွန်
▁ပဲခူး
ကပင်
▁ပြင်ဦးလွင်
နွယ်
⁠
၅၄
ရှင်း
▁ဆက်သွယ်
၅၇
▁နေ့
▁တီထွင်
တိုင်းဒေသကြီး
▁ဟ
▁ထိုင်း
username
ဇာတ်
▁ရာသီဥတု
▁ဓမ္မ
▁မိုင်း
၅၅
▁ချင်း
လိုင်း
=
▁လျှပ်စစ်
ရယ်
▁၁၉၉၀
စေ့
လွန်း
မည်ဟု
ကျေးရွာ
၇၃
ထီး
▁အိုင်
အားကစားပြိုင်ပွဲ
▁for
▁၂၀၀၇
▁ဒုတိယကမ္ဘာစစ်
▁အထွေထွေ
▁ကမ္ဘာပေါ်တွင်
▁ငါ
▁မင်းလှမြို့နယ်
▁အနက်အဓိပ္ပာယ်
]
၇၉
f
ခဲ့ကာ
၆၃
ခဲ့သူ
parent
ra
▁အများအပြား
▁ခုနှစ်အထိ
▁အာဏာ
သာလျှင်
ရှား
အပါအဝင်
▁မြောက်ဘက်
၄၄
▁ထ
▁စနစ်
၀၇
▁တိုက်ရိုက်
▁ရဲ
ဝက်
▁သရက်ခရိုင်
ကြသော
▁အသား
▁ကြောင့်
၆၇
▁အပြင်
▁၂၀၁၃
၇၀
▁ဆောက်လုပ်
u
ကိုး
▁အရွက်
▁၂၀၀၉
၆၄
ဤ
၉၂
ပေါင်းများစွာ
▁ဓာတ်
▁တိရစ္ဆာန်
၆၂
မြန်မာနိုင်ငံ
၄၈
▁ညောင်
ဂီတ
၃၈
▁ဒီမိုကရေစီ
▁ထိုစဉ်က
ဿ
▁ပို
▁မိုင်းကိုင်
မှုများကို
တင်း
us
▁မြတ်စွာဘုရား၏
ဈေး
▁အတူ
၀၄
▁ရှာဖွေတွေ့ရှိ
▁ဝန်ကြီးဌာန
▁ဒီဇင်ဘာ
ပေါင်
၉၃
▁မိဖုရား
ကော့
▁ငွေကြေး
ဖို
▁ကောင်းစွာ
ဆိုင်း
ရု
▁အောက်တိုဘာ
▁ဂျာမန်
▁ကာကွယ်
ma
လု
▁R
ရံ
ပြီ
၇၇
▁မိုင်းယန်း
▁၎င်းတို့
မှတ်
▁ကြက်
▁ပြုပြင်
▁ပုဂံ
▁ဖန်တီး
▁ရေးဆွဲ
နှစ်ခု
▁ခြောက်
ဖြစ်သည်
ယို
နံ
▁ဒါရိုက်တာ
et
▁ပြ
၀၉
ဖော်
ပို့
၀၈
၇၈
▁မိတ္ထီလာခရိုင်၊
လေ့လာ
ပေးသည်။
▁၂ဝ
▁ရှိကြသည်။
es
▁ဂေါတမမြတ်စွာ
▁သက်ဆိုင်ရာ
မော
၆၆
▁၃။
▁အိုး
လုပ်ကိုင်
▁ပုဒ်မ
▁နွား
ကျောက်ပန်းတောင်း
သည်ကို
၅၂
▁ဖြစ်ပေါ်
ရှ
▁ရဟန်းတို့
၉၇
ကမ္ဘာ
အချိန်
▁ယောင်
▁ချစ်
▁မြောက်ပိုင်း
စိုက်
ဘေး
၈၃
လုပ်ငန်းများ
၈၄
▁နာ
လွတ်
ဇ်
ဗီ
▁စသည်တို့
▁ဖြစ်ပွား
နယ်မြေ
စွန်း
▁ဆား
ကျား
တပ်မတော်
ခေါင်
▁၂၀၁၈
၈၂
▁ဖ
ပြန်သည်။
ကျန်
▁ခုတွင်
▁အင်ဂျန်းယန်
▁၃၆
၅၆
▁တောင်ဘက်
▁၂၀၀၀
ရှမ်း
▁စာရေးဆရာ
▁၃၇
▁N
▁ဆိုဗီယက်
ကလေးများ
ဖြတ်
ယဉ်ကျေးမှု
▁တူ
ဝေး
▁တောင်တွင်းကြီး
အဖွဲ့အစည်း
▁ကြား
▁ဒ
ထူး
▁ကျင်းပ
ရမည့်
▁အမိ
▁ကျောက်တံခါး
▁သဲ
▁ဝန်ကြီး
ခဲ့၍
နေထိုင်
w
မက်
ကော
▁ဟုမ္မလင်း
▁ရှေ့
၅၈
မင်းကြီး
၇၆
၅၃
▁ဆွမ်ပရာဘွမ်
၆၀
မင်
အေ
▁In
မှုနှင့်
▁ထုတ်လုပ်
▁မျက်နှာ
▁သဘော
ဆူ
အားလုံး
ဂိုဏ်း
အိ
ကယ်
▁တာဝန်ယူ
N
▁မင်းဘူးခရိုင်
နှင့်တကွ
▁လုံးဝ
၈၇
Z
လပ်
▁နည်း
အတွင်း၌
စာရင်း
▁မိခင်
▁ရုရှား
▁စသည်ဖြင့်
ညွန့်
တွင်မူ
▁သံတောင်ကြီး
▁အမှုထမ်း
▁ဖြစ်လာခဲ့သည်။
ang
▁ရောက်ရှိ
ထင်
မှု၊
၀၆
ပိတ်
အသစ်
▁မူ
▁အသီး
ယောင်
ဓမ္မ
▁အုပ်စု
သဲ
▁ဆုံးဖြတ်
၄၇
▁စက်တင်ဘာ
နစ်
le
▁တို့၏
▁၂၀၀၆
၉၄
▁ဆိုင်ရာ
လူး
ကိန်း
အန်
▁တွေ့ရှိ
▁ဖြစ်ခဲ့သည်။
ခဲ့ကြ
နိုင်ငံ၏
▁ကျုံ
▁လေယာဉ်
▁Ka
▁အနောက်ဘက်
▁၁၉၈၀
▁အမြင့်
ထု
မောင်း
လွှတ်တော်
ကု
el
▁တဖြည်းဖြည်း
▁မက်
ကျောက်မဲမြို့နယ်
▁ကိုး
▁ဖြစ်လာသည်။
on
▁ယူဆ
၄၃
၅၁
▁ပတ်ဝန်းကျင်
ပုံကို
လော့
မြို့တော်
▁ပေါ်
နတ်တလင်းမြို့နယ်
▁မှန်
ပြေး
▁အမည်ဖြင့်
▁ကော်
▁ဝိ
ကြီး၏
စည်း
ဆီး
အစ
မိုင်း
▁တောင်ပိုင်း
▁အသီးသီး
ကေ
▁ပျော်ဘွယ်
ဃ
▁လွိုင်လင်
ပြာ
comment
မြို့၌
တေး
▁ပဲ
▁ထိ
▁၄၅
လေ၏။
တစ်ရပ်
▁ရေးသားခဲ့သည်။
▁တရုတ်နိုင်ငံ
ချေ
၀၅
ညီ
▁မွေးဖွား
▁တာချီလိတ်
အချို့
ဖြစ်ကြောင်း
▁ဆယ်
ဖိုး
▁နမ့်စန်မြို့နယ်
▁လှေ
▁မြတ်စွာဘုရားသည်
တား
▁အရှေ့ဘက်
ဖြစ်သည်ဟု
ပညာရှင်
▁ဖြူးမြို့နယ်
ကဲ့သို့သော
ဒင်
▁မန္တလေးမြို့
င့်
ဖွံ့ဖြိုးတိုးတက်
၆၅
ခြင်းများ
▁မော်
စိမ်း
များအနက်
▁ဘာသာရေး
၄၁
ဖွဲ့စည်း
တု
၇၂
တစ်ပါး
လူမျိုးများ
ြန်မာဆိုရိုးစကား
▁ဟိုပုံးမြို့နယ်
▁စိုက်ပျိုးရေး
▁နယ်မြေ
▁နယ်
ဝန်ကြီး
▁U
၆၁
သလို
▁သစ်ပင်
▁ဆီဆိုင်မြို့နယ်
ခမ်း
▁သင်
▁၁၉၄၇
▁၁၀၀
ထောက်
ကျင်းပ
▁သိမ်းပိုက်
လောက
ဝတ္ထု
▁သတ္တု
ရှေ့
▁ကျွဲ
▁စေတီ
▁ဂျွန်
ကုမ္ပဏီ
နှုန်း
နာရီ
စိုက်ပျိုး
▁ကြိုး
▁ကုလသမဂ္ဂ
W
▁စာရင်း
▁ပုဂ္ဂိုလ်
▁၎င်းကို
▁ဘာသာ
ရေတာရှည်မြို့နယ်
▁ပန်းချီ
▁ဌာန
▁မကြာခဏ
ကန်ကျေးရွာအုပ်စု
ar
The
များသို့
▁ရာစုနှစ်
▁နိုဝင်ဘာ
▁ဖွဲ့စည်းပုံ
▁ဟံသာဝတီ
▁နောင်ချို
လောင်
▁ဘယ်
အလွန်
▁ဖာ
▁ပြင်ဆင်
▁၁၉၄၅
▁ဇန်နဝါရီ
နန်
▁မြိုင်မြို့နယ်
▁အာဖရိက
လည်းဖြစ်သည်။
ဖန်
နိုင်ငံ၊
▁ဖိလစ်ပိုင်
ပင်ဖြစ်သည်။
▁ဖွင့်လှစ်
ဖြစ်လာသည်။
▁Kone
ခါး
▁အသိအမှတ်ပြု
လန်း
အလုပ်
▁တင်ပြ
▁ဇူလိုင်
▁ဖမ်းဆီး
▁စ၍
▁ပွဲ
တတ်သော
တစ်ယောက်
အရှင်
သော်လည်းကောင်း၊
စေတီတော်
▁အင်ဒိုနီးရှား
▁ရဟန္တာ
▁မြ
အီ
ဒိုး
ခွက်
▁ဂရိ
ကျိုး
ရက်နေ့
▁O
▁ပါလီမန်
▁မိ
ဂျာ
▁ထုတ်ဝေ
▁ရဲဘော်
ကိစ္စ
st
ဝဝဝ
▁ရာထူး
▁ချက်
ကျောင်းတော်
▁မဂ္ဂဇင်း
ဝန်ကြီးဌာန
▁သာမန်
▁မိန်းမ
အက်
na
▁ဖြစ်၍
▁ယုံကြည်
၉၁
▁အစီအစဉ်
▁မိုင်းယောင်း
▁သဲကုန်းမြို့နယ်
လှိုင်
တော်မူသည်။
▁မူဆယ်မြို့နယ်
▁၄။
▁ကျပ်
▁ဖေဖော်ဝါရီ
▁ကျောက်ဆည်
re
▁ထီး
▁ကုန်
ပေါ
▁လောက
မား
▁ပလက်ဝမြို့နယ်
▁မယ်
ဝမ်း
စမ်း
ခွန်
ယင်း
▁သို့တည်းမဟုတ်
▁မြတ်စွာဘုရား
ခဲ့ပြီးနောက်
ပစ္စည်းများ
▁ဦးဆောင်
စီးပွားရေး
ဝန်း
ကင်
ယန်
▁ကျောက်ကြီး
ဒီး
▁ပင်
▁လက်ပံတန်း
▁ပတ်
၇၁
မဟုတ်
ခုနှစ်၊
ကျပ်
ပြောဆို
▁အေဒီ
▁တွဲ
များအဖြစ်
▁ကွယ်လွန်
▁ကြိုးပမ်း
▁ပတ်သက်၍
ထောင့်
▁စပါး
▁တန်
▁ဈေး
သိမ်း
▁၄၄
▁မိုးမောက်
▁ပြုစု
▁Ta
ဖ်
▁နာမည်
ic
b
▁ဖြစ်စေ
ia
▁အုတ်
▁ကြောင်း
▁သုတေသန
▁ကုန်းကြမ်း
▁လုံ
တောက်
စောင့်
မွေး
+
သု
ဘက်မှ
ဇင်
အတွင်းသို့
တော်လှန်ရေး
ဉာဏ်
▁၄၂
အရာ
▁၂၀၀၅
သ်
▁ဒါ
▁မံစီမြို့နယ်
▁အင်းဝ
ရေးရာ
▁သီရိလင်္ကာ
▁လှုပ်ရှား
သည်မှာ
ပုဂ္ဂိုလ်
ရှု
▁ပေါင်းစပ်
▁ကြိမ်
▁ထုတ်
အုပ်ချုပ်
▁ဘေး
▁မျက်စိ
ဖော်ပြ
▁အကယ်၍
ထိပ်
ကြီးသည်
▁မှတ်
ဆစ်
သမ္မတနိုင်ငံ
ော
▁တစ်ယောက်
▁ပေါ်ပေါက်လာ
▁အားလုံး
▁စီမံကိန်း
en
လွင်
▁မင်းသမီး
▁ခွေး
▁ကြာအင်းဆိပ်ကြီး
I
▁ဧပြီ
ပယ်
▁လောက်ကိုင်
▁ကန့်ဘလူမြို့နယ်
▁ဆူ
▁ဥယျာဉ်
▁ပြည့်
▁အရည်
▁ဖာပွန်မြို့နယ်
ခဲ့ခြင်းဖြစ်သည်။
▁၂၀၁၉
ကုလား
▁အဲ
R
▁စက်မှု
ကတော့
အခြေခံ
▁mg
ိ
▁ပူ
▁ရတနာ
me
ကစား
▁ပိုး
▁ကုလား
▁မြန်မာနိုင်ငံ၊
▁ပါဝင်ခဲ့သည်။
ထံမှ
▁ငြိမ်းချမ်းရေး
ပြန်လည်
▁ဆရာကြီး
ရ၏။
တရုတ်
တောင်ပိုင်း
ta
▁ရမည်းသင်း
▁စတုရန်းမိုင်
လက်ထက်
▁ပူတာအိုခရိုင်
အပ်သော
၍၊
▁Tha
ရူး
ဘတ်
▁နောက်ပိုင်း
ယော
မြောက်ပိုင်း
▁–
ပင်လယ်
▁လှုပ်ရှားမှု
▁လယ်
လျင်
▁သာသနာတော်တွင်
z
လာပြီး
▁ခရစ်ယာန်
ဏ
ဝဲ
▁အရွယ်
▁စစ်ရေး
▁အသုံးပြုကြသည်။
▁၂၀၀၄
ခိုင်း
▁ကြယ်
ဖွင့်
▁တီးဝိုင်း
▁အေး
▁ကွန်မြူနစ်
နဲ
အကြား
စောင်း
▁ကော့ကရိတ်
▁ရိုးရာ
▁ခွဲခြား
▁သု
▁Pa
ညောင်
▁မဟုတ်
▁၁၉၄၈
တေ
န့်
▁၁၉၆၀
ကတည်းက
ယံ
▁၁၉၈၈
▁ဖခင်
▁ဧက
မြင်း
သမျှ
အုပ်ချုပ်ရေး
▁ဖန်
သုံးစွဲ
▁ဂူ
မြို့သို့
ပိုင်းတွင်
▁is
တိုင်းရင်းသား
▁စပိန်
ရှိရာ
▁ပျက်စီး
▁Gyi
at
▁အော်
သတ်မှတ်
▁ဗန်းမော်ခရိုင်
▁ကစား
ပြင်ရွာ
၀၃
▁အသုံးချ
▁မျှ
▁မိုင်းခတ်
ဖြစ်လေသည်။
▁၁၉၆၂
▁အများအားဖြင့်
▁အဆောက်အအုံ
▁စသည်တို့ကို
▁၄၃
ဖြစ်ပွား
ဟုလည်း
ခဲ့ကြောင်း
▁ရပ်
▁စံ
▁မြင်းခြံခရိုင်
ု
ဖြစ်ခဲ့သည်။
ဗေဒ
အခန်း
ထူ
ထိန်း
ခဲ့သဖြင့်
ခဲ့ပါတယ်။
နင်း
ရီး
မျှသာ
▁ပုံမှန်
ရေးကို
ချာ
စတုရန်းကီလိုမီတာ
ထား၍
▁ဒီဂရီ
▁ရည်ညွှန်း
လမ်းကြောင်း
ကွင်းရွာ
အသက်
▁+
ur
▁မင်္ဂလာ
၈၁
ထွေး
▁ထား
ချက်များ
▁စီး
to
ကျင်
ဗိုလ်
တုံ
ရတနာ
▁နောက်ထပ်
▁မက်မန်းခရိုင်
▁ခေတ်သစ်
▁ကူညီ
▁ကြည့်
အပိုင်း
▁ပညာသင်ကြား
▁2
ရောင်း
▁လူငယ်
▁ဖော်ပြထားသည်။
▁ယောက်ျား
▁ခံယူ
နိုင်ခြင်း
မြဲ
▁သိရှိ
▁ကျမ်း
▁လေဆိပ်
▁သိရသည်။
ရခြင်း
ce
၀၁
▁သက်
▁punk
▁ဆု
▁အတွင်းရေးမှူး
▁မင်းတုန်း
အောင်မြင်
ဘဏ်
လွှာ
ဖေ
NGC
▁ဆွေးနွေး
တံတား
လာသောအခါ
န်း
စဉ်က
▁အစာ
▁၂၀၀၂
▁ခန္ဓာကိုယ်
▁ထိုအချိန်တွင်
ဘိ
အဲ
▁ဟိုပန်မြို့နယ်
မင်္ဂလာ
ထုံး
▁သားသမီး
▁ခရစ်
တည်း။
▁တာချီလိတ်ခရိုင်
ပေးခြင်း
ရေးနှင့်
▁ဝမ်း
၌လည်း
▁ထိုး
▁ချီးမြှင့်
ချက်အရ
▁တစ်ဖန်
▁စစ်ဆေး
▁ဟန်
▁ဇ
မှာမူ
သမ္မတ
▁ဖတ်
ကိုမူ
ဆည်
ဆုံ
▁တိုးချဲ့
အဖွဲ့ဝင်
▁အနည်းဆုံး
ပွား
▁တည်ရှိပြီး
နေရာတွင်
▁ဧကရာဇ်
ကိုယ်တိုင်
▁အမြင့်ဆုံး
▁မိုင်းပေါက်
ယန်း
▁ရောမ
မကြီး
▁ပြင်သစ်နိုင်ငံ
▁မွေး
၀၂
ဆင့်
တာဝန်
▁၂၀၀၃
ရာဇာ
▁နယ်နိမိတ်
သင်း
▁ဝယ်ယူ
▁ကြို့ပင်ကောက်
ကြယ်
ပိ
အခြေအနေ
▁ပဲခူးမြို့နယ်
ပျံ
▁ဗမာ
များဖြစ်သည်။
▁ဝေဖန်
un
▁ခဲ
▁ဖြစ်ပေသည်။
သဖွယ်
ဒေသတွင်
ကြမ်း
▁ခင်
▁တန့်ဆည်မြို့နယ်
▁အီရန်
ဟော
▁ပေါင်းတည်
တခု
▁တစ်ခါတစ်ရံ
▁အပိုင်း
ကဗျာ
မှတစ်ဆင့်
သည့်အတွက်
▁ဇာတ်
▁ကော်မတီ
ir
▁ဘွဲ့
▁အဆို
v
မြိုင်
▁ရန်
အများဆုံး
မြို့ကို
ဘော
တုတ်
ခံရ
▁ဝိုင်းမော်
▁နိုင်ငံ၏
▁အက္ခရာ
ထံသို့
အနည်းငယ်
▁၁၉၅၈
▁တွေ့ရ
ယခု
အရောင်
အက္ခရာ
▁အလျား
▁တွဲဖက်
▁ပေါင်
ဖြစ်လာခဲ့သည်။
တည်ဆောက်
မိတ္ထီလာမြို့နယ်
▁အစောပိုင်း
လှသော
▁၁၉၄၆
▁အုတ်တွင်း
ကမ်း
ကြိမ်
▁ရန်သူ
V
▁အကျိုး
ဟူ
လက်ထက်တွင်
▁Re
ပုတ်
▁ပခုက္ကူမြို့နယ်
▁တို
▁J
▁on
▁ဝန်
သရုပ်ဆောင်
▁စလင်းမြို့နယ်
▁was
▁ရှိနေ
▁မွေးဖွားခဲ့သည်။
▁ပင်လည်ဘူး
ရရှိ
ရွာမရွာ
တောင်ရွာ
ဝင်ရောက်
တိုက်ပွဲ
ပိုက်
▁အဖ
▁ကလောမြို့နယ်
▁၆၀
▁ရှိ၏။
▁လုပ်ငန်းများ
ation
–
ကြေး
ပြည်သူ့လွှတ်တော်
ပေါ့
▁Kan
▁လွှမ်းမိုး
ပြီး၊
▁လက်တွေ့
▁s
il
▁W
▁နန်းတော်
▁၁၉၅၃
▁မိုင်းရယ်
ပြောင်းလဲ
▁တိုင်
▁အသစ်
▁ရုံး
ခွေ
▁ထူထောင်
▁ပေါက်ခေါင်း
ဇီ
သူ၏
ငြိမ်း
▁ဘီ
ne
▁ဆက်သွယ်ရေး
▁အလင်း
ဒူး
▁ကြေညာ
ရရှိခဲ့သည်။
လက်ခံ
▁လူတို့
▁သူမ၏
▁အမြဲ
▁သေဆုံး
▁၁၉၆၃
ချော
ခြံ
▁သထုံခရိုင်
▁၂၀၀၁
▁ပုံသဏ္ဌာန်
amp
▁ကြောင်
▁ပစ်
▁ဟွေ
▁လိုအပ်
▁အစ
▁album
▁ကယားပြည်နယ်၊
ဘော်
င်း
ပေါ်၌
▁ချမ်းသာ
မောက်
▁သတ္တဝါ
▁၁၉၅၄
ရာသီ
▁ပီ
▁ရေနံ
▁စီစဉ်
▁ဝေါဟာရ
▁ခန့်မှန်း
▁အရပ်
▁မေး
▁နေ့စဉ်
▁ချ
မရ
ရာထူး
▁3
မှသာ
▁မိုင်းရှူး
ခရီး
▁စု
အနီး
လှေ
ကြောင်
▁အရေးပါသော
တင့်
လုပ်ဆောင်
စက်ရုံ
အသံ
သာမက
▁ဝေ
▁ဆန့်ကျင်
ခံရသည်။
▁ရိုက်ကူး
မြို့မှ
▁အပေါ်
ဇင်း
အော်
ခိုး
ပွဲတော်
ကျောက်ဆည်ခရိုင်၊
လေ့ရှိကြသည်။
▁၁၉၅၉
မင်းဆက်
▁ဓား
ချိ
▁f
ချပ်
မည်။
ချမ်းသာ
▁ဂျပန်နိုင်ငံ
▁ကျေးရွာ
▁တောင်သာမြို့နယ်
▁၁၉၇၀
အကြောင်းကို
ရိုင်း
▁ထပ်
▁ပါဠိ
အောက်တွင်
▁ခုနှစ်၌
ကြသည့်
▁အတည်ပြု
ဒိ
မှာပင်
▁ရေစကြိုမြို့နယ်
▁လူသား
အင်အား
▁ဝမ်းတွင်း
▁စစ်ပွဲ
▁ရွက်
▁တို့တွင်
အရေး
▁ပြည့်စုံ
ပေါ်သို့
▁သစ်သား
သတင်း
▁ရောင်
သည်အထိ
▁de
▁ရှိခဲ့သည်။
ine
▁အာကာသ
▁စစ်တပ်
▁သီးသန့်
▁ကျယ်ဝန်းသည်။
▁အောင်လံမြို့နယ်
▁နဲ့
▁ကသာခရိုင်
▁ဖဆပလ
...
ခိ
▁ရှစ်
ဖား
၎င်း၊
ထည်
▁အလုပ်လုပ်
▁ကာကွယ်ရေး
▁ပြဋ္ဌာန်း
▁ထမ်းဆောင်
လှုပ်ရှားမှု
▁ပြည်ပ
▁ဝင်း
မျက်နှာ
နည်းပညာ
▁by
▁တိုင်းဒေသကြီး
▁လို
ကိုပင်
▁ပါဝင်သည့်
နေပြီး
မင်းသမီး
▁တောင်းဆို
▁လင်
ဒုတိယ
ဘောင်
ဟိ
လိုင်
▁re
▁မြစ်သားမြို့နယ်
▁ခရီး
ပြသ
▁အထက်တန်းကျောင်း
▁၃၉
▁သာယာဝတီမြို့နယ်
▁သဘာဝပတ်ဝန်းကျင်
နိုင်ငံရေး
▁အခွင့်အရေး
ရက်မြောက်
▁လင်းခေးခရိုင်
ခံခဲ့ရသည်။
▁ရောင်းချ
▁ယ
▁မြိတ်ခရိုင်
um
▁တွေ့ရှိရသည်။
▁၁၉၅၆
▁ငှက်များ
▁အလယ်ပိုင်း
ဝပ်
ဘ်
▁ပွင့်
▁ဦးခေါင်း
▁လက်ထက်တွင်
▁သစ်တော
ရန်ကုန်တက္ကသိုလ်
သောင်
▁၅။
ကော်မတီ
▁တောင်ငူမြို့နယ်
▁ယိုးဒယား
ယောက်
te
္
▁ပရိသတ်
▁စင်ကာပူ
အစား
▁မိနစ်
ရဟန်း
▁မလှိုင်မြို့နယ်
▁ဇာတ်လမ်း
▁ပြဇာတ်
လွှတ်
▁ပြသ
▁ဖြစ်သည်ဟု
သူသည်
▁ပထမဦးဆုံး
▁နံနက်
▁ထုတ်ပြန်
ယ်
▁အီဂျစ်
▁စမ်းသပ်
▁လီ
▁မှတ်သား
ဝီ
ယု
ဖြစ်သော်လည်း
ro
ကိုက်
နှင့်အညီ
▁အမိန့်
▁၃ဝ
▁လိပ်
ကတ်
▁ဗီယက်နမ်
ခွေး
ဆောင်း
ဒေါ
ရှီ
▁as
▁တည်ရှိ
▁အန်
▁ယင်းမာပင်ခရိုင်
မိုက်
▁တွေ့ဆုံ
▁ဘုံ
ဂြိုဟ်
▁လဲချားမြို့နယ်
▁သက်တမ်း
▁အရေး
▁ဆီး
▁ဝက်လက်မြို့နယ်
ဒူ
ဘိုး
▁ရုပ်
ဘက်သို့
▁ညောင်ဦးမြို့နယ်
▁သတ်
▁မင်းတုန်းမင်း
ရား
တော့သည်။
▁ဟိဂရှိ
▁ထင်
▁၁၉၆၈
ယာဉ်
ဖြစ်ပေါ်
▁အကြောင်းအရာ
▁လျှောက်ထား
▁နေပြည်တော်
ကျယ်
▁သူမသည်
ခြင်း။
▁မိုးကောင်း
ါ
ဆွေ
▁မိုးညှင်း
လှည့်
သေးသည်။
ကြက်
▁ဘာသာပြန်
သွားသော
ကရင်
▁အိ
▁or
အတွင်းတွင်
▁ကျောက်စာ
အာဏာ
မ်း
▁V
▁၈၀
▁ကျရောက်
▁၀
▁My
▁ဩဂုတ်
ဖီ
ကိုယ်စားလှယ်
▁ကိုးကွယ်
မေး
ဂုဏ်
နိုင်အောင်
▁၄၁
▁၄၆
မှုသည်
စည်
▁ပြဿနာ
▁မုံရွာခရိုင်
▁တန်ဖိုး
▁မီ
▁ခုနစ်
သောက်
▁ကူ
▁အပြစ်
စသည့်
တိုင်အောင်
▁လက်ဝဲ
မဂ္ဂဇင်း
ပေါ်ရှိ
▁သိန္နီမြို့နယ်
ပါသော
▁with
▁လူမှုရေး
ထိုင်
ပြင်း
ယက်
လေဆိပ်
တပ်ဖွဲ့
▁တစ်နှစ်
▁ဘီးလင်းမြို့နယ်
ပြုစု
▁...
အမျိုးသမီး
းရွာ၊
အခါ
မှီ
▁အုတ်ဖိုမြို့နယ်
▁အမေရိကန်နိုင်ငံ
အနေနှင့်
▁နေ့တွင်
▁သိပ္ပံ
▁အပူချိန်
▁အင်္ဂလိပ်ဘာသာ
ri
ဖြစ်လာ
▁ဇွန်
la
▁ဘောလုံး
လုံရွာ
▁အရာ
▁ယှဉ်ပြိုင်
▁ကွမ်း
▁ပေါ်ပေါက်
▁အင်ဂျင်နီယာ
▁အများပြည်သူ
▁ကောလင်းခရိုင်
တင်ပြ
▁သီဆို
▁ဇနီး
▁သာသနာ
▁ကောက်
▁၁၉၅၂
▁ရိုက်
▁ဖြစ်ပေါ်လာ
နိုင်ပြီး
▁ရသည်။
ပြင်ဆင်
▁ရှာ
▁Min
ရူ
သာယာ
▁အီတလီ
ပါဝင်သည်။
သန်
ထဲ၌
များထဲမှ
အမေရိကန်
▁၁၉၄၂
▁be
▁၁၉၉၉
ဆေးရုံ
▁၂၀၂၁
man
▁ရေဒီယို
ဘုရား၏
▁၁၉၅၀
တောင်တန်း
▁ခေါ်ကြသည်။
ပေးသော
▁ဆိုကြသည်။
စစ်ပွဲ
▁:
▁ခေါ်ဆို
▁မြို့ပြ
▁၄၈
▁အမည်ရှိ
ပိုင်းဆိုင်ရာ
▁မိုင်းဆတ်ခရိုင်
▁အုပ်
▁သူမ
▁ချမှတ်
ရှစ်
▁ဗန်းမောက်
▁တောင်ငူ
ခဲ့ကြပြီး
▁စွမ်းအင်
လျှင်၊
ion
မူး
▁အသုံးပြုသည်။
▁အမျိုး
▁အောင်မြင်မှု
ong
▁လွန်စွာ
▁ခန့်အပ်
▁အရှေ့ဘက်တွင်
စီမံကိန်း
ရမ်း
▁တိုင်းတာ
▁တို့က
am
▁စာရေး
▁လက်ထက်
ဒန်
မိဖုရား
ရေး၊
▁တရုတ်ပြည်
နိုင်ငံတွင်
▁လင်း
▁တန်း
အမြင်
ဥယျာဉ်
ဆပ်
နှင့်ပတ်သက်၍
▁လူ့
▁လျှို့ဝှက်
▁ဆရာတော်သည်
ခဲ့ပေ။
▁၁၉၇၂
▁ကျောင်းသားများ
▁အနာ
▁1
▁ထိုင်ဝမ်
ဂျ
▁မြောက်ဘက်တွင်
▁အရိုး
ထည့်
သဏ္ဌာန်
▁ခုနှစ်က
နော်
▁ယင်းသည်
▁ချောက်မြို့နယ်
ရှိသူ
▁ကြည့်ရှု
▁ရွှေ့ပြောင်း
သင်္ဘော
ကြသော်လည်း
▁ရှေးခေတ်
▁ရာဇဝင်
▁နားလည်
▁ခါး
▁ပူးတွဲ
▁ဟုလည်း
▁ကမ်း
▁လက်နက်ကိုင်
▁လှူဒါန်း
ခိုက်
▁ပစ္စည်းများ
▁ကောလိပ်
wa
▁ပန်းတောင်း
လျက်ရှိသော
အောင်ဆန်း
▁ယနေ့
ဇော်
ကွန်မြူနစ်ပါတီ
ကြသဖြင့်
▁တိုက်ပွဲ
▁Co
ga
▁ဉာဏ်
▁၁၉၅၅
▁b
ဓ
ထင်ရှား
▁အိပ်
သခင်
သူများကို
se
အရပ်
▁အမ်
▁အမတ်
▁ဧရာဝတီမြစ်
▁ဈေးကွက်
▁ခံရသည်။
မန္တလေး
ပြတ်
▁ခုနှစ်မှစ၍
▁ပု
▁ခေါ်ဝေါ်
▁စနစ်တကျ
ဒါး
▁စပ်လျဉ်း၍
▁ရင်
စောင့်ရှောက်
▁လိုက်နာ
ဗ်
ရွေးချယ်
သောင်း
တစ်လုံး
ငူ
▁မေတ္တာ
▁တပ်ရင်း
▁ဒုတိယမြောက်
ရခိုင်
▁အပွင့်
▁အားကစား
တောကျေးရွာအုပ်စု
သော်လည်းကောင်း
▁Me
▁အဖြစ်ဖြင့်
သူများသည်
▁၄၉
▁အနောက်ဘက်တွင်
▁တွေ့ရှိရသော
ers
ရပ်စောက်မြို့နယ်
▁ဇာတ်ကား
ထေရ်
အဖြစ်သို့
၌ပင်
▁မိုင်းဖြတ်
ရေးဆွဲ
▁ဘီလီယံ
▁ထိန်းသိမ်းရေး
▁အပူ
▁အနေဖြင့်
▁၁၉၆၄
အိပ်
▁မင်းတပ်မြို့နယ်
▁Man
▁အဆင့်ဆင့်
စေသော
လာသည့်
▁၁၉၆၁
▁ပေါက်မြို့နယ်
ton
0&
▁ခေါင်လန်ဖူး
▁ဖော်ထုတ်
ပြိုင်ပွဲ
▁နဂါး
▁ဟိုပန်ခရိုင်
▁၁၉၄၉
များရှိ
ဆိတ်
▁အချက်
▁စုဆောင်း
▁သူ့အား
▁ထန်း
▁La
▁ရှိလေသည်။
စာချုပ်
ရထား
▁Taung
▁နည်းလမ်း
ဖမ်း
▁တံတား
ညာ
▁ထည့်
ပြိုင်
သိပ္ပံ
ဘူ
▁သဘောတူ
ဘု
သွားခဲ့သည်။
▁ဦးစီး
▁ဆက်စပ်
▁အထက်ပါ
▁ဧရိယာ
▁ကွဲပြား
လံ
အနုပညာ
▁လူအများ
နိုင်ငံများ
▁ပျံသန်း
▁၁၉၇၅
သွယ်
မည်ဖြစ်သည်။
町
ရော့
စနစ်ကို
ရင့်
▁ရှ
နိုင်ပေသည်။
▁ဘက်
ကြရာ
▁ရထား
▁အူ
▁တွင်း
▁လန်ဒန်
ik
▁၅၅
▁၁၉၉၃
▁အားပေး
▁ဖော်
မှတ်တမ်း
ent
▁ဖယ်ခုံမြို့နယ်
▁ဗြိတိန်
အုန်း
▁၄၇
ပြောင်
▁Su
အစီအစဉ်
ထုတ်လုပ်
▁ကြံ
ကြော
များအရ
▁ရေဦးမြို့နယ်
▁ကမ္ဘောဒီးယား
အရာရှိ
▁လွတ်လပ်စွာ
▁ဆောက်
တံခါး
တံဆိပ်
လှုပ်ရှား
▁သမုဒ္ဒရာ
▁ယင်းမာပင်
မိသားစု
နိုင်၏။
တွေက
သင်တန်း
▁နှစ်သက်
▁၁၉၉၁
ဆွတ်
▁ဖြစ်နေ
▁ထင်ရှားသည်။
ပက်
▁၁၉၉၇
ry
▁ကေ
ဂန်
▁လည်
သီရိ
တိုးတက်
ရောင်းချ
▁များသည်
ဖောက်
▁၁၉၄၁
▁ခို
▁မန်တုံမြို့နယ်
ter
▁ခံ
များဖြစ်သော
▁ဂျီ
ခြား
▁ဝန်ဆောင်မှု
▁လုံခြုံရေး
ပညာရေး
▁ရေနံချောင်း
အရွယ်
▁ပုဂံခေတ်
▁ဖြစ်သည့်
ပြေ
▁ထက်
▁အစိုးရက
လွဲ
▁အဲဒီ
▁ဘိုး
▁အရာရှိ
ဖု
▁ပြင်
▁ပညာရှင်
မြို့စား
▁သင်္ချာ
▁တိုး
▁စတင်ခဲ့သည်။
ကန်း
ကဲ
▁ရောက်ရှိလာ
တည်ထောင်
▁ကျင့်သုံး
▁ကိုယ့်
▁မိုင်းတုံ
▁ကောလင်းမြို့နယ်
▁အယ်လ်
▁ကိုးကန့်
▁Chaung
▁နံပါတ်
▁သရက်
ခြင်းတို့
▁ထောက်ခံ
ခဲ့ရ
ဘက်တွင်
နှစ်ဦး
▁ဆိုင်
တတ်ကြသည်။
မဆို
▁စုပေါင်း
revision
▁ဒု
ပေးရသည်။
▁တည်ရှိသော
သားများ
▁စက်ရုံ
စုရွာ
▁ဖြစ်ကြောင်း
ြ
ဟုခေါ်သည်။
▁ကျင်းပသော
ထိုက်
မှတဆင့်
▁တစ်မျိုး
▁ကြေညာခဲ့သည်။
▁သမီးတော်
▁သာသနာပြု
ဂိုး
▁မှတ်တမ်းတင်
▁များစွာသော
▁အဆိပ်
J
ဘော့
▁ဖြစ်ပါတယ်။
▁မြို့မ
▁ထိုနှစ်
ဖြစ်အောင်
▁ခရီးသွား
▁ယော
ပျောက်
ဧရိယာ
မျိုးစုံ
▁ကျင်းပခဲ့သည်။
ချွန်
▁ကဲ့သို့သော
ပြီးမှ
သတင်းစာ
▁ပေးအပ်
ရိုးရွာ၊
ဖျက်
ခက်
▁၁၉၈၉
▁အုပ်စိုး
▁စုစည်း
မြို့ရှိ
▁မတူပီခရိုင်
▁ဖွဲ့စည်းခဲ့သည်။
ခြင်းအားဖြင့်
▁အာရှတိုက်
is
▁လွန်
▁မပြု
ပွင့်ဖြူမြို့နယ်
ငယ်များ
ဖြစ်သဖြင့်
▁မိဘ
▁ဒေသခံ
▁ထွန်းကား
▁သာယာ
▁စက္ကူ
▁စီးဆင်း
▁ဇာ
ရွာသစ်
▁Ba
▁တောင်ဘက်တွင်
▁ကိုရီးယား
▁တည်ထောင်ခဲ့သည်။
▁ဘာသာရပ်
▁ယင်း၏
ရွေးကောက်ပွဲတွင်
▁မင်းကြီး
▁အတိုင်း
သက်တမ်း
တ္တ
▁ယာယီ
▁ပုလဲမြို့နယ်
▁အသုံး
စေခြင်း
▁စီမံ
▁၁၉၉၅
အခြား
တမ်း
အားလုံးကို
▁စကားလုံး
▁လည်ပတ်
▁ရဟန်းတစ်ပါး
▁ကနီမြို့နယ်
▁ချီ
ချည်
ရာစု
▁အင်္ဂလန်နိုင်ငံ
▁ရှေးအခါက
▁ဦးစီးဌာန
▁အမှု
▁တစ်ခုဖြစ်သည်။
နာမည်
အပြီး
▁ကျွန်တော်
▁ဖြတ်
ဖွား
ကြရ
▁ဆိုသည့်
▁နွားထိုးကြီး
▁ဝန်ထမ်း
ဖွယ်ရာ
▁ဒုတိယအကြိမ်
နိုး
မွန်း
▁ကလေးများ
▁၁၉၅၇
▁သွားလာ
▁အကြီးအကျယ်
ဋ္ဌ
▁အချင်းချင်း
▁ကိစ္စ
▁မျိုးစိတ်
လက်ရာ
သည့်အပြင်
▁Pin
ဖွင့်လှစ်ခဲ့သည်။
▁တော်ဝင်
မြို့၏
▁[
▁သင်ယူ
▁ညောင်လေးပင်
သမီး
▁ညောင်ပင်
▁သီတင်းသုံး
▁ညောင်ဦးခရိုင်
▁၁၉၆၅
ဖိုင်
လှသည်။
▁အထက်တန်း
သို
▁အုန်း
▁၁၉၉၆
▁၁၉၉၂
ဝန်ကြီးချုပ်
ခုန်
▁အစေ့
▁ပုံနှိပ်
▁ပါမောက္ခ
ung
ဇာတ်လမ်း
ကောလိပ်
▁ပမာဏ
▁အမြင်
▁အမြီး
ပုံမှာ
ခုတ်
▁တပည့်
▁ထုတ်ဝေခဲ့သည်။
▁ထိုကဲ့သို့
▁သိန်း
▁ဆူး
ဒေ
▁စားသောက်
လျှောက်
အများအပြား
တုန်း
▁တီ
ng
▁၁၉၉၄
လုပ်ငန်းကို
ချက်ကို
အစု
▁သီလ
▁မြန်မာစာ
▁ဆိုရှယ်လစ်
ကွာ
ကိုလည်းကောင်း၊
တည်ရှိ
▁အနောက်တိုင်း
▁ရယူ
▁၁၉၃၉
▁တိုးမြှင့်
▁that
Y
ခေါက်
တန်ဖိုး
ချမှတ်
များထဲတွင်
ခရစ်
ဝဝ
▁ခပ်
▁ရို
▁အားဖြင့်
▁ရက်ပေါင်း
ဥပမာ
▁၁၉၆၇
နေကြ
▁သတင်းအချက်အလက်
ခဲ့ပေသည်။
▁မိုးညိုမြို့နယ်
▁ဒိုက်ဦးမြို့နယ်
▁ဆောင်းပါး
▁စိုက်
▁ခံခဲ့ရသည်။
ထိန်းသိမ်း
▁၅၂
ol
▁မို
▁အထိမ်းအမှတ်
▁ဒီးမော့ဆို
▁ဟော
တော်ကို
စတာ
▁စေ
▁မတ္တရာမြို့နယ်
▁၁၉၇၄
▁အပြန်အလှန်
▁ပို့
ant
▁စောင့်ရှောက်
win
▁နောက်ဆုံးတွင်
▁ဖက်
▁ကောင်
▁အမြောက်အမြား
▁အာရပ်
▁တို့ဖြစ်သည်။
▁ထိပ်
▁တွေ့ရှိရ
▁၁၉၆၉
ဆောက်
▁အသုံးပြု၍
▁ဆိုလိုသည်။
သိမ်
▁အင်္ဂလန်
ဒိုင်း
ရတ်
70250
ha
▁၁၉၉၈
ပီး
ထားကြသည်။
▁ခါ
▁သစ္စာ
▁မစ္စတာ
ပျက်စီး
လျက်ရှိ
ရန်နှင့်
▁၁၉၅၁
▁၁၉၇၃
စေပြီး
ကနေ
▁ဆွမ်း
▁ကနေဒါ
▁တင်သွင်း
▁4
▁ရှင်းလင်း
▁ဖောင်းပြင်
▁၆။
▁ရေခဲ
▁ဒဏ္ဍာရီ
▁ထိုအ
ဒေါင့်
▁ဆွဲ
▁လင်းခေးမြို့နယ်
▁၁၉၈၅
အူ
ကြွ
▁မိမိတို့၏
ပူဇော်
လှိုင်း
များတွင်လည်း
▁ကပ်
▁သူတို့သည်
ဖြစ်ရာ
▁De
ထားလေသည်။
▁ကျေးလက်
▁ဆင်း
ဖန်တီး
တို့အတွက်
▁အများ
▁ကွန်မြူနစ်ပါတီ
▁ထီ
▁ယင်းတို့
ti
နတ်မောက်မြို့နယ်
ဂျိ
ပန်းချီ
▁ဘုတလင်မြို့နယ်
လိုက်သော
▁မြတ်
▁ဟဲ
▁ဆည်
ဟင်း
▁ရင်း
▁မကြာမီ
▁ဘုန်းတော်ကြီး
▁အာဖရိကတိုက်
▁၇၀
ကွယ်
ဗုဒ္ဓ
လုပ်ငန်းများကို
အမ်
▁ယခုခေတ်
▁p
▁အနှစ်
ချိုး
▁ပူဇော်
▁စာချုပ်
ဆား
ရအောင်
အကြီးဆုံး
▁သူ့ကို
သလောက်
ကြ၍
▁ဓာတ်ငွေ့
တော်မူ၏။
ကလပ်
ရှိသည်ဟု
တစ်ခုဖြစ်ပြီး
▁လေကြောင်း
▁အန္တရာယ်
များရှိသည်။
နင်
▁ကွန်ဟိန်း
ပ္ပ
ပြီးသော
စစ်တပ်
▁ဗာ
ရန်ကုန်
ပြုပြင်
▁တောင်ကိုရီးယား
ဟူသည်
▁အဆောက်အဦး
ရွှေကျင်မြို့နယ်
မ္မ
မင်းကင်းမြို့နယ်
▁တပ်ဆင်
ပြု၍
နိုင်ငံတော်သမ္မတ
အဖွဲ့ချုပ်
ပထမ
▁ပျမ်းမျှ
▁မြောင်း
▁စဉ်းစား
ul
▁မရှိပေ။
▁ကိုင်း
▁ဆေးပညာ
▁တောင်တန်း
▁ကြိုတင်
ဦးစီးဌာန
▁အမြစ်
မရွာ၊
▁နွေရာသီ
▁ပေါက်ရောက်
▁ခမည်းတော်
▁အဆိုတော်
▁ဝန်းသိုမြို့နယ်
▁၅၆
▁အစည်းအဝေး
▁ကဝမြို့နယ်
▁လိုအပ်သော
▁အသုံးပြုနိုင်
များဖြစ်သည့်
▁ဘန်
ရာ၊
▁နိ
▁Taw
ရှန်
▁ဆေးရုံ
▁တူးဖော်
▁ကော့ကရိတ်ခရိုင်
ကျောက်စာ
ဂ်
နွဲ့
နော
▁သထုံမြို့နယ်
အဓိပ္ပာယ်
ခြင်းမှာ
ပါဝင်သော
နိုင်လေသည်။
▁ဖိုး
▁ကချင်
▁ဖျက်ဆီး
ကြောင်းကို
▁ဒေါ
ch
▁၇၅
▁အယ်ဒီတာ
▁ဝတ်ဆင်
▁ခံစား
poem
▁စဉ့်ကိုင်
ဘုတ်
▁အမ
များထက်
▁19
▁ဧ
▁အလွယ်တကူ
များဖြစ်ကြသည်။
▁မိုင်းပန်
▁ဇီဝ
▁အရေအတွက်
▁ဇာတိ
▁အမြဲတမ်း
ရှာဖွေ
▁မိုင်းလား
▁လူမှု
▁နာမည်ကျော်
လိုသော
▁ထုတ်ပြန်ကြေညာ
▁သဘောတူညီချက်
▁နမ္မတူမြို့နယ်
မစ်
▁ဆိုင်း
ဆံ
▁၂၀၀
ထုပ်
၁ဝ
ဆီသို့
▁မယ်တော်
ဝေါဟာရ
▁လူမျိုးစု
တစ်ခုတွင်
နိုင်စွမ်း
ဥက္ကဋ္ဌ
▁ယာ
▁လောင်း
ဗင်
ခွံ
▁မြေအောက်
လက်နက်
နောက်ပိုင်းတွင်
▁အရသာ
▁ကန့်ကွက်
တိုင်းပြည်
သူတို့
▁စေလွှတ်
ကြောင်း၊
တွန်
ကျုံ
တင်မြှောက်
အချင်းချင်း
▁ဘော
ခဲ့တဲ့
အင်္ဂါ
▁မူရင်း
▁လွတ်မြောက်
အဖွဲ့အစည်းများ
▁မီးရထားလမ်း
နန်းတော်
အရေအတွက်
ထဲက
▁ကိုလည်း
▁အသံထွက်
▁ပျံ့နှံ့
ကြသည်
▁နှလုံး
▁မျက်နှာပြင်
▁ဘုရင့်
▁အမျိုးသမီးများ
▁အစရှိသော
▁နှစ်ခု
),
▁သကြား
စင်း
ထမ်း
▁လက်ရာ
ချန်
▁ကြီးမားသော
▁စေတီတော်
▁အခြေစိုက်
▁ပြိုင်ပွဲ
▁ရွှေဘိုမြို့နယ်
တစ်လျှောက်
ခံယူ
▁မက်မန်းမြို့နယ်
▁အကြံပေး
တို့ဖြစ်သည်။
ဂီ
ထံတွင်
▁ချုပ်
▁ဆက်ဆံရေး
▁ဟော့ကိုင်းဒိုး
▁ဥရောပတိုက်
▁မသိ
▁ကောင်စီ
ခွဲခြား
ခု၊
▁တစ်ဆင့်
▁ဗီ
ယုံကြည်
ဟီ
းကျေးရွာအုပ်စု
▁ကြေး
X
▁ဟုခေါ်သည်။
နေကြသည်။
▁မျောက်
ရာဇဝင်
▁ကျိုက်မရော
ဘား
▁လို့
▁ဟူ
ထဲမှာ
ဟဲ
▁ရည်ရွယ်
ary
▁ညွှန်ကြား
▁၁၉၈၆
▁ကျော်ကြား
▁ကော်မရှင်
de
▁၁၉၇၁
▁ဘောလုံးအသင်း
တိန်
▁သောက်
▁နိုင်
မှုန့်
▁့
▁ပြည်သူ
▁နယ်ချဲ့
▁ဆက်ခံ
ခဲ့ကြလေသည်။
▁လျင်မြန်စွာ
−
▁၁၉၈၃
▁သင်း
▁တံတားဦးမြို့နယ်
ဆိပ်ရွာ
▁ဖြစ်သော်လည်း
ယောက်ျား
ပေးသည့်
ဖြစ်ပေသည်။
▁အပ်
ဒက်
▁ခွင့်ပြု
▁သာစည်မြို့နယ်
▁အားထုတ်
ဖုန်း
နိုင်ငံများတွင်
နီးပါး
အင်္ဂလိပ်
▁စာတမ်း
▁ပေးပို့
▁ဇီး
ဒေါ်
▁ဒုက္ခ
အဖြစ်ဖြင့်
ကမူ
▁ကွယ်လွန်ခဲ့သည်။
ခွင်
▁ဂြိုဟ်
▁အချက်အလက်
ဂါးရွာ
▁နေ့ရက်
ဗား
သတ္တု
ဒေသ၊
▁အရှေ့ပိုင်း
တောင့်
▁ဟိ
▁ဖြတ်သန်း
▁၁၉၃၈
အုံး
ရမည်းသင်းခရိုင်၊
ခြင်းခံရသည်။
ဆောက်လုပ်
ရွာသစ်ရွာ
▁ဓာတုဗေဒ
ရှောင်
▁မကွေးမြို့နယ်
▁စတုတ္ထ
▁To
▁ဗိုလ်မှူး
ဗစ်
▁ဗိုလ်ချုပ်ကြီး
▁ရောက်လာ
▁အစားထိုး
တော်ကြီး
ထားခြင်းဖြစ်သည်။
▁ပုဂ္ဂလိက
မွှေး
ဘယ်
မောက်မယ်မြို့နယ်
▁ကွင်း
▁အလေးချိန်
▁•
▁သီး
▁Bo
▁ဖား
ကုန်၏။
ဆိုက်
▁သပြေ
ဒေသများတွင်
°
▁Shwe
▁၅၁
▁အကောင်အထည်ဖော်
သူများက
▁အဆင့်မြင့်
▁အသုံးပြုသော
▁အရွယ်အစား
▁ဒေသအခေါ်မှာ
▁စတင်၍
က္က
▁လေကြောင်းလိုင်း
လက်မ
▁အသေးစိတ်
▁ကဲ့သို့
▁ပယ်
ဗဟို
များကဲ့သို့
အနေအထား
▁ဂျာမနီနိုင်ငံ
လျက်၊
ကြို
▁ကိုယ်စားပြု
သင်ကြား
▁မွေးချင်း
▁အလိုအလျောက်
▁ကုသ
com
▁အစိုးရအဖွဲ့
ပြွန်
ကီး
▁နားဖန်းမြို့နယ်
ကျောင်းသား
လေရာ
ချီးမြှင့်
▁ကျေး
ဆော်
ထော်
▁မောင်း
son
ian
ရှိခဲ့သည်။
▁အနိုင်ရ
▁မြို့သစ်
မှုဖြင့်
▁ပိတ်
▁စားသုံး
▁Thar
လက္ခဏာ
တစ်ခုမှာ
ဆက်သွယ်ရေး
▁Sa
သား၊
သွားပြီး
▁ဝတ်
▁အစားအစာ
▁သဘောထား
ဘန်
နောက်ပိုင်း
ရှေး
▁အချို့က
▁ပလောင်
▁ပြန်လာ
အကျိုး
ပုံ၊
▁ကမ်းရိုးတန်း
တွေဟာ
▁ဥပမာအားဖြင့်
နေခြင်း
▁ယနေ့ခေတ်
▁အဓိပ္ပာယ်ရသည်။
ပုဒ်
▁စောင်း
တို့ကိုလည်း
ဖြစ်သောကြောင့်
▁များတွင်
▁ဗိုလ်မှူးကြီး
▁စစ်ဆင်ရေး
▁ရှား
▁နှုတ်
▁ဝဲ
ကျင်းရွာ
နမ်
▁ကျွန်
▁ဘဝဇာတ်ကြောင်း
▁ခရစ်နှစ်
ကြံ
ကွန်း
▁၁၉၇၉
မဟုတ်ဘဲ
ဇာတိ
ကွေ့
ဂျာနယ်
▁ဆိတ်
▁မောင်းထောင်
တွင်းသို့
▁ရေတပ်
ဖြစ်နေ
▁ပြင်ပ
ခြုံ
ဖြစ်စဉ်
▁လျှောက်
▁ရာသီ
▁၅၈
ထန်
▁သီရိ
▁ဆားလင်းကြီး
လျှက်
ဒု
ကွယ်လွန်
ဒိုင်
တော်မူခဲ့သည်။
ဒစ်
▁နန်းယွန်း
▁ပထမအကြိမ်
စစ်ဆေး
ဩ
▁၁၉၃၆
▁အကျယ်
ပါတယ်
ယဉ်
ပမာဏ
နိုင်ငံတော်
▁ဤသို့ဖြင့်
ပျော်
▁သပိတ်
▁ကြီးမား
မြောင်း
တိုင်းတွင်
လာခြင်း
▁ရှမ်းပြည်
အချက်
တီထွင်
▁မည်သို့
10
▁မိုးနဲမြို့နယ်
▁Kyauk
တစ်ခုအဖြစ်
▁အဖွဲ့အစည်းများ
▁ငယ်
▁ကလေးမြို့နယ်
စွမ်းအင်
နိမ့်
▁ဧရိယာသည်
▁အဖြူရောင်
▁မုန့်
ဒေး
▁တင်း
▁စိတ်ဓာတ်
▁တိုက်တွန်း
▁အကူအညီ
▁ဦးဘ
▁ရွေးကောက်
စ္စ
မု
ပုန်း
များအပြင်
▁သုံးသပ်
လေးရွာ
ရပြီး
အနီးတွင်
▁မိတ္ထီလာ
ပြတိုက်
ရွေး
▁ဗဟိုကော်မတီ
▁ဟင်း
ဒီပဲယင်းမြို့နယ်
▁ဖွားမြင်သည်။
ရပ်ကွက်တွင်
▁ငါ့
▁လက်မှတ်ရေးထိုး
ရှိကြောင်း
▁တီး
ရက်တွင်
ဆိုလျှင်
ကာလတွင်
ive
▁လယ်ယာ
▁အသုံးပြုခြင်း
လိုက်လေသည်။
▁ယေဘုယျအားဖြင့်
▁ခေါ်တွင်
ရှိလေသည်။
သိမ်းပိုက်
▁လက်ထပ်
▁မီးရထား
က္ခ
▁ပြောကြား
မရှိဘဲ
ဆိုသူ
▁အစား
သူ၊
သည့်အတိုင်း
▁ဘို
▁ရည်ရွယ်ချက်
နေသည်ကို
▁ထားရှိ
▁အယူအဆ
ge
▁၁၉၆၆
▁ယင်းကို
အမြင့်
▁ယာဉ်
တွေ့ရှိ
▁ပြည်မြို့နယ်
▁နှင့်အတူ
▁နိုင်ငံများ
▁နောက်ဆုံးဘဝ
▁အခွန်
ရှူး
အဓိက
ကဲ့သို့ပင်
▁ဘဏ်
▁တိရစ္ဆာန်များ
▁ယင်းတို့၏
▁လှည့်လည်
▁အာသဝေါကုန်ခမ်း
▁၁၉၇၈
ကျသော
▁နီ
▁́
▁တောင်း
▁ပုသိမ်ကြီး
ဒီမိုကရေစီ
▁ကော
▁ဥပ
ကြပ်
▁ဂုဏ်ပြု
မသိ
▁ကော့သောင်း
▁မဟာမိတ်
▁အနေနှင့်
▁ပင်စည်
sh
ဆွေးနွေး
စာတမ်း
▁သာသနာတော်ရှိ
နယ်ပယ်
▁အက်တမ်
▁နာမည်ကြီး
ကျူ
▁Ah
▁ပုလဲ
ရောက်ရှိ
▁ပုလောမြို့နယ်
တွင်ရှိသော
▁Ye
မူကား
သရ
▁လက်ပန်
▁တေ
▁ဝတ္ထုတို
ဇာတ်ကား
ဠ
▁ဖြစ်တော်မူ၏။
▁နေရာတွင်
လူထု
▁သိမ်းယူ
တို့သည်လည်း
သီလ
အမျိုး
▁ထောက်ပံ့
မှုအတွက်
▁သင့်
ဖြေ
▁ထားဝယ်
▁နန်းတွင်း
005
ဟတ်
▁စခန်း
လော်
▁ဂျာမနီ
▁မန်း
ဒဲ
များအပေါ်
ရှိသော်လည်း
25
▁တစ်ကြိမ်
▁ညီ
▁တေး
▁ဦးနှောက်
မရှိသော
ရီးယား
အထူး
အပြီးတွင်
▁ငါန်းဇွန်
▁ချီတက်
▁သေနတ်
ကျွန်းရွာ
▁အရာတော်မြို့နယ်
▁လက်ထောက်
▁တစ်ဖက်
အဖွဲ့၏
ရွတ်
လာကြ
လမ်
▁အောင်မြင်စွာ
နည်းဖြင့်
▁ဆင်းရဲ
_
▁ပင်မ
▁မြစ်ဝကျွန်းပေါ်
▁တူရိယာ
ပြည်သူ့
▁စာမျက်နှာ
အုတ်
▁အရေပြား
များသာ
▁ချန်
▁ငလျင်
အလယ်ပိုင်း
▁ခုနှစ်အတွင်း
▁သတိ
သာရ
အိတ်
ဆူး
▁ထောက်
▁ရူပဗေဒ
▁မော
ထမ်းဆောင်ခဲ့သည်။
ရိပ်
ရသူ
▁စည်းရုံး
▁ထွက်ပြေး
▁ပိန်း
▁ကံမမြို့နယ်
▁တွက်ချက်
နမ့်ခမ်းမြို့နယ်
သဘာဝ
ဂျစ်
နိုင်ခဲ့
မှာတော့
▁ကူး
ကိရိယာ
ဒေါင်း
▁ဘုရားကျောင်း
li
▁ဝင်ငွေ
▁ထမင်း
▁အရက်
▁လက်အောက်ခံ
▁၁၉၈၄
▁ဆိုသော
မဖြစ်
အဖွဲ့သည်
▁၁၉၈၁
▁ဂျ
ဒဏ္ဍာရီ
▁သင်္ကန်း
▁ရရှိသည်။
▁တီးဝိုင်းများ
လုပ်ကိုင်ခဲ့သည်။
▁၁၉၇၆
ရမ်
ရုံးစိုက်ရာမြို့
စော်ဘွား
ခြင်းတို့ကို
နိုင်ရန်အတွက်
စလုံး
ကျော
▁ပုဏ္ဏား
▁Al
▁ပျူ
▁ငယ်ဘဝ
▁ကောင်းကင်
ရွန်
▁အဆုံးသတ်
ဆိုသည့်
▁X
▁ပေါ်ထွက်လာ
တည့်
တစ်မျိုးဖြစ်သည်။
မင်း၏
ထိန်
▁အယ်
▁ထိန်းချုပ်
▁စည်းကမ်း
▁ဘုရင်ခံ
ရာခိုင်နှုန်း
▁တန်ခိုး
ပုပ်
▁သံမဏိ
▁ကြံစည်
▁ဂုဏ်
မျက်
▁သရက်ချောင်း
“
ကျောင်းတွင်
▁တောင်ကုန်း
▁ပါရှိသည်။
▁(;
လွှဲ
▁ရောက်သောအခါ
ဘီး
ကာကွယ်ရေး
ဖွင့်လှစ်
ခဲ့သည်မှာ
စေ၏။
ကျန်းမာရေး
▁ခန္တီးခရိုင်
▁ကောင်းမွန်
▁၅ဝ
▁၁၉၃၇
▁အကြိမ်ကြိမ်
▁မီးလောင်
▁အပင်များ
▁Ga
▁ရွေး
ခြမ်း
▁ဩစတြေးလျ
ယုတ်
နော့
ရွေးကောက်ပွဲ
▁ကာဗွန်
▁အစ္စလာမ်
▁ရော
ပြည်နယ်၊
▁ပတ္တမြား
နိုင်မှု
▁အနု
ခြင်းမှ
မှား
▁လွတ်လပ်သော
▁ညှိနှိုင်း
မံ
▁သမ္မတနိုင်ငံ
▁တဦး
▁ကြသည်။
ဆိုတာ
အောင်မြင်ခဲ့သည်။
နွား
ဘုရားထက်ထက်
▁ကွန်ယက်
ူ
ဂျင်
▁ဧရာဝတီ
▁၁၉၈၂
▁အချင်း
ak
ပင်း
ထိုင်း
▁ကျူးကျော်
▁၇။
lo
သန့်
ဖယ်
ပွ
▁သင်္ကေတ
▁ဆင်ပေါင်ဝဲ
ဈေးကွက်
▁တော်လှန်
အုံ
▁အကြား
▁မူလက
ရန်း
▁ကာတွန်း
ment
▁မွေးဖွားသည်။
လိန်
▁အလားတူ
▁မှတ်ပုံတင်
▁ဓနု
▁ကိန်း
▁ကျောက်မီးသွေး
▁ကလေးခရိုင်
▁မြေပြင်
ပါဝင်သည့်
ဂ္ဂ
ကက်
▁လူ့အခွင့်အရေး
နှင့်စပ်လျဉ်း၍
▁from
နိုင်ကြောင်း
▁သန်းခေါင်စာရင်း
j
▁မျက်
▁၆၄
ပိုင်ရှင်
ကမ်းခြေ
▁ဘုရားရှင်
▁ကုန်သွယ်ရေး
စပါး
▁အင်္ဂါ
ا
03
▁ကုန်းဘောင်ခေတ်
▁စပ်
▁ရခိုင်ပြည်နယ်
ရှိန်
▁နေထိုင်ကြသည်။
ငြိမ်းချမ်းရေး
ဝန်ထမ်း
အစိုးရက
ျ
▁အစိုးရ၏
မျဉ်း
▁တိုကျို
▁အဆင့်အတန်း
▁အဓိကအားဖြင့်
▁ကျွမ်းကျင်
be
လှူဒါန်း
▁ကိရိယာ
▁အခြေခံဥပဒေ
▁ကွယ်လွန်သည်။
▁ဖြန့်ချိ
ပူး
land
▁၁၉၄၄
▁ကပြ
ဝတီ
နန္ဒ
သိက္ခာပုဒ်
တွေ့ရ
တန်းရွာ
▁တိ
▁Mo
ထုတ်ဝေ
သိုက်
▁ရုတ်တရက်
ဟွေ
နေသူ
ဟ်
ရှ်
မှနေ၍
စို
ကိုင်းရွာ
▁တို့မှ
▁လမ်းကြောင်း
ခံရခြင်း
▁ထိုအချိန်က
▁တံခါး
များနှင့်အတူ
aung
▁နို့
နှစ်ပါး
▁ရှေးက
ဒဏ်
နိုင်း
21
နေဆဲ
တပ်များ
စာရေးဆရာ
အီး
▁ဘဝနိဂုံး
ဖုံး
▁ဒေါင်း
▁စသည်
▁ရိုးရိုး
အမည်ဖြင့်
ဇီး
▁သို့ဖြင့်
▁၁၉၄၀
▁ဖြစ်သည်
▁မလေးရှား
များသည်လည်း
စေ၍
တို့လည်း
ပျော့
အမှု
▁ဗြဟ္မာ
▁ဖွင့်
သဘင်
▁သိပ္ပံပညာရှင်
▁အုပ်ချုပ်မှု
16
တွေမှာ
ရိုးရာ
▁ကမ်းခြေ
ရယူ
▁ရေကန်
vi
▁လွန်ခဲ့သော
တွေနဲ့
ထွန်းကား
▁စာအုပ်များ
ပြုပြင်ပြောင်းလဲ
ကိ
အဆုံး
တတ်၏။
ကိုပါ
▁ပြတိုက်
▁`
▁ဝေါမြို့နယ်
▁ရာဇ
▁လူနာ
နီးယား
▁ယင်းငှက်
▁ခင်ဦးမြို့နယ်
▁နိဗ္ဗာန်
▁ဆရာဝန်
▁၂ဝဝ
ပြောက်
▁ဤကဲ့သို့
▁မင်းဘူးမြို့နယ်
ချက်များကို
▁ပါရှိ
ya
▁၁၉၇၇
အဖြစ်လည်းကောင်း၊
▁တစ်စတုရန်း
ကျင့်
▁ချီဖွေမြို့နယ်
နေရာမှ
▁သမဂ္ဂ
▁၁၉၃၀
ပင်ရွာ
ထီ
▁ထိုင်
007
▁ရောက်ရှိခဲ့သည်။
▁မွေးမြူ
▁အစွဲပြု၍
▁ဆင်းသက်
▁ပညာရှိ
▁ပျား
va
▁မြင့်
▁သရက်မြို့နယ်
▁အလင်းနှစ်
အယ်
▁ထုတ်ယူ
ကျန်း
ခုံး
▁ရှေးဦးစွာ
ဖြိုး
▁ကြော်ငြာ
ate
ထားတဲ့
စွမ်း
▁စိုးရိမ်
ကီလိုမီတာလျှင်
ကျေး
▁ဘိန်း
▁ကျဆုံး
ယပ်
▁မြန်မာသက္ကရာဇ်
▁အရည်အသွေး
▁၁၉၈၇
▁၁ဝဝ
▁နန်းတက်
▁ထို့နောက်တွင်
လေ့ရှိ
▁အယူဝါဒ
ပိန်း
ဆိပ်ကမ်း
ဇန်
age
▁အင်္ဂလန်ပြည်
လှုပ်ရှားမှုများ
အလို
သူဖြစ်သည်။
များပေါ်တွင်
▁လက်ပံ
အသီးသီး
သဘောတရား
ဝေဖန်
▁သူက
▁ကူးစက်
▁အချိန်ကာလ
minor
13
▁ညနေ
▁အာရုံ
ကွေး
▁ဆောင်းပါးများ
ဘောလုံး
နိုင်ငံသည်
▁ရှည်
▁ယင်းတို့ကို
ကြုံ
▁လှိုင်း
▁၁၉၃၅
ဖြင့်သာ
go
▁ရင်းနှီး
▁မြို့နေလူဦးရေ
ဧက
▁ထိခိုက်
ိက
သမိုင်းတွင်
မျိုးစိတ်
ဘီလူး
အချိန်တွင်
ဆရာကြီး
အံ့
အပင်
om
▁ငယ်စဉ်က
▁မင်
▁လူဦးရေသိပ်သည်းဆ
▁တည်နေရာ
▁ဖွဲ့
▁ညီလာခံ
အဖွဲ့ကို
15
ား
▁မီလီယံ
မြို့ဟောင်း
▁လေ့ကျင့်
▁ဌာနချုပ်
ပစ္စည်းများကို
လျား
▁ဖလမ်းခရိုင်
တစ်ကောင်
▁အနောက်ပိုင်း
ပညာရပ်
▁ကသာမြို့နယ်
▁နောင်တွင်
▁ဖောက်
ရမည်ဟု
လျှံ
မူလ
ဆွ
▁တိုးတက်လာ
ယှဉ်ပြိုင်
စတန်
▁တံဆိပ်
ဆက်ဆံရေး
▁တစ်နှစ်လျှင်
သရက်
ကိုယ်စားလှယ်များ
▁Le
▁စိစစ်
▁ရှေ့နေ
▁ပြုလုပ်ခဲ့သည်။
မြောင်
▁မြေကြီး
ရသဖြင့်
01
လာ၍
▁ထားဝယ်ခရိုင်၊
နှင်း
ရော်
အင်းရွာ
အတွင်းမှ
da
မျိုးတွင်
▁ဘဏ္ဍာရေး
▁လူမျိုးများ
▁10
▁သိုး
ဗုဒ္ဓဘာသာ
ပြဿနာ
ကွမ်း
▁ကန့်ဘလူခရိုင်
▁လှည်း
ဆက်သွယ်
နိုင်သဖြင့်
▁လူတို့၏
နေတဲ့
▁ခေတ်မီ
▁နုတ်ထွက်
လိမ်
▁မီဒီယာ
တရာ
တည်ရှိသည်။
ယင်
ဋ
▁g
▁အနေအထား
▁ဖြေရှင်း
ကြေညာ
လုံကျေးရွာအုပ်စု
▁နိုင်ငံခြားသား
ပေး၍
▁စာကြည့်တိုက်
မိန်းမ
▁လွှတ်
မျိုးဖြစ်သည်။
စသည်တို့
▁တည်ဆောက်ခဲ့သည်။
▁၄ဝ
ပွဲများ
ခေတ်တွင်
we
ခန်
▁ဆံပင်
ဘုန်း
▁နယ်ပယ်
မျက်နှာပြင်
▁ဝန်ကြီးဌာန၊
▁သို့ဖြစ်၍
ဓာတ်ငွေ့
သေဆုံး
▁ကန့်
▁Ra
▁သတ်ဖြတ်
လူငယ်
ဗတ်
▁ဖောက်လုပ်
ငါ
▁တူညီ
တွက်
ခဲ့ဖူးသည်။
တ္ထ
ယွန်း
ကြည့်ရှု
ဝကျေးရွာအုပ်စု
▁၎င်းတို့သည်
ဂေါ
▁ရေတံခွန်
co
▁Li
တက်ရောက်
အစိတ်အပိုင်းများ
▁ရတနာပုံ
ကာလအတွင်း
▁လောက်
▁ဖွားမြင်ခဲ့သည်။
▁ရွှေဘို
▁သာသနာတော်
လမ်းစဉ်
▁အကြိမ်
လိမ့်မည်။
▁အက
မကျ
▁ပြန်ဆို
ဘင်
ကွမ်းလုံမြို့နယ်
ies
ကျင့်သုံး
လာလေသည်။
လိုက်သောအခါ
▁စိန့်
▁သံဃာ
▁ကမ္ဘာပေါ်ရှိ
အဖို့
▁ဖြေ
ပြဇာတ်
▁၁၉၂၀
ဆန့်ကျင်
▁ပထဝီဝင်
▁ငရဲ
14
ဝေါ
11
စာရေး
သူအား
ကျွဲ
ဟီး
▁ပလက်ဝမြို့နယ်၊
စေသည့်
▁တဆင့်
▁မြို့၏
ဌေး
သီဆို
စီရင်
▁ပို့ဆောင်
ဆော့လော်မြို့နယ်
ဖဲ
▁မြွေ
▁အရှည်
▁အဖျား
▁လုပ်ငန်းများကို
ဆွန်
▁ထုတ်လွှင့်
▁ပါဝင်ပြီး
▁ထုံး
▁ပျက်
▁ဟောကြား
▁ကင်
no
ကာကွယ်
ကြီးများကို
အိုင်ရွာ
▁၉၀
▁New
▁ဝါဒ
မုန့်
▁ဂလက်ဆီ
▁ပင်လယ်ရေ
အကောင်းဆုံး
နိုင်မည်
▁အမေရိကန်ဒေါ်လာ
ဆုကို
▁အခြေ
▁တို့နှင့်
လွတ်လပ်ရေး
▁အဆီ
▁ဟောပြော
တော့ဘဲ
▁ဣ
စိ
▁လယ်ယာမြေ
ကြီးမား
အန္တရာယ်
▁ရပ်တည်
▁Mi
▁ရှု
▁၁၉၄၃
စင်တာ
▁ထို့
နှစ်သက်
▁ကိုင်
▁မယား
ခဲ့သောကြောင့်
▁အဝတ်
စစ်ဆင်ရေး
▁အတွေးအခေါ်
ဝရွာ
ie
လှူ
▁ပိုင်ဆိုင်
▁ကြီးကြပ်
သူမှာ
▁Nyaung
▁အစောဆုံး
သွားလေသည်။
မြန်မာနိုင်ငံရှိ
တီးဝိုင်း
ာက်
ဆုံးဖြတ်
တွင်းရှိ
▁ပါးစပ်
▁ဘီး
▁ပုသိမ်
ထည့်သွင်း
em
ဝဂ်
မီတာ
သတ္တဝါ
ဆက်လက်
▁လိင်
▁ရောနှော
ရှိနေ
▁လွတ်
ဘုန်းကြီးကျောင်း
▁ဆုံးဖြတ်ချက်
ကုတ်
ပညာကို
▁မိတ်ဆွေ
▁အမည်ကို
▁ဂျူး
▁၁၉၂၃
ရှန်း
နှစ်ယောက်
စကားလုံး
တက္ကသိုလ်မှ
▁အကျယ်အဝန်း
▁လျှပ်စစ်ဓာတ်
▁အလံ
▁ပြည်မြို့
စီမံ
▁ဝိုင်း
▁ရေကြောင်း
တယ်လို့
▁ဆိပ်ဖြူမြို့နယ်
▁ဆိုတာ
▁ရောင်း
ညွတ်
▁ယခုအခါတွင်
▁ချက်ချင်း
နုတ်
ပြို
ပြီးနောက်တွင်
▁ပုဒ်မခွဲ
▁အစ္စရေး
▁ပထမဆုံးသော
▁သမိုင်းဝင်
▁အတ္ထုပ္ပတ္တိ
ဆော
▁ယူဆကြသည်။
ပုံသဏ္ဌာန်
▁ဇီးကုန်း
ပင်ကျေးရွာအုပ်စု
ခဲ့ရာမှ
▁လောင်
▁ဟောင်ကောင်
▁မု
နိုင်သည်ဟု
▁ဓာတ်ပုံ
26
လူမျိုးတို့သည်
များအကြား
▁အချက်အလက်များ
ခွ
▁နှင်း
▁ကျင်
▁မရ
▁Ha
ဘူး။
အစည်းအဝေး
▁အခမဲ့
▁ဆိပ်ကမ်း
▁ခိုး
ပြစ်
▁ပင်းတယမြို့နယ်
ရောင်ခြည်
▁အိမ်ထောင်
▁အစည်းအရုံး
မြင်းခြံမြို့နယ်
▁လက္ခဏာ
▁အနီရောင်
▁တီးတိန်မြို့နယ်
ကမ္ဘာ့
▁အီတလီနိုင်ငံ
▁၈။
ni
မြို့နှင့်
သိရှိ
one
▁ကန်ပက်လက်
ကျိုင်းရွာ
▁တတိယမြောက်
▁ပျံလွန်တော်မူ
▁တရားမဝင်
▁ခမိ
▁ကိုလိုနီ
▁နက်
02
▁အကြောင်းကို
▁စကားပြော
▁လွယ်ကူ
▁မြို့တစ်မြို့
▁စည်
ဗန်
▁နယ်စပ်
အပေါ်တွင်
▁ဓာတု
22
▁ဂရီဂေါရီးယန်း
▁ထန်းတပင်
io
▁၁၉၂၄
ပိုမို
ပေါ်မှ
ဒင်း
▁၁၉၁၈
▁သဲဖြူ
နေရ
ပွတ်
▁ရုပ်ပွားတော်
▁ပိုင်
အသွင်
မှုများကြောင့်
mo
တစ်ဦးဖြစ်သည်။
တို့ကြောင့်
as
▁ရုရှ
04
▁မြိတ်မြို့နယ်
▁ဂျေ
သာသနာ
▁ရဲ့
▁စက်မှုလုပ်ငန်း
သာကျေးရွာအုပ်စု
များကိုသာ
ကိုးကွယ်
ကောင်းသော
ညွှန်ကြားရေးမှူး
ဂဏန်း
di
12
▁၎င်းတို့မှာ
▁ပြေး
သာရွာ
▁သော်လည်း
ဘာသာဖြင့်
စောင်
▁ကဏ္ဍ
ဟင်
သိုင်း
ကူညီ
▁ဂို
▁မဖြစ်
ရ၍
ဆိုသော်
ကွဲပြား
သစ္စာ
▁ဦးတည်
ဒေဝီ
▁အိမ်ခြေ
▁ဒိုင်
▁ပြည်သူလူထု
ပေးပြီး
▁သားရေ
▁ရွှေကျင်
လင့်
▁နှစ်ဦး
အဖွဲ့က
▁တစ်နေ့
▁ထောင့်
▁ရှိသည့်
▁ဗကပ
▁ပညာရပ်
ဆတ်
▁တောင်ပေါ်
▁နိုင်ငံရေးသမား
▁နည်းပါး
ကာတွန်း
▁Se
ခွာ
▁အတိအကျ
ဖြာ
▁ထွန်း
20
▁ပြောကြားခဲ့သည်။
ခဲ့သေးသည်။
▁၅၉
▁အမှုဆောင်
▁သခင်သန်းထွန်း
▁စဉ့်ကူးမြို့နယ်
ကြွယ်
▁စင်
▁လွှမ်းမိုးမှု
သေးသော
▁စီးပွား
▁အီး
▁သူရဲကောင်း
▁ဆန္ဒ
▁ကြယ်စုတန်းမှ
▁အနီး
ငံ
▁ခေတ္တ
▁ဘုရားကြီး
▁စလင်းမြို့နယ်၊
အချို့ကို
ယွန်
အက
▁ဆဲ
est
သူကို
ချည်း
ွ
▁w
လီး
ချောက်
▁အသုံးပြုခဲ့သည်။
▁ရှိ၍
ဝန်ဆောင်မှု
စံနစ်
တွေ့ရသည်။
▁ကချင်ပြည်နယ်
မှုမှာ
ခွင့်ရ
နှံ
▁မြင့်မား
▁ရှင်သန်
▁၅၀၀
ist
▁စင်း
များစွာကို
▁အရည်အချင်း
▁အရေးပါ
ဟူး
▁တူး
▁အဖွဲ့ချုပ်
▁ကျီး
▁မတ်လတွင်
▁ကယ်လီဖိုးနီးယား
မကောင်း
▁မျက်လုံး
▁အခု
ကိုလည်းကောင်း
ve
နိုင်သည်
ခုနစ်
▁လူတိုင်း
op
နည်းလမ်း
လိမ့်မည်
ပေါ်ပေါက်
ပြက္ခဒိန်အရ
▁Na
တ္တာ
သစ်များ
▁၅၄
ကြရန်
▁အဖြူ
05
▁လုပ်ကြံ
▁ချိတ်ဆက်
ut
စန်း
▁လိုက်ပါ
▁ထုတ်လုပ်မှု
ကျွန်းဆွယ်
▁(2)
သင့်သည်။
အစိုးရအဖွဲ့
▁လှ
ဆရာဝန်
ဘာသာရပ်
▁ဆေးဝါး
ဦးရေ
▁ကု
▁ပုံမှန်အားဖြင့်
ပွန်
ဒုက္ခ
ဇို
ခဲ့ရလေသည်။
ကြီးက
ကျွန်
လုပ်ငန်း၊
▁အမှန်
▁Bu
သူတစ်ဦး
▁ဒိုင်း
ကြော်
▁ရရှိသော
ဂု
အခွင့်အရေး
ချမ်း
▁ဆောင်း
▁(1)
အင်ဂျင်နီယာ
▁အလင်းရောင်
▁ကျွန်ုပ်တို့
ဒုံ
▁စီရင်
ဆိုသော
ပေးခြင်း၊
▁ကားလမ်း
▁ငါတို့
ဟုတ်
များအတွင်း
ဘွဲ့ခံ
မည်း
အမတ်
ရိုက်ကူး
▁နောက်ခံ
▁သင်တန်း
▁ထီးချိုင့်
▁ဗန်းမော်
အတွင်းရေးမှူး
မဟုတ်သော
▁အချို့မှာ
ချယ်
▁မိုးကုတ်
▁ကြည်
▁ရုပ်မြင်သံကြား
ရေတံခွန်
▁အမျိုးမျိုးသော
ပြီ။
ā
့်
▁ဖွားမြင်
▁အချစ်
▁အောက်ဆီဂျင်
▁ဦးအောင်
35
လို့၊
▁ခရီးသည်
တယ်၊
▁ကွမ်
▁၎င်းရွာ
hi
▁နမ့်ဆန်မြို့နယ်
သွားရာ
▁အဝေး
▁ခက်ခဲ
ည်း
ပြုတ်
▁တူးမြောင်း
နည်းကို
ခဲ့ပြန်သည်။
▁ယင်းအား
▁ကျက်စား
▁ပြောပြ
နပ်
▁ဖလမ်းမြို့နယ်
▁ဘုရားသခင်
ကောင်းမွန်
ပူးပေါင်း
▁ပေါ်တူဂီ
၁၀၀
▁ခေါ်သော
ကျွန်းလှမြို့နယ်
မှလည်း
▁မုံရွာမြို့နယ်
ke
▁အများစုမှာ
able
▁သရ
▁စက်တင်ဘာလတွင်
▁အဆုံး
အမည်မှာ
▁လင်္ကာ
▁သဘောတရား
လုံးကို
▁ပထမဆုံးအကြိမ်
ဓား
▁၃၀၀
▁အမှန်တကယ်
မုန်း
ဂျပန်
သူများ၏
▁ဂျာနယ်
ချဉ်
တစ်နှစ်တာ
▁၁၉၂၂
▁နှစ်အရွယ်
▁ဘော်
အတတ်
▁ဒီဇိုင်း
ယုံ
အင်းတော်မြို့နယ်
တင်သွင်း
▁အဘယ်ကြောင့်ဆို
အဆိုတော်
▁စတင်တည်ထောင်
▁ဖိုင်
▁မည်
▁San
ခွင့်ပြု
ပြီးသည့်နောက်
မာန်
▁ကိုယ်ခန္ဓာ
▁အထောက်အထား
နေကြောင်း
▁ဒြပ်စင်
▁မည်မျှ
▁ချောင်းဆုံ
17
▁ပေါ်တွင်
ဘွဲ့ကို
▁သယံဇာတနှင့်
30
013
န္တ
ကျရောက်
ကူးသန်းရောင်းဝယ်
▁ပေါ
ဖျက်ဆီး
▁ဒေ
▁ဟုခေါ်သော
ဒေါ့
စေး
▁ထူးခြား
▁၁၉၂၇
▁ဦးနု
▁စိတ်ဝင်စား
ခြင်းမရှိ
ကြခြင်း
▁သိမ်
ဇံ
East
ဘေ
ဲ
ကျက်
ca
▁လူများ
ယောင်း
နိုင်မည့်
▁၆၇
ညီနောင်
▁လဲ
▁၆၉
▁အများစု
▁လော့
ထွေ
ဌာနချုပ်
▁ဟောကြားတော်မူ
နည်းပညာတက္ကသိုလ်
▁သော်
▁ကျယ်ပြန့်
▁ကလေးဝမြို့နယ်
▁သတ်မှတ်ထားသော
▁စာလုံး
▁လက်မှတ်
▁အာဆီယံ
▁၁၀၀၀
ဟေ
သူများအား
ထာ
▁အနား
▁ပြည်သူများ
ဒီဂရီ
▁ပေါ်လာ
သွားလာ
ရာဇ
▁တောရိုင်းတိရ
▁ပေါက်ကွဲ
ဘီစီ
▁အတွဲ
▁အသုံးပြုသူ
▁အကြီးအကဲ
gyi
ဂါး
▁ယနေ့တိုင်
▁မတူ
တဦး
ထား၏။
နယ်တွင်
012
▁အနံ့
ကချင်
▁လော
▁ဩဇာ
▁တင်ပို့
့စ်
အလင်း
▁စည်း
အမိန့်
တစ်ထောင်
100
▁အခေါက်
▁ချောင်းဦး
▁သရုပ်ဖော်
▁၁၉၂၈
လောက်တွင်
▁အောက်တွင်
မှော်
▁အထောက်အပံ့
လာသဖြင့်
သူတို့၏
တလျှောက်
ဒမ်
▁အကြံ
ခြင်းတို့ကြောင့်
လွှမ်းမိုး
▁ပစ်ခတ်
▁အမရပူရမြို့နယ်
ညှင်း
ရှင်းလင်း
လေယာဉ်
▁Yar
▁ထိုအချိန်
အက်စ်
bo
▁ဘဲ
▁သီ
ပေါင်းစုံ
လေ့ရှိသော
ဆုတ်
စွန်
▁လေယာဉ်ပျံ
ပင်လျှင်
တစ်ဦးဖြစ်ပြီး
▁မြန်မာနိုင်ငံ၌
မျှင်
ဖီး
▁Da
တို့နှင့်အတူ
အထက်တန်းကျောင်း
သို့ရောက်
ကုသ
▁ဟူသည့်
▁တခြား
ity
▁အိုလံပစ်
▁ဒေသဆိုင်ရာ
▁ရင်ဆိုင်
ဖြစ်ပါတယ်။
ဧ
▁ရေဖြူမြို့နယ်
▁ကျင့်
▁ကလောင်
▁သန့်ရှင်း
▁ဘုရင့်နောင်
နှင်
ရှေးဟောင်းသုတေသန
▁ညီတော်
▁သံတမန်
▁မိမိကိုယ်ကို
ی
မို့
▁တွေ့နိုင်သည်။
မင်းသည်
ဂျက်
▁ထိပ်တန်း
os
နည်းပါး
ပေါင်းစပ်
▁စွပ်စွဲ
▁သစ်တောများ
▁နတ်ရွာစံ
▁အကွာတွင်
▁ပွဲတော်
▁သပိတ်မှောက်
▁ဖျက်သိမ်း
▁အတိုကောက်
ခဲ့တယ်။
▁မုန်တိုင်း
▁ပူတာအိုမြို့နယ်
နားလည်
▁အခက်အခဲ
▁အတွင်းတွင်
တိမ်
▁ဂျို
ဖော်ထုတ်
ငွေ့
23
▁လာအို
▁Aung
19
▁Ku
▁ပြား
▁ဆက်လက်၍
ပွဲကို
▁ရှင်းလင်းချက်
▁အသည်း
▁လျှပ်စစ်ဓာတ်အား
▁ခန်း
▁ပျော်
နိုင်စေရန်
▁တရုတ်ပြည်သူ့
ပြုခြင်း
▁ပြည့်နှစ်၊
▁တံခွန်တိုင်
ကုံး
▁အီဂျစ်နိုင်ငံ
▁ခံရ
▁အခမ်းအနား
▁မြက်
▁စာမေးပွဲ
▁ဂါ
▁၆၅
▁ပုန်ကန်
သည်ဟုဆိုသည်။
ခေါ်ဝေါ်
▁မိုးညှင်းခရိုင်
▁အချိန်ဇုန်
စေကာမူ
စွယ်
▁ဖြစ်စေ၊
ပွဲတွင်
yun
တစ်ခုတည်း
▁နယူး
▁ဝေး
▁အဘိဓာန်
ig
▁ရီ
သပြေ
▁ပရိုဂရမ်
way
▁နိုင်ငံခြားရေး
ကြိုးစား
စုစည်း
▁ဒေသတွင်း
▁၉။
▁စိတ်ကူး
auk
ထူထောင်
ခဲ့ပြီး၊
▁ဖြစ်သွားသည်။
အဆောက်အအုံ
ညီလာခံ
▁ကုန်စည်
ism
▁မက္ကဆီကို
ka
▁တရားရုံး
ညှိ
နိုင်သော်လည်း
နေရာကို
ပေလိမ့်မည်။
▁ရွာသစ်
▁အောက်ခြေ
မှုန်
သုံးသပ်
[
▁ဂယ်လက်ဆီ
ပို၍
▁သမင်
▁ဖွံ့ဖြိုးရေး
▁သီပေါမင်း
ဒါယကထေရ်
▁ဖယ်ရှား
သစ်တောဦးစီးဌာနမှ
မတိုင်မီ
▁မော်တော်ယာဉ်
▁ပေါက်တော
▁ဘုန်းကြီး
▁ပြီးစီး
▁အာမခံ
တစ်ဖက်
▁ဂဏန်း
mi
▁ခေါ်ယူ
တော်မူသော
▁များနှင့်
များကလည်း
▁အနောက်နိုင်ငံ
▁တီးခတ်
နေသဖြင့်
ယူ၍
ဗီး
▁၁၉၁၁
▁အတိုင်းအတာ
▁ဖြစ်နိုင်သည်။
▁at
▁ရစ်
31
နေခဲ့သည်။
စာအုပ်များ
▁ကျိုက်
ဦးဆောင်
▁ကိုက်
အစာ
▁လူကြီး
▁ကွယ်လွန်ချိန်
▁မူပိုင်ခွင့်
▁ဆောင်ရွက်သည်။
▁လူဦးရေမှာ
သုတေသန
▁ဘုရားရှိခိုး
▁ဟိန္ဒူ
▁ယမ်း
▁အထည်
ဖောင်
the
သမားများ
ငါးပါး
ကွန်ပျူတာ
▁ကာကွယ်ထားသည့်
အိန္ဒိယ
ကြီးနှင့်
▁ကျောက်တန်း
စားသောက်
▁မှို
▁ရှိသေးသည်။
ယန်ရွာ
▁ဗီယက်နမ်နိုင်ငံ
▁အရာဝတ္ထု
▁ချို
29
▁သင်ကြားပေး
ကုန်သော
ထားသည်ကို
▁ဗြိတိသျှတို့
မှန်း
▁ဗိသုကာ
ဲ့
▁အလို
အမည်ကို
▁တောင်သူလယ်သမား
▁m
ထိန်းသိမ်းရေး
▁မဟုတ်ဘဲ
▁ဘုတ်ပြင်း
▁Be
မခံ
▁ရဟန်းတော်များ
တစ်စင်း
▁၁၉၂၁
▁ဆောမြို့နယ်
ငို
ကျီး
ခပ်
▁လေးစား
ဟုခေါ်သော
▁ရသေ့
▁သီဟိုဠ်
ပင်များ
▁အမြောက်
▁ဂျုံ
လူမျိုးတို့
သုံးပါး
=76
▁မြို့ဟောင်း
▁ကျော
နိုင်ကြ
တိမ်း
▁မေးမြန်း
▁ရှောက်
ကျော့
စာရင်းတွင်
bs
အများ
တစ်ကြိမ်
▁၁၉၁၇
ium
ကိုယ်ပိုင်
▁စုံစမ်း
▁အလုပ်အကိုင်
▁တွေ့မြင်
▁ဂျက်
ထောက်ပံ့
တွင်သာ
▁အဖိုးတန်
▁တပ်မဟာ
Dagon
▁၁၉၂၉
အရှေ့ပိုင်း
▁Di
▁ပိုက်
▁ပြည်တွင်းစစ်
▁စော်ဘွား
▁အနောက်မြောက်
ငလျင်
▁Ho
▁၁၉၁၉
▁ရှောင်
▁တစ်ခုတည်းသော
ချေး
▁သဖြင့်
▁စစ်မှုထမ်း
▁ဗဟုသုတ
▁ကြေးနီ
▁Myoth
▁ချည်
▁တဖန်
▁ဖက်ဒရယ်
ဆော့
▁စင်စစ်
▁ထူး
▁အဘယ်
ပေးပို့
ရမည်ဖြစ်သည်။
▁အဆောက်အဦ
▁စေတုတ္ထရာ
မည့်အန္တရာယ်ရှိသ
▁သက်တော်
▁၁၈၈၅
ကြိတ်
ပဲ့
စ္ဆာန်များအဖြစ်
ah
▁ဆုံး
▁ကွဲပြားခြားနား
ပါရှိသည်။
▁ဖရူဆိုမြို့နယ်
▁ထိုဒေသ
ide
မွေးဖွား
▁စက်မှုလက်မှု
▁ဥက္ကဋ္ဌအဖြစ်
▁မရမ်း
စွာဖြင့်
▁နာဂကိုယ်ပိုင်
▁ဘား
▁ခွဲ
▁အဆောက်အအုံများ
▁ပိုင်း
ကြည့်လျှင်
▁e
▁မောင်းနှင်
ခေါင်းဆောင်များ
ျိုးဆက်ပျက်သုဉ်း
▁ချီးကျူး
▁အကျိုးသက်ရောက်
ဓိ
အလံ
ရေးအဖွဲ့
▁၁၉၂၅
▁နိုင်ငံရေးပါတီ
ဇ္ဇ
ထုံ
▁ဂေါ်
ဒယ်
ယှဉ်
▁သိမ်း
▁လူသိများ
▁ယူနက်စကို
▁ထင်ရှားသည့်
▁လူတို့သည်
▁ဂန့်ဂေါမြို့နယ်
▁ဒီလို
▁ဖွံ့ဖြိုး
▁မြန်မာတို့
▁အာကာသယာဉ်
▁မေလတွင်
ခူ
ဘာသာပြန်
သူ့
▁ကုန်ဆုံးရန်
▁သိပ္ပံပညာ
သိုး
▁ဒေါ်ခင်
အရည်
▁ခန့်မှန်းခြေ
▁ဖော်ပြခဲ့သည်။
▁အလှ
ရုပ်တု
▁အဆက်အသွယ်
သင်္ကေတ
ညင်း
▁ဖြစ်ရပ်
▁အင်္ဂလိပ်စာ
တရားရုံး
▁အကောင်
▁Ya
▁ညောင်ပင်သာ
pe
လိုအပ်
ဒတ်
စိုင်း
တွေရဲ့
▁စိုး
▁သေချာ
▁ပြောင်းရွေ့
▁ဖွား
စေနိုင်သည်။
▁လယ်ယာစိုက်ပျိုး
▁ဆုံးရှုံး
တပ်ရင်း
သူအဖြစ်
လူမျိုးတို့၏
တစ်နှစ်တာ၏
▁ဒသမ
င်္ဂ
ချောင်ရွာ
▁နိုင်ငံသား
▁မြို့ရိုး
တစ်ခုခု
▁သီအိုရီ
ပေးအပ်
▁အချိန်တွင်
▁အောက်တိုဘာလတွင်
အမည်ရှိ
လှပေသည်။
ရာ၏။
ဂင်
ပါတ်
▁တားမြစ်
▁မြန်မာလူမျိုး
အခြေစိုက်
▁လူကြိုက်များ
ပြန့်
▁၆ဝ
▁တည်ရှိနေ
ထားခဲ့သည်။
ကြွေ
စုတ်
▁ကျုံး
▁ဆက်ဆံ
=87
▁မံ
▁အခြေခံပညာ
▁War
▁ဌာပနာ
▁ဟာသ
ဖြစ်ခြင်း
▁ထေရဝါဒ
▁လက်နက်ချ
▁အဆုတ်
ကော်မရှင်
▁ဖူ
ဖွံ့ဖြိုး
ပြင်းထန်
တယောက်
bi
တစ်ခု၏
ဟိုင်း
ရာသီဥတု
▁အရွယ်တွင်
008
မျိုးသည်
▁World
အစည်းအရုံး
လာခဲ့
မျှော်
▁အရှေ့မြောက်ဘက်
▁မချမ်းဘော
▁အနီ
ဟူ၍လည်း
ထက်ပို၍
▁စည်းမျဉ်း
မြို့သစ်မြို့နယ်
ဇု
ထန်း
▁လားရှိုး
▁ဘိုးတော်ဘုရား
လုံခြုံရေး
ခံရသော
▁Y
▁အွန်လိုင်း
မှတ်သား
ဖွံ့ဖြိုးရေး
▁are
▁Vi
နှင့်ဆိုင်သော
▁မော်တော်ကား
▁Wa
ကျိုင်း
ပွန်း
ရေကန်
▁ဩ
သက်သက်
နောက်ဆုံး
▁၅၃
ကန့်
လက်မှတ်
လောကတွင်
လာရာ
▁နှိုင်းယှဉ်
ပါစေ
▁အု
▁သနပ်ပင်မြို့နယ်
▁ရန်ပုံငွေ
ဝန်းကျင်
ဆန္ဒ
နံပါတ်
အသား
▁အမှတ်အသား
▁၆၁
သည့်အခါတွင်
ချ်
▁စပ်ဆို
နေပြည်တော်
▁ပေးခဲ့သည်။
တူရိယာ
▁Lu
ခီးရွာ
ညက်
အသုံး
ဦး၊
ဝှက်
အားကစား
▁ရခဲ့သည်။
▁ထွက်လာ
▁ချုပ်ဆို
ell
နှီးမြှုပ်နှံမှု
မြုပ်
စီစဉ်
▁အရှေ့တောင်ဘက်
▁တစ်နိုင်ငံလုံး
တစ်ရပ်ကို
▁ရထားလမ်း
▁အော့
▁Do
ခေါ
ဖြစ်ပေါ်လာ
▁အရေးကြီး
ip
▁မတူပီမြို့နယ်
ကြိုက်
▁ဘီလူး
မြောက်ဘက်
န္ဒ
!
▁တောက်
▁နောင်အခါ
24
ခဲ့ရပြီး
▁Myo
▁ရေးမြို့နယ်
▁ဝေဒနာ
ပုဂံ
▁အသက်မွေး
ဘန်း
ကေး
▁သက်ရှိ
▁ပညတ်တော်မူခဲ့
▁ပြာ
▁ပြဋ္ဌာန်းချက်
▁ဝင်ရောက်လာ
▁သတ်မှတ်ခဲ့သည်။
ခဲ့ကြ၏။
လိုက်နာ
ပေမယ့်
▁Windows
သူက
▁လောင်းလုံး
▁သခင်စိုး
လူဦးရေ
06
▁လှူ
▁ဖားကန့်မြို့နယ်
▁မင်းတပ်ခရိုင်
▁တို့ဖြစ်ကြသည်။
▁ယင်းတို့သည်
ပညာရှင်များ
▁ယခုတိုင်
▁နန့်
▁လိုင်
ပြည့်စုံ
▁တောင်အာဖရိက
ဌာနခွဲ
▁၁၅၀
▁ဖြစ်ပြီး၊
ဝံသ
ဖြစ်လျှင်
▁ဟူသည်မှာ
ခြင်းမပြု
ကျောင်းများ
အများစုသည်
▁တံ
▁တဲ
▁Ne
▁ထွက်ခွာ
ဆက်ဆံ
017
ဝယ်ယူ
▁အောင်ဆန်း
ဝိုင်
▁လှပ
he
▁အနားယူ
ub
▁ဖြစ်သဖြင့်
▁ခရု
ခြင်း၏
အမှုထမ်း
▁လူပေါင်း
ချီး
ခရီးစဉ်
ပါဝင်ပြီး
▁သာသနာရေး
▁ခရုပတ်ပုံစံ
▁ဆုံ
နေ့တွင်
▁ဆင်ခြင်
မည်ဖြစ်ကြောင်း
▁ဝိန်းကောင်
▁ကနေဒါနိုင်ငံ
▁ဘင်္ဂလားဒေ့ရှ်
tra
ထုတ်လုပ်မှု
လေတော့သည်။
▁အရှိန်
▁သဒ္ဒါ
ရဏ
ok
ပြီးသောအခါ
▁ဆို၏။
▁လဟယ်မြို့နယ်
▁ဦးရွှေ
ဒေသရှိ
ေန
▁အမည်ပေး
ထားရှိ
▁ကုန်သွယ်မှု
▁လှံ
အစိတ်အပိုင်း
▁ရေချို
အချက်အလက်များကို
▁အကျဉ်း
▁ခုခံ
လျော့
les
pa
မြို့ပေါ်ရှိ
▁အဝါရောင်
နိုင်ငံမှ
▁ရန်ကုန်မြို့၊
▁were
ှ
▁ဂေါ့
ဗို
ခဲ့ဖူး
▁ပစ္စည်းများကို
▁အပ်နှင်း
လာရောက်
27
ရရှိသော
tha
▁နိုင်ငံတော်၏
▁ပညာသင်
ရသ
▁အမှတ်တံဆိပ်
ပလ္လင်
မြန်
▁မြင်းခြံ
ခမ်းရွာ
နူး
လည်ပတ်
မက
▁အကြောင်းမှာ
18
▁သံဖြူဇရပ်
များကိုပါ
▁တစ်ပါး
▁ဓ
အာရှ
ဖွဲ့စည်းခဲ့သည်။
▁မဟုတ်ပေ။
အကြားတွင်
ဥပ
▁ချိန်
ကျဲ
▁ထားဝယ်မြို့နယ်
▁ကာမ
▁ဗြ
▁ဖတ်ရှု
▁စပိန်နိုင်ငံ
▁ကန့်သတ်
▁ပရိ
▁ရှေးဦး
▁ပေါင်းစည်း
▁လုပ်ပိုင်ခွင့်
နေ၍
ကြားတွင်
ကစ်
ကြူ
▁သူရိယ
ss
နိုင်ခဲ့ပြီး
နှုတ်
မြှင့်
ကျောင်းတိုက်
စိုင်
▁စည်ကား
မော့
မြန်မာ့
ဟော်
▁ရေကျော်
စုစုပေါင်း
▁အိမ်ထောင်စု
ဝံ့
▁ဖြစ်စဉ်
▁အမတ်ကြီး
▁သီချင်းများ
▁၁၉၁၄
ရာဇ်
▁ထုတ်ပေး
ယမ်
▁ပတ်သက်သော
▁အားကစားကွင်း
▁အလယ်ခေတ်
▁တောင်းပန်
▁ရွာသစ်ရွာ၊
ကျွန်းစုမြို့နယ်
▁စာဆို
တူညီ
▁အနာဂတ်
ပြောကြား
ဂရက်
းရွာ
▁အနံ
ru
လိတ်
▁အနေ
သန
▁ဆည်းပူး
▁ထင်း
အယူအဆ
ထားကာ
▁ကျွန်းစု
▁ဦးဆောင်သော
701501
▁၁၈၈၆
ပတ်ဝန်းကျင်
▁ရွေ့လျား
▁ရှားပါး
▁ယွန်း
▁၁၉၁၂
စကားကို
ခံရပြီး
မိတ်
ရသည်
သမုဒ္ဒရာ
▁စစ်ဘက်
ဆင်းရဲ
▁ကျောင်းတော်
စာလုံး
▁နောက်ဆက်တွဲ
ခေတ်က
sa
ဟိုး
▁ညောင်ကုန်း
▁လမ်းစဉ်
▁ဇွန်လတွင်
ရှိသည်
ဂန့်ဂေါခရိုင်၊
▁ကျူးလွန်
▁ပုဒ်
▁စောင့်
▁အကြောင်းရင်း
▁ဆန်စပါး
▁ဝိဇ္ဇာ
လျှပ်စစ်
▁နျူကလီးယား
▁မှတ်ချက်
▁အဝ
▁စမ်း
▁သိက္ခာ
▁သစ်သီး
မရွေး
▁စိုးစံ
ဝါဒီ
▁ဂျော့
သီချင်းများ
▁အလောင်းမင်းတရား
▁ကျေးဇူး
ကျောင်းသားများ
ဘုရားကြီး
▁အဖြေ
▁၁၉၃၁
▁တချို့
▁ပြင်းထန်
37
▁ဩဂုတ်လတွင်
▁၆၂
သူများမှာ
▁၅၇
မှလွဲ၍
▁ခရီးစဉ်
701502
▁ရေကို
▁ကွန်ရက်
▁ရုပ်ရှင်ဇာတ်ကား
ဒေါ်လာ
▁အိုင်ယာလန်
▁ကြပ်
တစ်ခုလုံး
▁International
ရာနေရာ
▁လက်အောက်တွင်
▁တစ်ခုကို
ခါးရွာ
ကွတ်
အကြီးအကဲ
▁လက်ရှိတွင်
တုန်းက
ကြပါတယ်။
တစ်စု
▁စေတနာ
ဒေသမှ
ထားရာ
▁မန္တလေးခရိုင်၊
ဖလား
မှိုင်း
ဖမ်းဆီး
စမ်းသပ်
int
oke
၂ဝ
▁ဖော်ပြထား
ကျမ်း၊
▁ခံတပ်
▁လင်ဟော်မြို့နယ်
နိုင်သူ
ခဲ့သူဖြစ်သည်။
ချိတ်
▁ရက်လုပ်
အာရုံ
▁ခန္တီးမြို့နယ်
▁မစ်
▁ဟီ
▁ခန့်ထား
သောင်းကျန်းသူ
▁ဥစ္စာ
▁ယုံကြည်မှု
ဇိ
▁ရက်၊
ဘို့
▁ရှယ်ယာ
လောက်အောင်
မျိုးဆက်
▁Ri
ငွေကြေး
ရိပ်သာ
အနီးရှိ
နာစောင့်ထိန်းရန်
ကျုံး
▁အစဉ်အလာ
လိမ့်မည်ဟု
မိနစ်
▁ဒူး
▁သည်လည်း
▁အနှံ့အပြား
တွင်း၌
▁အရေးပေါ်
▁လွိုင်
▁ရဟန်းသည်
▁ကတ်
▁ဖောင်
▁အိုက်
ဗေး
အဆို
အစိုးရ၏
▁Car
စွန့်
ဗူး
နေရာ၌
သွားခြင်း
သေးပေ။
ထောင်း
နှစ်မျိုး
▁ဒီဇင်ဘာလတွင်
ကြပေ။
သူကြီး
▁၁၉၁၆
ထိန်းချုပ်
ပြန်လေသည်။
▁ဖာပွန်ခရိုင်
▁အစရှိသည့်
အပေါင်း
▁ဟင်္သာ
▁အရေးအသား
ley
လာခဲ့ကြသည်။
▁ဝီလျံ
07
▁ဘူး
▁ထုတ်ဖော်
▁ပုဂ္ဂိုလ်များ
မည်ကို
မောင်မောင်
တောင်ပေါ်
နှင့်လည်း
▁ပိတ်ဆို့
▁ဂိုး
08
▁မြတ်စွာဘုရားအား
အော့
▁ငါသည်
▁Mong
▁အစီရင်ခံစာ
ပေးနိုင်
▁ကမာ
▁လယ်သမား
▁တည်ထား
ဝိဇ္ဇာ
▁မိန်းကလေး
▁သူဌေး
နတ်ဘုရား
▁ဟေ
မုံ
ကောင်စီ၏
▁အကွာအဝေး
ကွန်ယက်
▁ကျန်သေး
▁အခါတွင်
▁အစ်
ခဲ့ချေ။
ရှိသဖြင့်
▁၎င်းတို့ကို
ထားရသည်။
▁အဘိဓမ္မာ
၌သာ
▁ကျိုက်ထို
▁ရန်ကုန်မြို့၌
▁အမည်ရင်းမှာ
▁၄၀၀
ခံရသူ
လမ်း၊
▁အံ
▁ကေအိုင်အေ
▁ခြင်္သေ့
ပျို
▁ရှီ
ကိုယ်စားပြု
လျှောက်ထား
ဏ်
ဆုံးသော
▁အသွင်
▁ဦးထွန်း
=73
▁တိမ်ကောသွားသည်။
တုန်
▁ဆက်တိုက်
▁(3)
do
▁Mar
▁နှစ်အရွယ်တွင်
တတ်သည့်
ကျူး
▁ဂျာ
မျာ
စကားပြော
▁ရုပ်သံ
▁Pe
ငင်
40
▁၁၉၃၂
▁200
လှုပ်
ကွ
အင်ပါယာ
သုံးခု
▁မကောင်း
▁ကြောက်
စက်များ
▁St
▁နိုင်ငံပေါင်း
han
နို့
▁တတ်
ခုံရွာ
ကမ်းရိုးတန်း
▁ပြစ်ဒဏ်
▁Chan
▁အမေရိက
▁ဆုတောင်း
▁သောင်
▁ကြွေ
▁သုတ်
အများစု
▁တုတ်
ရရှိသည်။
▁ရွှေကူမြို့နယ်
▁ရုပ်တု
ဖြန့်ချိ
ပြီးသော်
▁လူသားများ
▁ဒေသများ
ရေးမှူးချုပ်
ပိုင်ခွင့်
ကြီးမှာ
အကြောင်းအရာ
စွ
▁ဆိုသူက
လိုက်ပါ
▁အနော်ရထာမင်း
▁တွန်းဇံမြို့နယ်
နံရံ
ကြချေ။
မပြု
▁ကိုင်တွယ်
▁သေးငယ်သော
▁၇၃
မိုးမိတ်မြို့နယ်
▁လုပ်ဆောင်ချက်
နယ်စပ်
▁လောကီ
ဟူ၍လည်းကောင်း၊
▁မူလတန်း
▁ရှိသည်ဟု
မျိုးနွယ်
ခူး
ဒီပ
▁ဖြူ
ရွှင်
မ္
ပြည့်နှစ်
▁လမ်းပန်းဆက်သွယ်
နှစ်ဖက်
▁ရှားတောမြို့နယ်
ပြဋ္ဌာန်း
ကျမ်းကို
ite
စွပ်
▁မလေးရှားနိုင်ငံ
အဖွဲ့မှ
▁ကာကွယ်ဆေး
အမြောက်အမြား
ရိုင်
09
ကျွန်းစု
အကြိမ်
နဂါး
▁အာဏာပိုင်
▁သူတစ်ပါး
ဗျ
တာဝန်ထမ်းဆောင်
▁၁၉၂၆
▁အမည်မှာ
▁အနောက်မြောက်ဘက်
ကလေးများကို
▁ဖမ်း
▁ရှင်း
ဇုန်
▁တုံ
▁အငြိမ်းစား
▁ကနဦး
လှောင်
ကထောင်ရွာ
▁ဖိအား
ဒေါက်တာ
စို့
ab
▁စောင့်ကြည့်
ba
အသံထွက်
▁ဆိုနိုင်သည်။
▁ဦးဘိုး
းဦးကျော်လှ
ညောင်ပင်
ဌ
▁တခု
ပုလဲ
▁အီလက်ထရွန်
▁ဘေးအန္တရာယ်
ဒါရိုက်တာ
36
▁ကျွန်တော်တို့
▁အတိုက်အခံ
ပိန်
ဒေသများ
▁ခွင့်ပြုချက်
ဥရောပ
▁တောင်ယာ
▁Microsoft
▁ဗြိတိသျှအစိုးရ
တတ်သူ
▁country
တော့ပေ။
▁သမဝါယမ
ငန်း
▁ရဟန်းပြု
အဖွဲ့တွင်
▁အခြေခံ၍
ထုတ်ပြန်
▁ဒီမိုကရက်တစ်
အဖွဲ့များ
▁အတ္တ
မြို
ပေါ်ပေါက်လာ
လှည်း
ပင်သည်
▁ပြန်၍
▁ညွှန်ကြားချက်
ner
▁လက်ယာ
နယ်နိမိတ်
▁ဒေါသ
▁အာဏာသိမ်း
ac
▁ဧပြီလတွင်
▁လျှာ
▁အိပ်မက်
▁စွန့်ပစ်
ညှပ်
မိခင်
▁မြေပုံ
မှုရှိ
များပါဝင်သည်။
▁ဖြစ်ကာ
မျော
ဗမာ
▁အကယ်ဒမီ
33
တာဝန်ယူ
▁လန်
▁နှိမ်နင်း
▁အရေးယူ
▁ကုသိုလ်
▁နို
သားတော်
▁ဇော်
ဟွန်း
ကြောက်
▁အမည်တွင်
▁မော်ကွန်း
▁ရုရှားနိုင်ငံ
/&
▁ထိုခေတ်
tab
▁Po
▁နေအိမ်
▁သောင်းကျန်းသူ
နူ
ဇွန်
▁Tan
▁ကောက်ယူ
သက်သာ
မေတ္တာ
တန်ဆာ
မြှောင်
စေရန်အတွက်
သွန်
အရပ်တွင်
သစ်ကို
▁သားဖြစ်သူ
▁ခွန်
မြူ
နိုင်ပေ။
▁ဘင်္ဂလား
▁မြေထဲပင်လယ်
စုဆောင်း
▁ကမ္ဘာ့အမွေအနှစ်
▁ပိုင်းခြား
▁ထိုအချိန်မှစ၍
ပုံပြင်
သိက္ခာပုဒ်၊
▁အစဉ်
ခန်းမ
▁ကြယ်စုတန်း
▁Si
နေပြီ
▁ငန်း
ap
▁ခွဲစိတ်
အိုက်
စီးဆင်း
ဘုရားကျောင်း
မဟုတ်၊
▁မဖြစ်နိုင်
▁အသုံးအနှုန်း
တာကို
မြစ်သည်
▁Myanmar
ခဲ့သည်ကို
ခဲ့ကြသော
လျှော့
▁စုံ
▁တစ်ဦးဖြစ်သည်။
စီရင်စု
con
▁ရလဒ်
ပါဘူး။
▁သာယာကုန်း
လေ့ရှိပြီး
ဂိ
▁တွက်
▁ထိန်
လာစေရန်
▁ထူ
▁ကောင်းသော
မိုးကုတ်မြို့နယ်
အထွေထွေ
▁ကြိမ်မြောက်
ကြဲ
သောအခါတွင်
▁ပေါင်မြို့နယ်
ဇိုင်း
▁ဆွီဒင်
▁ယုံကြည်ကြသည်။
တိတ်
▁အီရတ်
ထားသည်
ံ့
ကိုလိုက်၍
▁အသက်ရှူ
▁ဘူ
▁သွင်း
လာလျှင်
▁လက်ဖက်
▁ထောင်ဒဏ်
▁၆၆
▁အပူပိုင်း
▁သတ္တုတွင်း
စိမ့်
▁သက်သာ
▁ခုကို
▁ထီးလင်းမြို့နယ်
လဲ့
ထရီ
ဇူ
▁သက်ဆိုင်သော
▁နစ်
▁ပယ်ဖျက်
=65
▁Ph
အပူချိန်
▁ပဲခူးရိုးမ
ဦးစီး
▁ထိုခေတ်က
▁ဟင်နရီ
▁China
တို့အကြား
▁နိုင်ငံများတွင်
▁အကြောင်းအရာများ
▁University
▁ကညင်
▁အထက
ach
▁နမ်
လာကာ
▁Gu
▁နံရံ
▁ဗီဒီယို
▁အနောက်တောင်ဘက်
▁နိုဝင်ဘာလတွင်
%)
awng
▁ထူးချွန်
ထစ်
▁ခေါင်းလောင်း
ဂျင်း
ပြီဟု
ဖူးသည်။
ver
အယူ
▁စွန်
စောက်
ပတ်လည်
▁ထီးနန်း
ထောက်ခံ
လေးပါး
▁co
▁ချဉ်းကပ်
َ
နေကြသော
50
ယာမ
▁ကုန်သည်
သစ်ပင်
▁ပါရမီ
ဟိန်း
▁စသဖြင့်
▁အာနန္ဒာ
▁အိမ်နီးချင်း
▁အပြည့်အဝ
▁တင်မြှောက်
တော့ချေ။
▁ဝယ်
▁အက်ဆစ်
စိပ်
▁ဖျော်ဖြေ
▁ရေးထိုး
▁ပြင်းထန်စွာ
▁အဖိုး
▁ယို
အခမ်းအနား
မုန်
▁ဗမာ့
▁အတွေ့အကြုံ
▁တူညီသော
▁ကျောက်တိုင်
▁၁၉၀၀
ဗ္ဗ
▁နှစ်မျိုး
▁တို့ပါဝင်သည်။
သုခ
မြတ်စွာဘုရား
▁Ro
တစ်မျိုးကို
▁မူဝါဒ
ကြရလေသည်။
▁ထိုမှ
▁ကမ္ဘာကျော်
▁ကြားခံ
▁သတ်မှတ်ထား
▁ဆောင်ရွက်ရန်
ပမာ
ad
ခဲ့ကြရာ
စာစောင်
▁အရင်
မည်သော
ခန့်အပ်
ကြကုန်
▁an
▁ကေအင်န်ယူ
မော်ရွာ
▁Java
▁စစ်သား
ဘောလုံးသမား
▁အကျင့်
ဇာတ်လမ်းတွဲ
▁Ar
▁ကျူ
ဉ္စ
▁Te
စက
▁အရေးကြီးသော
▁သတ္တဝါများ
▁အတူတကွ
လိုက်လျှင်
▁ပက်
နေရာများ
▁ရတု
စရိတ်
▁Pyin
hu
အသီး
ထုတ်ယူ
ဗလ
ထုတ်လုပ်ရေး
▁မြို့ကြီး
▁ချိုး
ကျော်ထင်
▁အစိမ်းရောင်
▁စီမံခန့်ခွဲ
အရင်း
သမဂ္ဂ
သလဲ
တော်မူ၍
ရွယ်
ကွမ်
ရှီး
ပြင်သစ်
ရွာမ
010
ထင်ရှားကျော်ကြား
ရာမ
အရသာ
နားရွာ၊
▁အစောပိုင်းတွင်
▁သိမြင်
▁ပိတ်ပင်
▁ပါကစ္စတန်
တော်များ
▁ဖေဖော်ဝါရီလတွင်
▁သောင်း
အလုပ်သမား
▁Pang
▁အန်း
▁ဆတ်
▁အဖြစ်အပျက်
ရကား
စန်
▁မိုင်းလင်း
▁စီမံခန့်ခွဲမှု
နေရာသို့
▁ရခိုင်ပြည်
▁Group
သူများနှင့်
▁ဒေသများတွင်
မွတ်
▁တိမ်
ပြည်နယ်၏
28
▁ခြေထောက်
ပျို့
ယမ်း
▁Nan
▁အင်္ဂလိပ်တို့
▁ထန်တလန်မြို့နယ်
ဇီဝ
▁ဟတ်
uk
▁Pan
နေ၏။
▁အကြမ်းဖက်
▁အမိန့်တော်
▁ဒိုး
▁ဖိ
▁မုန်း
▁နှစ်ဖက်
ရ။
▁pop
ခဲ့လျှင်
▁ရေတွက်
ဖြေရှင်း
é
ပထမဆုံး
▁စာပေဗိမာန်
▁ရည်မှန်းချက်
▁သိမ်းဆည်း
▁လွယ်ကူစွာ
ရသေ့
တဘူတာ
သျှ
ခံတပ်
ဓလေ့
ပင့်
အနေနဲ့
▁For
▁ကျမ်းစာ
▁ဗြိတိန်နိုင်ငံ
▁ကယ်
▁ရုက္ခဗေဒ
မြင့်မား
ဆန့်ကျင်ရေး
=77
▁၁၉၁၅
ki
လာ၏။
▁အင်းစိန်
▁တူရကီ
▁ရှိသော်လည်း
▁ဝိနည်း
▁နာဂ
▁ဝီ
cha
အရှည်
▁အတ္တလန္တိတ်
▁သတိပေး
မရှိပေ။
ဝရ
▁မဟုတ်ပါ။
▁နေရာများ
▁ခရမ်း
▁အကြောင်းပြု၍
▁ပါဝင်သရုပ်ဆောင်
တည်းဟူသော
▁အလျောက်
▁တာဝန်ခံ
နေတတ်သည်။
ပရိသတ်
▁ဂုဏ်ထူးဆောင်
စွမ်းရည်
▁တိုက်ခိုက်မှု
▁ဖခင်ဖြစ်သူ
မပေး
လင်္ကာ
▁တွေ
▁ရာစုတွင်
▁ခြိမ်းခြောက်
ခွါ
▁အဆောင်
701503
45
▁သိရှိရသည်။
In
▁အမျိုးသားဒီမိုက
ကတော်
ရေစီအဖွဲ့ချုပ်
▁မြို
▁မောင်မောင်
လှသဖြင့်
011
▁ဆိုး
▁မော်လိုက်
▁ခေါင်းဆောင်များ
▁ခြားနား
▁ဖြစ်သောကြောင့်
ရိတ်
mer
အမျိုးမျိုးကို
ကွီ
အလွှာ
▁ကျဆင်း
လွင်ပြင်
ဂဲ
▁အမရပူရ
▁ဒေါင့်ကြီး
နိုဘူတာ
အောင်း
▁ဆောင်းရာသီ
မျိုးမှာ
ကိုယ်စား
ဋီကာ
အရပ်၌
39
▁ပဉ္စမ
နေချိန်
▁လျှင်
▁ကုန်းမြေ
▁ခွဲထွက်
▁တစ်လ
ဧကရာဇ်
ရေးဦးစီးချုပ်
စက္ကူ
သင်ယူ
▁ခုန်
မိမိ
▁အရှေ့မြောက်
ရှူ
32
ဟုခေါ်
▁ကော်ပိုရေးရှင်း
▁ဦးစွာ
▁မွတ်
▁မိုက်
အကျဉ်း
ကွန်မြူနစ်
ရပြန်သည်။
▁ဘုရင်မ
▁ကရင်အမျိုးသား
မည့်သူ
▁ပေပင်
ပလာ
▁Pro
▁မကျီး
▁များပြား
=72
ကြီးတွင်
▁သဘင်
▁ကေအင်န်ယူပါတီ
▁စကားကို
နိုင်ငံရှိ
တပည့်
မြှုပ်
▁အဋ္ဌကထာ
ပုံအခြေခံဥပဒေ
▁ကျယ်ပြန့်စွာ
▁လွှမ်းခြုံဧရိယာ
ရှင်သန်
▁web
ဖော်ပြထားသည်။
▁လက်ခံကျင်းပ
▁ထို့အတူ
▁အပြောင်းအလဲ
▁အိန္ဒိယနိုင်ငံ၊
▁လက်ဆောင်
မွဲ
▁အဆိုပြု
▁အတွင်းရှိ
တွင်လည်းကောင်း၊
▁ဆယ်စုနှစ်
▁တိဗက်
▁တိုးတက်မှု
▁အဆိုအရ
မပါ
ယခင်
▁ကွယ်လွန်သွား
ကျဆုံး
▁အမေ
▁လက်တင်
ပြီးဆုံး
အယူဝါဒ
▁ထိုစဉ်
မှောက်
ကြကုန်၏။
▁ခုနှစ်များတွင်
▁သယ်ဆောင်
ပျံသန်း
▁အသုံးပြုရန်
လန့်
ပါပဲ။
လှန်
တက္ကသိုလ်တွင်
▁ကယားပြည်နယ်
နှောင်းပိုင်း
▁ထူးခြားသော
ဆိုသည်။
သွားသောအခါ
▁နှစ်ကြိမ်
သူတို့သည်
နှဲ
ကြပေသည်။
gon
သည်ကား
နိုင်၍
▁ထိုသူ
▁လွတ်လပ်
▁ဝန်းကျင်
မယား
စစ်ဌာနချုပ်
▁မျိုးရိုး
▁မရှိချေ။
der
▁မြန်မာစာပေ
—
တိုက်ခိုက်မှု
▁it
34
▁မင်းဆက်
▁ဘုန်း
ဂွန်
ကြိုင်
▁ဖြစ်ပေါ်စေ
▁တစ်ခါ
▁Con
▁ဖွဲ့စည်းထားသည်။
▁နှစ်တွင်
▁ဓာတ်ဆီ
ထံ၌
▁မွေးစား
နိုက်
ci
ရေးသားခဲ့သည်။
▁ကမ္မ
▁စတုရန်း
▁၁၉၆ဝ
ရခြင်းမှာ
မနေ
▁အိန္ဒိယပြည်
ဉ်
နိုင်ရေးအတွက်
ဝိဟာရ
ဆဲလ်
▁ကျမ်းဂန်
▁အရင်း
ထပ်မံ
▁မောက်
သဘောထား
ish
▁Ch
အုပ်စိုး
စူး
▁ဇူလိုင်လတွင်
▁ဗုံး
မှုတွင်
▁တရားသူကြီး
ဖြစ်ရပ်
နေရသည်။
ရည်ရွယ်ချက်
ဖြစ်ပြီး၊
ငဲ့
ဟုန်
▁ဘယ်လို
▁ရက်နေ့မှ
▁အစု
ခံစား
▁တက်ရောက်ခဲ့သည်။
▁စွမ်းအား
တရပ်
▁ဖု
▁ကွာ
▁သမာဓိ
▁ရန်ကုန်သို့
▁ကြုံ
သူများအတွက်
မွေးမြူရေး
ဆရာမ
မြီး
▁ဖေ
▁ဆန်း
▁စာနယ်ဇင်း
▁ပထမကမ္ဘာစစ်
▁စံပြ
▁ရှေးအကျဆုံး
▁သထုံ
က္
နေသည်ဟု
▁ဆိုလို
▁ကြွက်
ot
ji
ပေးရ
▁နန်
▁သရက်တော
▁ပိဋကတ်
▁အရွယ်ရောက်
▁ပခုက္ကူ
▁အနိုင်ရရှိ
▁ဆိုလေသည်။
အစိုးရသည်
သားတို့
▁တေးဂီတ
▁မတ္တရာမြို့နယ်၊
▁ရွာတစ်ရွာ
▁ကိုလိုနီခေတ်
▁Ja
▁ကွမ်းခြံကုန်း
စတီ
တပ်ဆင်
ဂျို
တပ်ဖွဲ့များ
▁သိကြားမင်း
သွားသည့်
လိမ့်
▁အတွင်း၌
▁ပင်း
သွားရောက်
စေခြင်း၊
▁၁၀။
=68
▁နိမိတ်
ဟမ်
▁မှန်ကန်
▁ပဋိပက္ခ
Ma
အဆင့်အတန်း
လူငယ်များ
▁လန်ဒန်မြို့
များပြား
▁ရေနွေးငွေ့
up
▁၁၈၉၆
▁အမြန်
▁သယ်ယူ
လူသား
ရပေမည်။
▁၁၉၁၃
▁တွင်လည်း
အောက်ပိုင်း
နှ
South
▁Ni
▁ဒဏ်ရာ
ဓာ
ဇွန်း
▁၈၈
▁မျိုးရင်း
lu
▁အပြုအမူ
▁Sin
ရပေသည်။
▁လှိုင်
ထွတ်
ရာတွင်လည်း
ဆွမ်း
တလင်း
နည်းတူ
ဂျေ
▁ပြစ်မှု
ဩဇာ
▁ငယ်စဉ်ကပင်
▁အခွံ
သီအိုရီ
ဟစ်
▁ဒါကြောင့်
ရှိကြသည်။
လွမ်း
နေး
မကျေးရွာအုပ်စု
▁မြောက်အမေရိက
▁အပြင်းအထန်
▁မြင်းမူမြို့နယ်
ဟိုင်
▁စာပေများ
ေး
▁၁၉၃၄
▁တက္ကသိုလ်မှ
▁ကျန်းမာ
▁အချက်အချာ
▁ခုံ
သက်ရောက်
လုတ်
စေလွှတ်
ပေးနိုင်သည်။
မယ့်
▁သောအခါ
▁အကူအညီဖြင့်
si
▁အဓိပ္ပာယ်မှာ
နာဂ
▁Lo
သေနတ်
▁တတ်မြောက်
▁ရှုပ်ထွေး
▁ကြေးနန်း
မြက်
▁လက်မခံ
အသုံးချ
ဘုန်းတော်ကြီး
အကျင့်
ဝံ
ဝေဒနာ
ခွဲ၍
▁ဆန္ဒပြ
တစ်ဝက်
core
နက္ခတ်
တစ်လျှောက်တွင်
▁An
▁ညဉ့်
▁ကမ္ဘာမြေ
တကာ
▁ဝူ
အမ
▁မြေး
ဒီဇိုင်း
▁အရုပ်
တိရစ္ဆာန်
▁ကာတာ
▁ခေါင်
နှင့်ပတ်သက်ပြီး
=64
▁အစာအိမ်
▁ဂိုဏ်း
ဒေဝ
မြှောက်
▁တားဆီး
▁ဦးကျော်
▁နာယက
မလေး
▁ဟုတ်
▁စွန့်လွှတ်
တစ်ရာ
▁အဝါ
အမှန်
တွင်ပင်
▁ထိန်းသိမ်းထား
ချိုင့်
▁ပြီးဆုံး
▁နောက်တွင်
and
မှုတ်
▁အသိ
▁ခိုင်း
လျှော်
▁သိသာ
▁ဟက်
▁ပုန်း
▁လူသိများသည်။
▁အော
38
ဗိုလ်ချုပ်
နိုင်သောကြောင့်
အနှံ့
▁မှတ်ယူ
တစ်ဦးအဖြစ်
▁အမေရိကတိုက်
▁ရှုံး
တစ်ချောင်း
ပေးခြင်းဖြင့်
▁သက်သေ
▁ကမ္ဘာ့ဖလား
▁Ca
▁ညောင်ဝိုင်း
▁ဆင်နွှဲ
▁ဖူး
▁၇၂
▁Web
▁ဗုဒ္ဓဘာသာဝင်
ထွင်း
စာဆို
ဝတ်ဆင်
▁ချိ
ll
ai
ရတု
မပျက်
မီဒီယာ
▁နှောင်းပိုင်း
▁အစိုးရမှ
ကျီ
▁မြို့စား
တစ်ဆူ
▁ထိတွေ့
▁အတိတ်
▁ပကတိ
ခံရသည့်
▁မြဝတီ
နေလေသည်။
ရှက်
▁မိဖုရားကြီး
သေချာ
ကျော်ကြား
ဆိုရင်
▁မိကျောင်း
▁ဆိုတဲ့
ဖော
အဖွဲ့နှင့်
▁ခရစ်တော်
▁နောင်တော်
စာကြည့်တိုက်
▁ကြီးထွား
▁ကုက္ကို
▁သျှင်
ris
ခြည်
အနား
ချူး
ဂွ
▁လူတန်းစား
▁မင်းလှ
ရလျှင်
တွယ်
▁ရုပ်သိမ်း
▁ဖမ်းယူ
▁သုံးနှစ်
နှစ်အရွယ်
▁စာစောင်
ဗက်
▁Ywar
▁အပူပိုင်းဒေသ
အဖြစ်လည်း
▁တစ်ကမ္ဘာလုံး
ရန့်
▁ပန်းပု
47
▁လိုက်၍
အသုံးအနှုန်း
ပြုကာ
မြောက်ပိုင်းတွင်
စာမေးပွဲ
▁ထု
▁ကူးပြောင်း
▁5
▁ရက်မှ
လိုက်ပြီး
ron
▁မွမ်းမံ
သင်္ကန်း
အရေးအသား
နိုင်ချေ။
ယ်ယူပို့ဆောင်ရေး
စိတ်ဓာတ်
လှော်
▁ကြေညာချက်
▁ဖြေဆို
နှောင်း
နိုင်စွမ်းရှိ
▁ကီ
im
ရာစုနှစ်
▁ဆပ်
ated
▁ဆွေ
▁အဆင်း
လာအောင်
နိုင်ပါတယ်။
▁ကမ္ဘာစစ်
▁လူငယ်များ
▁အင်ဂျင်
အကူအညီ
lan
▁လိုအပ်သည်။
▁လမ်းညွှန်
ရိန်း
အမြင့်ဆုံး
▁ထောက်ပံ့ပေး
တွေး
ပင်များကို
ဟုန်း
ကုန်သည်
▁၁၉၁၀
ခေါ်ဆို
န္
▁အပေါက်
ဇေယျ
ous
▁မုဆိုး
မိန့်
▁သက္က
ဖွဲ့စည်းပုံ
ဖြစ်ထွန်း
▁၉၅
ဖြစ်တဲ့
များမှာလည်း
▁အယ်လ
▁အငြိမ့်
▁18
မျက်စိ
လာခဲ့ပြီး
▁တိုင်ပင်
▁ဇန်နဝါရီလတွင်
▁ဟိုတယ်
▁ကျောက်မဲ
ن
▁နှစ်ယောက်
▁ဘုရားလောင်း
▁ကလပ်
တမျိုး
▁ဆီးချို
ဆေး၊
နိုင်ငံနှင့်
▁လွမ်း
ill
▁အက်ဥပဒေ
ချုံ
▁စတင်ဖွဲ့စည်း
▁ကြာအင်း
မင်းလက်ထက်
yan
▁ဖက်ဆစ်
ster
▁တရားဟော
▁ရေတွင်း
မထား
စေနိုင်
▁He
=90
လူမျိုးများသည်
▁ထန်းပင်
▁အတော်များများ
▁ရပ်တန့်
▁ကြိုးပမ်းမှု
▁မိုင်းဖျန်
▁ငါ့သျှင်တို့
▁ချက်ပြုတ်
ပါသည့်
ပလောင်
▁ဒေးဗစ်
=59
tu
▁အတော်
▁တင်ဆက်
▁Mu
▁Jo
▁ပြည့်စုံသော
▁ကွပ်ကဲ
▁ခဝ
ကြပြန်သည်။
▁သတ်မှတ်ထားသည်။
ဇောင်း
▁တို့ဖြင့်
တို့ကား
▁ကုန်သွယ်
▁ဘိ
သတ္တိ
ရှိလျှင်
တစ်ဦးက
ကျူးလွန်
▁သီဟိုဠ်ကျွန်း
▁လွှဲပြောင်း
ခဲ့ရသော
▁not
▁Z
▁ချစ်ခင်
▁အတွင်းပိုင်း
သင့်ကြောင်း
po
ko
▁မျိုးဆက်
▁လောက၌
▁နှာခေါင်း
လူမျိုးစု
ခရီးသွား
▁မျဉ်း
၅၀၀
▁Thit
တို့ကဲ့သို့
အများစုမှာ
ဘောင်း
တံတိုင်း
gen
▁အစားအသောက်
မတူ
အုပ်စုတွင်
ကြီးမားသော
▁ရက်နေ့အထိ
▁၂၀၂၂
▁သက်ရောက်
ထားသော်လည်း
ညစ်
ထားသဖြင့်
▁ဟိုက်ဒရိုဂျင်
ဆုံးဖြတ်ချက်
ကြည်း
ဂျွန်
▁နှမ်း
▁အလုပ်သမားများ
▁မော်လိုက်ခရိုင်
ရသော်လည်း
လွတ်မြောက်ရေး
▁ဗိုလ်မှူးချုပ်
▁အမွှေး
အယ်လ်
ယိုင်
▁စာအုပ်ကို
▁ဝိန်း
▁ငှက်ပျော
▁ယင်းတို့မှာ
▁ရံဖန်ရံခါ
▁ရန်ကုန်တိုင်း
လိုက်ခြင်း
စကာ
သာဖြစ်သည်။
ခီ
မှအပ
▁အသေးစား
တိုးချဲ့
▁၁၉၇ဝ
▁တယော
▁မည်သူ
မြွေ
နှင့်ပတ်သက်သော
▁ဝန်ခံ
ov
▁မတရား
▁၁၈၉၄
ဏာ
▁အနက်ရောင်
▁သတ်မှတ်ထားသည့်
▁၁၁။
▁အသင့်
မထေရ်
အခြေ
▁ဘင်
ွီး
မြို့ဖြစ်သည်။
ဌာနတွင်
lin
▁တုံ့ပြန်
=207
▁တယောက်
="207
ရက်ထပ်နှစ်ဖြစ်
▁ဥပဒေအရ
ဂေါ်
▁သာသနာ့
ဆောင်ရွက်မှု
ကြီးတစ်ခု
ag
▁ခလုတ်
ho
▁အသုံးပြုသည့်
▁ပြုလုပ်သော
▁လုပ်ငန်းတာဝန်
လျာ
နိုင်ကြသည်။
အဖြစ်လည်းကောင်း
▁John
▁အမွေး
ဖှ
▁လှည့်ပတ်
▁ပျံ
မရှိ၊
တူးမြောင်း
▁သဲကုန်း
=89
ကစားသမား
▁တောခို
▁ပန်းချီဆရာ
ပုံနှင့်
▁ဖြစ်နိုင်
ဘွယ်
▁ပုံဖော်
သက္ကရာဇ်
၃ဝ
▁ခန္ဓာ
▁လိပ်ပြာ
▁အဖွဲ့ဝင်နိုင်ငံ
နေထိုင်ကြသည်။
တွေ့ဆုံ
ဘုရင်၏
▁ဒုတိယဥက္ကဋ္ဌ
လုပ်ငန်းများတွင်
▁၁၈၈၄
▁ဘတ်
▁စန္ဒရား
အပြစ်
▁ပြန်ကြားရေး
ea
▁Lay
တင်၍
▁Nar
▁ကစားသမား
ပေါက်ရောက်
▁x
စုကျေးရွာအုပ်စု
▁တုံး
၌မူ
နှစ်လုံး
=138
တန်ခိုး
▁အိမ်ရှင်
▁ဘောင်
="138
▁ကြ
ရုံး၊
အားထုတ်
ရွာဟောင်းရွာ
လိုသည့်
▁ပညာရှင်များ
ဝင်ငွေ
ဆက်ခံ
▁အမဲလိုက်
▁which
▁ယှဉ်
▁ဖြတ်ကျော်
ဗိမာန်
▁သမိုင်းတွင်
▁ဒုံး
ဘွဲ့ရ
ဟား
ဇော
ပြန်ရာ
ဖိ
ယေ
နေသည်
▁သံလွင်
▁ကွဲ
▁ပထဝီ
▁ခံစားရ
▁အရှေ့တိုင်း
ကစ၍
ကျကျ
▁ကတိ
ရွေ့
▁ပျို့
▁ဆင်တူ
42
▁ကျောက်ဖြူ
▁ဟူး
ပင်ကို
▁ပြွန်
▁ရေကြည်
ဂျီး
▁Pu
▁ဖုန်း
ခဲ့ပြီ
▁အမျိုးသားဥယျာဉ်
▁သံလွင်မြစ်
ဆိုတဲ့
တတိယ
တော့၏။
ငုံ
▁လေထု
▁ဖြည့်စွက်
▁အငြိမ်းစားယူ
▁နေမျိုး
ဒွန်
▁တွေ့ရသော
▁မီးတောင်
‡
လူတန်းစား
▁မလေး
▁Hpa
▁အသျှင်
ခြ
စည်းရုံး
▁၁၈၉၅
ဘွား
▁သက်ရောက်မှု
လျ
▁ရာထူးမှ
ကုန်၏၊
ဂရိ
ဈ
ဒြပ်စင်
ပျံ့နှံ့
▁အရိပ်
▁သုံးခွ
ဖြစ်၍၊
ကျောင်း၊
don
▁လူတစ်ယောက်
ခုခံ
ိမ်း
ဒုံး
▁ကဗျာဆရာ
စွမ်းအား
၂၀၁၀
=66
အဆောက်အဦ
တစ်ခုလုံးကို
လုံးဆိုင်ရာ
▁လိုင်း
လွှင့်
သောအားဖြင့်
▁ဓာတ်တော်
Pa
ခြယ်
▁ဂါထာ
ချွတ်
သူငယ်
အဖြစ်မှ
နှစ်ခုကို
မြန်မာနိုင်ငံသား
▁ခန့်က
▁ရောဂါပိုး
▁သက်ဆိုင်
ကျောင်း၌
သမ
အနာ
ja
▁ငြင်းပယ်
den
▁တစ်ခုခု
ရှေ
စဉ်းစား
▁တည်းဖြတ်
▁တစ်ရပ်
ပါဠိ
▁ချင်းပြည်နယ်
ို့ဗမာအစည်းအရုံး
သို့ရောက်ရှိ
သည့်ပြင်
▁လစ်
▁ဉာဏ်တော်
▁သာယာဝတီ
▁ပိုမို၍
အရပ်ရပ်
တစ်ခုသည်
ဝါဒကို
BC
လှမ်း
▁သာစည်
မွေ
ဇီးကုန်းမြို့နယ်
▁အီရန်နိုင်ငံ
လေ။
သည်ထက်
▁ဘုရင်မင်းမြတ်
တဲ့အခါ
▁စွဲ
လျှင်လည်း
လက်ထပ်
တစ်ခုမှ
▁အိုက်ချန်
=83
စာကို
ဂုံ
မျ
လာသည်ကို
▁မီးရှို့
ကြသူများ
ရေတပ်
အုပ်ချုပ်ရေးမှူး
▁စာရင်းတွင်
▁ချစ်ကြည်ရေး
မှသာလျှင်
အသိုင်းအဝိုင်း
ဟူ၍လည်းကောင်း
▁စုဝေး
▁ဖြစ်ကြ
▁ဆံတော်
တို့ကလည်း
▁မား
▁ယန်း
▁တီးမှုတ်
▁Black
ဒိန်
44
ရာဒေသ
=98
▁ပေါက်ရောက်သည်။
ခုနှစ်မှ
သွားရန်
ဆရာတော်ဘုရားကြီး
ကျွမ်းကျင်
▁ဗောဓိ
▁ဟိုတောင်း
▁မန့်
▁ကာယ
စ္ဆ
▁မူတည်၍
▁မြေဩဇာ
▁ညာ
မာလာ
▁ခြင်
▁ထုတ်ဝေသော
▁ပြဆို
ထွက်သည်။
စာများ
▁ကျွန်မ
ချိန်၌
▁ကွက်
▁ပူးပေါင်း၍
▁ရှားတော
ဏ္ဍ
ဒဏ်ကို
ကြသည်ဟု
▁သာမက
ကျို
လမ်းမကြီး
တူးဖော်
▁ကြည်ညို
▁ဆောင်ရွက်ခဲ့
လွိုင်
ထမင်း
▁ဥပဒေပြု
ဆောင်းပါး
▁ရှိသည်
နွမ်း
▁အခြေပြု
လျန်
▁၁၈၅၂
ဇက်
▁t
ရုပ်ပွားတော်
▁အကွာ
▁ပုံနှိပ်ထုတ်ဝေ
ဖိတ်
▁အသိုက်
sk
ရှဲ
ial
▁မူး
ပတ်လုံး
▁သပိတ်ကျင်း
ရတဲ့
▁မြို့နယ်တစ်ခု
▁အပေါ်တွင်
▁ရွာငံမြို့နယ်
▁ကျွန်ုပ်
▁Za
▁ဖိတ်ခေါ်
▁ကြွ
ကြံစည်
▁မရှိဘဲ
မျိုးရိုး
▁စေ့စပ်
ဗားရှင်း
မှုဆိုင်ရာ
▁ရှိကာ
ခြင်းခံခဲ့ရသည်။
="83
သွား၍
▁အားလုံးကို
▁အဘ
ရေကျော်
▁သယ်ယူပို့ဆောင်
▁တရုတ်နိုင်ငံ၊
41
ue
ဆင်ခြင်
လှယ်
လိုက်ရာ
ခံခဲ့ရ
လွှား
ကြိုးပမ်း
▁ကွေ့
လေးများ
ဇယား
▁အလီ
သော်လည်း၊
တစ်ခုဖြစ်
▁ဒစ်ဂျစ်တယ်
▁နမူနာ
▁ဖိနှိပ်
▁အတန်း
▁၆၈
▁ဖို
ခံ၍
နော်ရထာ
▁ရွာသစ်ကုန်းရွာ
ဒပ်
ရည်ညွှန်း
▁ဆေးတက္ကသိုလ်
ပြုံး
မလာ
တောင်ဘက်
ညှာ
▁အခြေချ
အဆင့်ဆင့်
တ္တိ
▁system
ချေား
ee
▁heavy
▁အစွန်း
▁နီးပါး
▁မြောင်မြို့နယ်
အလျား
▁ဆီမီး
▁နု
▁သဲကန္တာရ
ရှိကာ
▁တည်ထားကိုးကွယ်
ဓာတ်ပုံ
ရေးဆိုင်ရာ
မြို့ရိုး
▁ကိုယ်ဝန်ဆောင်
ဆုပ်
▁ယေဘုယျ
ရာထူးကို
ရဲဘော်
ကန့်လန့်
▁အကျယ်အဝန်းမှာ
▁ဟူ၍လည်း
တရားကို
မုနိ
▁လှည့်
ဆွယ်
ဒါယက
ting
▁အတတ်ပညာ
▁ဦးတင်
▁အသုံးဝင်
▁ကွန်ဂရက်
▁မိုင်ခန့်
ဟယ်
▁ချင်
▁၁၈၈၂
ဓဇ
▁တည်ထောင်သူ
▁ညို
လက်ရှိ
ye
▁ပိ
အကျယ်
▁ရက်နေ့၌
တိန်း
015
▁ဆဲလ်
ow
အန်း
စာမျက်နှာ
act
ر
က်စ်
▁ဂျိမ်း
▁ထွက်သည်။
နိုင်ငံများနှင့်
▁တစ်ခုနှင့်တစ်ခု
▁တိဘက်
အရိုး
▁တစ်လုံး
ချထား
=69
ခြင်းငှါ
▁အထင်ရှားဆုံး
▁ကျိုး
▁အစိမ်း
▁ရပ်စဲ
▁Burma
သတိ
▁ဈာန်
▁ထမ်း
▁ခန့်အပ်ခဲ့သည်။
ပြည်ထောင်စု၏
▁သေးငယ်
ဒွန်း
ချား
ကျိုက်
▁On
တလုံး
နေထိုင်ရာ
▁ပိုင်ဆိုင်မှု
▁ပြက္ခဒိန်
▁ဇင်းမယ်
ချန်း
▁အင်ပါယာ
ဖြစ်သွား
င်္
▁မကျေနပ်
▁ပေါများ
ထားသည်မှာ
▁စလင်း
▁လှုံ့ဆော်
▁နောက်မှ
▁Cha
ဇယ်
▁ဖီ
မဝင်
နေသောကြောင့်
▁Ko
=224
▁ဆောင်ဖမြို့နယ်
ဒ္ဓ
မူပိုင်ခွင့်
▁တစ်နိုင်ငံ
▁အကြီးမားဆုံး
="224
▁ဆိုသူ
တော်ဝင်
▁ထွက်ပေါ်လာ
▁ကွာဝေးသည်။
43
701504
သိပ်
▁အုံ
▁တင့်တယ်
▁နှုတ်ခမ်း
▁ဂျင်
မြား
▁မွတ်စလင်
ေယျ
▁ဆိုက်
ဖြင့်လည်း
နိမိတ်
▁ပြုလုပ်ထား
ရပ်တည်
=92
အွန်
ပုံစံများ
▁ပြီးလျှင်
▁ကက်
▁ပြုလုပ်ကြသည်။
ဂိတ်
▁လိုက်လံ
ရွဲ
▁စိုင်
▁နယူးယောက်
သယ်
ပေါ်မူတည်၍
သွန်း
မွေးမြူ
▁ဒါး
ပေမည်။
လိန်း
▁သာစည်မြို့နယ်၊
တွန့်
ပေါ်မှာ
လိုက်၍
ကွပ်
စိုက်ပျိုးကြသည်။
▁အဘယ်ကြောင့်
အသင်း၏
ကျေးဇူး
▁တောင်ထိပ်
▁ကစားနည်း
ပါဒ
▁ချား
ကျည်း
အယ်လ်ဘမ်
ဗြိတိသျှ
▁ဒင်္ဂါး
▁အာဟာရ
mar
သန့်စင်
သားကို
▁လိုလား
▁ဆွဲဆောင်
ထန်းတပင်မြို့နယ်
▁ယု
tic
▁နှစ်နိုင်ငံ
မှပင်
48
▁များ၏
ထွက်လာ
Re
▁အသက်ရှင်
▁ဆွတ်
လှပ
သမ္
ကျောင်းမှ
▁အလျင်
▁နတ်ဘုရား
▁ကာလအတွင်း
နေအိမ်
▁ဆုံးမ
ကျောင်းတော်တစ်ခု
▁ခိ
▁ဆင့်
▁National
▁Kha
▁နည်းဥပဒေ
ရှေ့တွင်
တွေ့ရှိရ
ပြိုင်ပွဲတွင်
▁မျှော်စင်
ကျန်ရစ်
သွားကြ
IA
▁အတွင်းဝန်
သောသူ
▁အလယ်တန်း
မယ်။
လေးစား
တရားဝင်
မှုများနှင့်
တောင်းဆို
ကောင်းစွာ
ခန့်တွင်
ဖန်း
အခွန်
သေးချေ။
▁Lar
▁ထုလုပ်
ထူးခြား
▁အတောင်
▁ဂုဏ်ထူး
ခြင်းခံရ
▁ဖော်ပြသည်။
▁ရောစပ်
▁ဖဲ
မုန်တိုင်း
ဂျ်
▁ဗီတာမင်
▁ရာမ
တင်ပို့
▁တရုတ်၊
ဂေါင်း
▁ပြည်မြို့နယ်၊
ပြည်ထောင်စုသမ္မတ
တရားလွှတ်တော်
လိုက်ကြသည်။
ည်
တစ်ခါ
▁၁၈၇၈
▁၁၈၉၈
▁ပြင်သစ်၊
▁နော်
တုပ်
▁လူး
၏သား
ထိခိုက်
="65
▁၁၈၉၂
သိမ်းယူ
=95
▁ကာကွယ်ရန်
▁သာယာကုန်းရွာ
လျက်ရှိပြီး
▁အလှူ
▁ဂျပန်တို့
=210
by
▁ကောင်မင်ဆန်း
သန့်ရှင်း
ven
▁ကျီ
ကွေ
နည်းမှာ
များဟု
▁ဝက်ဝံ
▁ဆောက်လုပ်ရေး
လူများ
vo
ဗုံး
ပြည်ထောင်စုတွင်
ning
နိုင်ငံကို
လားဟူ
▁တိမ်ကောသွား
ဆန်သော
များပင်
ဂယ်
▁ရာဇဝတ်မှု
ဖြစ်ရန်
ဟောင်
▁ဝန်ဆောင်မှုများ
▁ထိုသို့သော
ပညာသင်ကြား
▁အဖွဲ့၏
လာသည်
▁အရှေ့တောင်
မဟုတ်သည့်
ငြိမ်
▁နေရောင်ခြည်
ick
ခြင်းများကို
▁ဂျူ
▁အပတ်စဉ်
ဝစ်
ပါဝင်ခဲ့သည်။
▁မိုးမိတ်
ဖြင့်လည်းကောင်း၊
▁အမြတ်
▁အခြေအနေကို
▁ဗုဒ္ဓသာသနာ
▁တပ်မှူး
ten
▁ညီညွတ်
▁သင်ကြားခဲ့သည်။
အချက်များ
ဍ
="87
▁မုတ္တမ
▁အုတ်ဖို
▁လူမျိုးရေး
▁ဝပ်
▁အရပ်ရပ်
ဗယ်
▁ဖြစ်သွား
ခဲ့ကြရသည်။
ပေးထား
▁ကဗျာကို
ို
▁ကုန်ကျစရိတ်
▁ဝီလီယံ
စကီး
မြစ်၏
အလှ
မျောက်
▁ညီအစ်ကို
ဆန့်
=58
ဘုရား၊
မပါဘဲ
▁ဆင်ဖြူရှင်
▁စင်ကာပူနိုင်ငံ
▁ဦးစိန်
ဘက်က
ကောင်းကင်
တွေ၊
▁ချီးမွမ်း
▁လျှော့ချ
▁မဲဆန္ဒနယ်
နယ်၊
▁မှူးမတ်
အစ်
ကြီးအား
▁pa
များပါ
ပေးခဲ့
ကုပ်
ယော်
ချွန်း
ထွက်ရှိ
▁Pauk
ဖြန့်
▁မြင်ရ
ဘုန်းကြီး
▁ရှက်
▁ရွာမ
အရွယ်အစား
▁ပို့ချ
▁အာဏာရှင်
▁Go
အရှေ့ဘက်
▁တပ်ဖွဲ့
▁၁၈၈၇
▁ဘဒ္ဒန္တ
▁Kaw
▁ခုနှစ်မှာ
▁မှော်
▁၁၈၉၁
ခေ
ကြင်
ဖိအား
ကြာမြင့်
▁ပြုလုပ်ထားသော
▁တစ်နေရာ
▁ထုတ်လွှတ်
အကြံ
▁အလိုရှိ
ရှို
▁ကိလေသာ
=149
▁စည်းရုံးရေး
▁Har
="149
▁စန္ဒ
▁ပြင်းထန်သော
Bhone
▁also
▁ဆံ
ကြီးသော
▁ဦးစားပေး
တာဝန်ကို
▁လူ့အဖွဲ့အစည်း
▁သံချို
ix
တွင်းရွာ၊
▁ထိန်း
ရိယ
ဂါထာ
▁သုည
တာက
▁စနစ်ကို
▁၁၉၀၁
▁၉၆
ပြီးစီး
နည်း၊
▁စကော့
▁အတွင်းသို့
ိုင်းစစ်ဌာနချုပ်
▁သိုင်း
လိုက်ရသည်။
▁မှစ၍
▁သံလိုက်
▁စကြာဝဠာ
東
ard
▁pro
ခက်ခဲ
လွင့်
▁၁၉၀၅
အနေ
▁တရုတ်လူမျိုး
▁formula
▁မော်စကို
ဖင်
နှင့်တူသော
▁ကျင်းပသည့်
▁ရှိခိုး
စောင့်ရှောက်ရေး
ure
▁အုန်းပင်
▁ထားသည်။
▁ကိုက်ညီ
ရရှိရန်
သင်္ချာ
▁စာသား
="210
ကျဉ်း
လိုလျှင်
▁ကျောက်တုံး
▁ထိုနေ့
တစ်ဦးဖြစ်သူ
▁ပြုလုပ်ခြင်း
ယ်ကျယ်ပြန့်ပြန့်
▁အင်မတန်
▁အိုင်ဖုန်း
▁အရံ
ကြီးထွား
▁မျှော်လင့်
နာ၊
▁၇၄
ခွင့်ကို
▁တကောင်း
▁ပန်ဝိုင်
▁အချုပ်အခြာအာဏာ
▁အစပြု
ကြပြီးလျှင်
▁အခိုင်အမာ
▁Rock
လေ့လာမှု
▁၂၀ဝ
▁နီး
▁စက္ကန့်
▁အောက်ပိုင်း
▁သုံးခု
▁ပန်းချီကား
▁အစိုးရသည်
▁ထုတ်လုပ်သော
▁သိပ်
▁အသုံးမပြု
▁စီးဝင်
▁ဖြစ်ထွန်း
▁ဆင်ဖြူ
ice
အမျိုးအစားများ
▁လိုအပ်သည့်
ပြောင်းရွှေ့
ပျဉ်
မုတ်
▁ဖြတ်၍
▁နိမ့်
▁ဖားဆောင်း
▁ဂြိုဟ်ရံလ
▁မရှိခဲ့ပေ။
▁ပါဝင်ဆောင်ရွက်
ထွန်
ပညာရှင်များက
ကျွေး
▁နက္ခတ်
▁ယင်းနောက်
▁ပစိဖိတ်
နှစ်တွင်
▁ရိုး
အု
▁ဝါးရုံ
▁လက်ဝှေ့
▁အဖွဲ့ဝင်များ
သွားကြသည်။
▁သာမဏေ
အတွင်းက
ခြင်းမရှိဘဲ
▁ဆန့်ကျင်ဘက်
လေ့ကျင့်
▁တပင်ရွှေထီး
▁ဂေါ
ဥစ္စာ
▁ကုန်ပစ္စည်း
▁ဘူတာရုံ
▁၈၅
46
▁ခြ
တိုးတက်မှု
▁ထိပ်ဆုံး
အခေါ်
▁စောင်
သပ်
▁စင်တီမီတာ
ပုံများကို
▁ဖီဖာ
များဖြစ်
lic
ဖက်မှ
ဆောင်ရွက်ခြင်း
▁အပြာရောင်
▁ရွာသစ်ရွာ
ဒဘူတာ
▁နှစ်နှစ်
လိုက်၏။
မြည်
နှလုံး
သဒ္ဒါ
တတ်မြောက်
မည်ဆိုပါက
▁တွေ့ရလေသည်။
▁တွေ့ရ၏။
▁ဟောင်း
ရရန်
ဒိုက်
ရက်၊
▁စွန့်
ယာမဘူတာ
ဖက်တွင်
နိယ
=88
▁နိုင်ငံအတွင်း
▁နမ်ခမ်းဝူး
▁လောင်စာ
ယူး
53
▁မိုက်ကယ်
▁မြိုင်
တစ်ဦး၏
▁ပိုင်ရှင်
▁ခုမြောက်
လုပ်ငန်းသည်
=63
▁၁၉၃၃
▁ဝေါ
ဟိတ်
▁ကောင်း၊
ဖြည့်
▁ဆပ်ပြာ
ဗု
▁ပြုလုပ်ပေး
▁အကျိုးရှိ
အကျဆုံး
▁ခိုင်မာ
▁အပိုဒ်
စသည်တို့ကို
ပါယ်
Me
▁ဆည်မြောင်း
စားသုံး
▁ဝတ္ထုရှည်
▁Th
▁နှစ်ကြာ
▁ကေအင်န်ဒီအို
=222
▁ရုပ်ရှင်ကား
ပုံများ
ကစားနည်း
ချောင်းဖျားရွာ
ထမ်းဆောင်
▁ရှိသဖြင့်
တွက်ချက်
▁မအောင်မြင်
▁ဘေ
ဆောင်ရွက်ရန်
="222
သံတူကြောင်းကွဲ
ဆွေးနွေးပွဲ
▁ဦးစံ
ရွာဟောင်း
▁နီးစပ်
ကျွတ်
ဘုရင်သည်
▁အားနည်း
လည်းရှိသည်။
▁ရေးစပ်
▁သိသိသာသာ
▁၁၉၀၃
▁သုံးကြိမ်
▁ချာ
▁ရှေ့တန်း
▁ငှားရမ်း
▁မြူ
ပါမောက္ခ
▁ချင်းတွင်းမြစ်
py
ထားကြ
▁con
သဘောကို
ချီတက်
▁ကိုယ်ထည်
▁Du
=205
ကြီးများသည်
တပါး
အစစ်
အတူ
ဖျာ
="205
သူတော်
ကြရ၏။
နှိုက်
▁လမ်းလျှောက်
▁စာဖတ်
▁ပွား
▁ကျွန်းဆွယ်
ပြုလုပ်ခြင်း
ကလေးရွာ
သတ်ဖြတ်
ဒါန
ငါ့
▁၁၉၀၆
▁၁၈၂၄
▁အမည်ပြောင်း
▁၁၂။
▁ဇီဝဗေဒ
လှရွာ
▁ရေကူး
▁၁၈၅၇
ရှပ်
ကျဆင်း
▁ကတော့
▁တည်ငြိမ်
ိယ
လာသည်နှင့်အမျှ
▁အလွှာ
၄ဝ
▁၁၉၅ဝ
▁ရုပ်ပုံ
သွား၏။
ကြေ
▁Nat
▁အမွေ
ဟုဆို
လူနာ
ညံ့
နိုင်ငံသား
▁ပြတ်
▁စစ်အစိုးရ
▁ခွာ
ance
▁ဆွေမျိုး
န္တိ
တင့်တယ်
▁အနည်းငယ်သာ
▁စစ်ကိုင်းခရိုင်
ဝ်
အလုပ်ကို
▁သာဓက
ဂန်း
▁တဏှာ
▁(4)
▁အနုပညာရှင်
▁၁၈၅၉
▁ဖုံးအုပ်
▁ဒုတိယသမ္မတ
▁နေထိုင်ရာ
အနောက်ပိုင်း
ပျံ့
▁မုံရွာ
▁စတင်ဖွင့်လှစ်
မပြတ်
▁တည်ရှိ၍
သေး၏။
▁ရောက်သွား
▁ပြန်ရောက်
နေပါသည်။
အသစ်များ
▁power
▁မြား
▁ယခုလက်ရှိ
▁ပြောင်းလဲသွား
▁သံသရာ
ယူကာ
▁ဗျည်း
ပြောင်းလဲခဲ့သည်။
▁နယူးဇီလန်
ဖော့
▁ယုန်
▁ယူနိုက်တက်
▁တိုင်းရင်း
=60
ပေးကာ
ပေါင်းချုပ်
▁အနုပညာရှင်များ
အားလုံး၏
▁တစ်ချို့
သည့်နေရာ
လာသည့်အခါ
ယိ
ဂမုန်း
ဒေသသို့
နွေး
▁ဘရူနိုင်း
တိုင်းတာ
▁နယူးယောက်မြို့
သနည်း
သေန
အမျိုးမျိုးဖြင့်
ပုဂ္ဂိုလ်များ
▁စိုးမိုး
▁ပြဒါး
ل
▁ရင်ဖန့်မြို့နယ်
▁နတ်ပြည်
ဟက်
▁ကဗျာများ
ရန်ဖြစ်သည်။
▁ပုဂံမင်း
၂၀၀
ကြီးများတွင်
ကသာ
ts
▁အကြံပြု
▁၁၈၂၁
မှုမရှိ
▁၁၈၈၁
▁ကျယ်
▁အမြင့်ပေ
▁တွန်း
စိုက်ပျိုးရေး
▁ဟုခေါ်
▁အခွင့်အရေးများ
▁လယ်တီ
▁အလေး
ပင်လယ်အော်
နိုင်ခွင့်
▁ဆောင်ရွက်ပေး
ပြန်၏။
▁မရောက်
လျှော
စည်ကား
▁ဖြန့်
▁မူလတန်းကျောင်း
များဖြစ်ကြသော
▁သမုတ်
▁ထိုကဲ့သို့သော
ငုတ်
▁၁၈၆၄
ဇနီး
▁ကျောင်းတွင်
ပုံပြင်များ
▁ကျင်း
▁တွေ့မြင်နိုင်
▁နွယ်
▁ရေးသားသော
▁တစ်ပတ်
▁Lan
▁၁၉၀၇
ကျေ
အားလုံးသည်
▁ယူကေ
ယူပြီး
ပြပွဲ
▁အပြား
▁၁၈၈၈
▁ကျောက်ကပ်
▁ခေတ်စား
သည့်အလျောက်
ဗြ
ဝန်ကြီးအဖြစ်
ကြသည်ကို
▁တစ်ဝက်
ဖြောင့်
▁အထက်ပိုင်း
ဂျူ
▁မိဘများ
လှသည့်
ွိုင်
▁အစ်ကို
▁ပတ်သက်
▁မနော
▁နှဲ
▁ပါသည်။
ထားရန်
ပြုရန်
▁ပြုလုပ်ရန်
၂၀၁၅
ဟူသည့်
▁မြောက်မြားစွာ
▁Pi
▁တလိုင်း
အတည်ပြု
ပျိုး
▁ဒို
အံ
004
▁ညောင်ကုန်းရွာ
▁အလောင်းတော်
▁စာပေဆု
▁၁၈၈၉
▁ရပ်နား
▁ကိုလံဘီယာ
▁အမှတ်တရ
ou
▁ဆုတ်ခွာ
▁ဆွေးနွေးပွဲ
▁ဖြစ်ပွားခဲ့သည်။
လဟာ
punk
▁အောက်သို့
006
အပ်နှင်း
▁အကွက်
▁တာဝန်ယူခဲ့သည်။
▁အဘိ
▁မွန်ပြည်နယ်
▁ပိုလန်
ence
ညှစ်
▁ဆင်စွယ်
=94
▁တရားစီရင်ရေး
▁ပျောက်
လေ့ရှိကြ
▁ကန်တော်
▁ကုန်းဘောင်
လုပ်ဆောင်ခဲ့သည်။
ဒီမိုကရက်တစ်ပါတီ
▁ဂန္ထဝင်
သူဌေး
▁ဆင်းရဲသား
ဟွမ်
▁တစ်ခုအပါအဝင်
▁ကြာမြင့်
▁ခက်
▁ကုန်ကျ
သည်ဟူသော
အချို့က
ပြုလုပ်ရန်
ဘုရင်မ
▁အုပ်ချုပ်သူ
▁ရေအောက်
▁အမှား
▁Asia
▁လေတပ်
▁ရုပ်သေး
ထက်သန်
သည့်အချိန်
▁အဖွဲ့ဝင်အဖြစ်
▁သပြေကုန်း
▁ခွဲထုတ်
▁ဦးသာ
▁အက်စ်
အုပ်ချုပ်မှု
ဖြစ်ခဲ့
▁ပုံရိပ်
و
▁ဘာသာစကားများ
▁ဒန်
▁အာနိသင်
တွင်တည်ရှိသည်။
ငှား
su
နိုင်ရေး
yo
▁အသံလွှင့်
ny
▁၁၈၉၃
ခရိုင်တွင်
60
▁တကယ်
▁တပ်မ
ပိုဒ်
▁လုပ်ကိုင်ကြသည်။
▁ခြောက်သွေ့
ထဲရှိ
▁ဖြစ်သူ
▁၁၈၇၂
▁၆၃
သေခိယသိက္ခာပုဒ်
▁၁၈၆၇
▁နည်းစနစ်
ပါလ
ကြွင်း
ဖူ
▁ဇာတ်လမ်းတွဲ
နိုင်ငံသို့
ပ္
▁ရှည်လျား
ချ၍
ပေါက်ရွာ
ana
စနစ်ဖြင့်
▁အသုံးပြုကြ
ဝတ်စုံ
=223
="72
▁ဟားခါးမြို့နယ်
တွန်း
ွှ
king
▁ဘု
သပိတ်
="223
▁ရှိရာ
▁အိတ်
▁၁၈၈၃
▁ဓလေ့
▁ဟီရိုရှီးမား
▁ကယ်တင်
Mir
▁အသက်အရွယ်
▁၁၈၉၉
နည်းသော
ယူဆ
ကိရိယာများ
ရသောကြောင့်
▁ကြိတ်
ပေးလိုက်
▁post
▁တရားစွဲဆို
▁ပြည်ထဲရေး
▁ဆရာတော်ကြီး
▁မြေဆီလွှာ
ရင်းမြစ်
▁ဖိနပ်
▁စကားပြေ
သူရိယ
▁ကျေနပ်
ဘွတ်
အပူ
=213
ef
▁တဖက်
▁တောင်အာရှ
▁သန့်စင်
▁ခေါ
▁ရရှိနိုင်
▁၈ဝ
▁ငြင်းဆို
▁ဟိမဝန္တာ
▁မြဝတီမြို့နယ်
daung
▁၁၈၁၉
ဂတ်
▁ဒီပဲယင်း
ဟောက်
နိဗ္ဗာန်
ဒေါင်
▁မပါဝင်
ခေါင်းဆောင်သော
လွှမ်း
▁ပင့်
="213
▁အေဂျင်စီ
=209
▁ငါ၏
တောရ
ချောင်းဝရွာ
ပြည်သို့
ကာရ
▁ပျိုး
ger
ရောက်လာ
▁အမိုး
မှာပဲ
ဇား
နိုင်ခဲ့လေသည်။
မင်းတရားကြီး
▁နေရာကို
လေကြောင်း
▁မိန်
ler
တောက်ပ
င္
သုံ
▁အာရုံစိုက်
ဆွေး
▁ရေရှည်
ပုဏ္ဏား
အတတ်ပညာ
ရေးလုပ်ငန်း
min
▁အလောင်း
chi
ste
ရည်ကို
၏ဟု
▁အငယ်ဆုံး
ပုံး
တတ်ကြ
▁၁၈၀၀
aw
▁အနီးတွင်
du
ရှည်လျား
ဓာတု
ဖြစ်ပါက
▁များမှာ
တဲရွာ
▁၁၈၉၇
=202
▁သီဟ
ထွက်၍
အနှစ်
အသိအမှတ်ပြု
▁ပုဂံပြည်
▁ဂဠုန်
ခဲ့ရ၏။
စေကာ
▁School
ဘဝကို
▁လက်ဖြင့်
▁အသုံးပြုမှု
▁ညွှန်ပြ
▁ရေးသားပြုစု
▁တိုးပွားလာ
▁သရက်ကုန်း
မြစ်ဝှမ်း
▁အရေးအခင်း
▁ယူရို
အနွယ်
▁စတင်ကာ
လိုက်ရ
=57
▁ပွဲဦးထွက်
▁မြင့်မားသော
▁ပါဝင်ကြသည်။
=74
▁ခေတ်ပေါ်
▁တစ်စတစ်စ
=214
=136
▁တခါတရံ
▁System
▁သာသနာပိုင်
▁ကုမ္ပဏီများ
ck
▁၇၁
ညှိနှိုင်း
▁ခေါက်
="136
ty
▁အခွင့်
▁အဆ
▁ကျနော်တို့
▁၁၈၅၀
▁ဒေသတွင်
="214
▁ဝိုင်
▁မနက်
စဲ
▁စကော့တလန်
tta
▁မြန်မာဘာသာ
ကြကာ
▁ဤသို့သော
ထုတ်လွှင့်
အလယ်တွင်
၌လည်းကောင်း၊
ဘိုင်း
မှတစ်ပါး
▁၁၈၇၉
အကြီး
ရပါတယ်။
▁လုပ်ငန်းကို
ပေါများ
ယိမ်း
ric
=216
▁ရဟန်းမိန်းမ
▁သင်္ဘောများ
▁သိုက်
သစ်တော
ဗျည်း
▁ကောင်းမှု
အင်္ကျီ
="216
▁ဝင်ရောက်ခဲ့သည်။
ဂေါ့
▁ပြည်သူတို့
လေးခု
▁အောက်ဖော်ပြပါ
▁ပြောင်းလဲမှု
မှုများသည်
▁တပ်မတော်မှ
▁ပွတ်
ခဲ့ကြသော်လည်း
▁ဂျင်း
▁ရှင်းပြ
▁ခေါ်ဆိုသည်။
▁ထမ်းရွက်
▁အနိစ္စရောက်
ကူးစက်
▁ဘရာဇီး
▁မင်းဘူး
▁ဂြိုဟ်တု
သဘောတူညီချက်
တစ်ပုဒ်
▁မိုဟာမက်
စုန်
တောင်အမေရိကတိုက်
▁သစ်စေး
▁စိမ်း
▁ကာကွယ်ပေး
ဟောကြားတော်မူခဲ့
အာဖရိက
▁မြှောက်
အကြံပေး
မဟုတ်ပေ။
net
▁သူငယ်
ထွင်
▁ဒိန်းမတ်
စကားပုံတစ်ခု
▁လူ၏
▁ကျောင်းဆရာ
▁စိုင်း
▁ဩစတြီးယား
▁တရားဥပဒေ
=139
ဒါယကာ
ထယ်
ပိုင်ဆိုင်
▁ရှည်လျားသော
စဉ်တွင်
▁အကြင်
="139
▁နားထောင်
▁အကြီး
ဘိုင်
▁ရေပေါ်
▁ပရို
val
▁နိုင်ငံရေးအရ
▁အလယ်တွင်
ဗေ
ဝယ်၊
▁ရေးသားထား
အထွက်
ကြောင့်လည်း
An
orn
▁သူရဲ
▁၁၈၆၈
▁ဥပဒေကို
ပါသည်
ကော်ရွာ
နေလျှင်
▁မိုင်ပေါင်း
▁အဆင်ပြေ
003
အလျောက်
▁ကော်ဖီ
▁ဝတ္ထုကို
ပါလီမန်
=84
မော်ကွန်း
▁ပါဝင်၍
▁လေရှီးမြို့နယ်
=82
တ္
▁Day
အနောက်ဘက်
▁၁၈၃၆
▁ဆွတ်ခူး
သော်၊
▁၁၉၀၄
ဂယ်လက်ဆီဖြစ်ပြီး
▁သားငယ်
အင်ဂျင်
ဘဝမှ
▁အရင်းအမြစ်
▁အိုးဘို
အသုံးပြုသည်။
တိတိ
ရှစ်ပါး
▁ပေသည်။
▁တစ်ပင်
လျက်ရှိရာ
=206
▁မေရီ
မ္ပ
▁ချေ
▁ရေတွင်းကုန်း
▁သုတ်သင်
▁နတ်သမီး
="206
မင်းက
▁တရုပ်
▁ပါတီ၏
▁မြတ်သော
▁ပဋိ
မထွက်
ိတ
စံတော်ချိန်
ဂျန်
▁ပညတ်
သူရဲကောင်း
ကျမ်းစာ
ဖော်ပြထား
တော်လှန်
နေထိုင်ကြ
▁Nam
▁ပလ္လင်
စေဘဲ
ပန်းခြံ
▁ထိုနေရာတွင်
လေတပ်
▁ရူ
ဆိုဒ်
တီးခတ်
=97
▁တည်မြဲ
▁ပေါ့
▁Kyun
ခမိ
အ်
ရုံသာမက
အစားအစာ
▁ကဲ
▁အဝတ်အစား
ဗျာ
▁အမည်ရင်း
လုပ်ငန်းရှင်
ထွက်ခွာ
ဆင်နွှဲ
="76
▁မဂ္ဂဇင်းတွင်
▁အဆစ်
ဂိမ်း
ယုန်
အတော်များများ
▁ခေတ်ပြိုင်
•
▁ဖြစ်ခဲ့၏။
▁အသိပညာ
▁ဆိုသူမှ
▁ကဗျာလင်္ကာ
များသော
▁၁၈၂၆
▁သုံးနှုန်း
▁အခ
001
▁ပင်းယ
ဖွဲ
▁မဒညတ
ကြသေးသည်။
▁စတုတ္ထမြောက်
▁၁၇၁၇
▁ယုံ
နေရာများတွင်
▁ခတ်
စေမည့်
ကပြ
တောင်းရွာ
ဘွေ
▁အကိုင်း
▁Par
▁၁၇၈၄
ကြီးစွာ
သူတွေ
▁အာဇာနည်
▁အမျိုးသားရေး
ကောင်ရွာ
▁နခ
▁နာမ်
ထားသူ
▁အပြင်ဘက်
ပရိ
▁ခိုင်
▁ပင်ပန်း
ရှော
▁ဝါသနာ
တစ်စိတ်တစ်ပိုင်း
အတွေးအခေါ်
▁စိတ်ကူးယဉ်
▁ကရာတေး
▁ဆက်သ
သွင်
▁၁၈၃၇
▁ချဲ့ထွင်
နိုင်ငံတို့
ဂြိုဟ်ရံလ
တစ်ခုဖြစ်သည့်
▁မင်းတရားကြီး
ဖြစ်စေရန်
MA
="89
▁ပင့်ဆောင်
ear
မတက်
▁အငြင်းပွားမှု
▁နတ်မောက်
▁Zay
▁စိတ်မ
▁အချုပ်
=50
အပေါင်းတို့
၃၀၀
ဟိန်
▁မြို့ကြီးများ
▁ဖြစ်ခဲ့
▁၉၇
▁Lin
▁တစ်ခါတစ်ရံတွင်
လှဲ
အဆောက်အဦး
နယ်ကို
ဦးခေါင်း
တန့်
▁မြေမျက်နှာသွင်
ပြန်၍
▁လည်ပင်း
အရေးတော်ပုံ
▁စရိတ်
ဇန်နဝါရီ
ခြင်းအတွက်
▁စိတ်ကို
ST
▁တွေး
▁ဓာတ်အား
▁၁၆၇၅
လက်ပံ
▁ကောက်ခံ
ပါဠိတော်
သည့်တိုင်အောင်
▁တိုက်ခတ်
ding
အုပ်ချုပ်ပုံ
▁သိရ
▁၁၈၆၁
သွားကာ
မှုတို့ကို
▁ထိုမြို့
▁သစ်ပင်များ
▁ဟင်းသီးဟင်းရွက်
ဘောလုံးပြိုင်ပွဲ
တည်ရှိနေ
မ့်
ငျ
▁ကွဲပြားသော
▁ဝိပဿနာ
▁ရည်ရွယ်၍
နယ်မြေများ
▁ရက်နေ့က
အရပ်သို့
=86
လုပ်ငန်းတွင်
အားပေး
ကလေးများသည်
စောင့်ရှောက်မှု
▁ပျဉ်းမနား
▁ကလေးသူငယ်
▁ကွင်းကြီး
အစဉ်
▁၁၈၇၆
iv
▁၁၉၀၈
▁သင့်လျော်
လောင်းရွာ
▁အဝင်
များထံမှ
▁တောကြီး
လက်ရာများ
▁စာသားများကို
ran
▁မဲဇလီ
ပြည်နယ်တွင်
▁မိန့်ခွန်း
▁နမ့်ဟူး
▁လစဉ်
ဝိုး
▁ကလည်း
မျို
▁အဆောင်အယောင်
မြင့်သော
တစ်စုံ
ဆေးများ
=220
▁မိန့်တော်မူ၏။
▁ဖယ်
daw
အဋ္ဌကထာ
=215
▁ရပ်ဆိုင်း
▁တကွ
▁မဆို
ထော
▁အစည်း
▁El
▁၁၈၆၃
="215
▁လစာ
▁သတ္တိ
▁မှည့်ခေါ်
အဖျား
ft
▁ခေါင်းဆောင်သော
▁အင်းဝခေတ်
▁It
▁မြေပြန့်
▁တောင်ကြား
ရွှေ့
▁ခန့်တွင်
▁ဘုရားဖူး
၂၀၁၁
▁နောင်မွန်း
▁ရူပ
="220
ကျင်းပသော
တစ်ခုလည်း
ယျ
▁သန်းကျော်
▁၁၈၈၀
all
а
▁ဖွဲ့ဆို
▁ပီတာ
ရေနံ
ဗြဟ္မာ
▁၆၀၀
ခြင်းပင်
ဂိုဏ်းဝင်
▁ဗက်
ပြင်ပ
အေဒီ
ဖြတ်သန်း
သားများသည်
လူကြီး
="86
▁မြို့ကို
၂၀၁၄
အပြည့်
▁So
▁ရှိတတ်သည်။
ဟိုက်
တော်မူလေသည်။
ပြည့်ရှင်
ore
တလုပ်
▁ပတ်သက်သည့်
▁သမ္မတအဖြစ်
ထုတ်ဝေခဲ့သည်။
▁ကံကြီး
▁သိကြ
ထွဋ်
ပေါ်လာ
▁ခြံ
ခြင်
▁အပို
▁၁၃။
လိမ်း
▁လက်ကိုင်
▁ညောင်ပင်သာရွာ
ရေးဌာန
တို့အပြင်
▁ဆိုရပေမည်။
▁တို့မှာ
တကျ
နန့်
BS
ata
ဉာဏ
စရိုက်
ဘူး၊
▁၁၉၀၂
▁ထွက်ရှိ
ပြည်တွင်း
အလေးချိန်
ဖုတ်
ရာသို့
▁သူပုန်
▁ဖွံ့ဖြိုးမှု
▁ဒေဝ
ဗူ
=56
▁ရိက္ခာ
တော့မည်
တပ်များကို
▁ကြည်လင်
▁ဘန်ကောက်မြို့
▁ဆရာမ
ကွန်ရက်
▁20
▁ရောဂါများ
တက်၍
အစွန်း
နိုင်လောက်အောင်
▁သတင်းထောက်
▁no
▁ကြူ
qu
▁ဖြစ်ကြသော
▁အဓိကထား
009
▁မကောင်းသော
အောင်မြင်မှု
ကုန်သွယ်ရေး
ပုံနှိပ်
▁ပျောက်ကင်း
ဟောပြော
▁၂၅၀
▁ဂလက်ဆီဖြစ်ပြီး
▁Paing
ဂုတ်
▁ထည့်၍
တိုးမြှင့်
▁ချေား
ရပ်စ်
▁၁၈၅၄
ခဲ့စဉ်က
▁သောက်သုံး
အမွေအနှစ်
▁ဗေဒင်
ဂျူး
=75
▁ဓနိ
-2
ကျွမ်း
▁လက်ရာများ
▁ရာဇဝတ်
▁ကွယ်
ology
▁နန္ဒ
▁အမရပူရမြို့
သုံးဆယ်
▁တပ်မတော်ကာကွယ်
▁ချန်ပီယံ
▁တနင်္သာရီတိုင်း
ခိဘူတာ
▁အကူအညီပေး
▁ထိုနေရာ
ပေးထားသည်။
တက်ကြွ
▁ထိုအပင်
=132
ုတ်
ph
အဆင်း
▁တု
▁station
▁ဗဒုံမင်း
▁မျိုးချစ်
ဗင်း
▁ပုံပြင်
ကော်ပိုရေးရှင်း
pi
▁မဟုတ်ချေ။
ပါရမီ
ရှေးဟောင်း
▁အလေ့အထ
ရင်းနှီး
▁အနိမ့်ဆုံး
="132
▁သုခ
NA
လုပ်သား
အသင်းတော်
▁တပ်သား
▁ကုန်းသာ
▁အလုံးစုံ
မွန်းရွာ
▁စွမ်းရည်
▁တမန်တော်
▁၁၈၆၆
အချက်အလက်များ
စေလို
▁ရှိပေသည်။
စေတတ်သော
ထားကြောင်း
▁မွန်ဂို
တို့ဖြစ်ကြသည်။
▁ဟင်္သာတ
▁မြေယာ
ဘက်ကမ်း
▁ကြီးမားသည့်
▁ဆမ်
▁Hu
▁လော်
tor
▁မင်းကြီးသည်
▁ရွှံ့
▁အယ်ဒီတာချုပ်
=221
▁အကြားတွင်
▁ရှုမြင်
▁လိုင်စင်
လတ်သော်
▁ချွန်
▁တာကော်
▁ငယ်မည်မှာ
အစောပိုင်း
▁နွေ
ကုသိုလ်
bu
ဟိဂရှိ
▁တမူးမြို့နယ်
par
▁၁၈၆၅
ဝု
▁မာလာ
▁အကာအကွယ်
kg
ဖောင်း
▁ကိုယ်ရေး
▁ဘွဲ့ကို
ချက်များအရ
51
ိတ်
▁၁၈၃၄
▁သူနှင့်
ရှုံး
▁စီးပွားရေးနှင့်
▁မှားယွင်း
ကား၊
စသည်ဖြင့်
ညွှန်း
▁အရေးပါသည့်
အဝ
▁အသင်းတော်
=46
▁နော့
▁ခရစ်ယာန်ဘာသာ
=111
▁မင်းကွန်း
▁ဆက်သွယ်မှု
ကျစ်
="221
▁သုတ္တန်တစ်ခု
ွပ်ကဲမှုဌာနချုပ်
▁မကျီးကုန်း
▁စီးပွားရေးအရ
ိန်း
ရကြောင်း
မီယာ
ပစ်ခတ်
တစ်ခုစီ
ဆုံးမ
မှန်ကန်
ငြားအံ့၊
ချက်မှာ
=201
▁ပြုမူ
▁သတင်းမီဒီယာ
▁ကိုယ်ဝန်
▁ကမ္ဘာတွင်
▁ရေးဖွဲ့
အက်ဥပဒေ
▁ပါရဂူဘွဲ့
▁ယူဆောင်
စသည်
အပါး
gu
▁နက္ခတ္တဗေဒ
="202
ကြီးများ၏
▁ကုန်ဆုံး
▁သွတ်သွင်း
▁ပန်းပွင့်
▁အင်ကြင်း
▁သူငယ်ချင်း
ဌာန၊
▁နွေး
မှည့်
▁တစ်နည်း
▁စေ့
နေသော်လည်း
="88
ze
▁Chinese
▁မြင်တွေ့
▁အရေးတော်ပုံ
လာခဲ့ရာ
ပါ၏။
▁မိုးမိတ်ခရိုင်
IS
ب
▁ဘာလူစကိုနီ
▁မည်သူမျှ
▁ကျောင်းတိုက်
ကြိမ်မြောက်
ပတ်လမ်း
▁အကျိုးပြု
▁ကိုးကွယ်မှု
▁၁၇၈၅
ထည့်၍
သီဟ
▁သားကောင်
▁ဖြန့်ချိခဲ့သည်။
များကိုမူ
▁ကျယ်ပြန့်သော
▁Tu
ဖျက်သိမ်း
▁အသုံးပြုသူများ
ကူးပြောင်း
▁ဇော်ဂျီ
တမ်
▁အစိုးရနှင့်
▁ဝန်းရံ
၎င်း၏
▁တစ်ခုတည်း
▁ဖော်ပြချက်
ဖေး
ဒန်း
▁တိုက်ပွဲများ
▁Law
▁ဒေါ်အောင်ဆန်းစု
အစားထိုး
ကျိ
▁ဗိုင်းရပ်စ်
ခရာ
▁နိုင်ငံတွင်
▁၁၈၇၁
▁လက်မခန့်
▁အများက
စမစ်
▁မဘိမ်းမြို့နယ်
ရှိသည့်အနက်
▁ဒါယကာ
▁အဆောက်အဦးများ
သံ၊
▁ပြောင်
▁ပျောက်၏။
အက်ဖ်
▁Yae
ပို့ချ
ယှက်
မြို့များ
▁ချီးမြှင့်ခြင်း
▁ကျောင်းများ
ထိုက်သော
▁ညီညွတ်ရေး
ခ်ျ
ကြတယ်။
▁ဖြစ်ပျက်
▁ငို
▁ထုထည်
အားကစားကွင်း
ဘာသာစကားဖြင့်
▁လျှပ်
မှို
အရည်အသွေး
▁၁၈၅၆
▁ဖြစ်ပေါ်လာသော
ဈာန်
▁ဒတ်ချ်
▁ပတ်သက်ပြီး
▁Kyaukta
mon
ကထေရ်
▁၁၈၆၉
ဆေးပညာ
မျက်နှာပြင်အထက်
▁လဲလှယ်
▁သင်္ဂြိုဟ်
မူဝါဒ
▁သရေခေတ္တရာ
▁အရောင်းအဝယ်
ပြက္ခဒိန်
နေတတ်
▁မြန်မာနိုင်ငံမှ
▁ဝဲကြီး
▁အထောက်အထားများ
တော့၊
ွင်း
▁ကွန်း
▁အီလက်ထရွန်းနစ်
▁လွယ်လုံ
▁ရွှေရောင်
▁တရားတော်
▁သတ်မှတ်ကြသည်။
လုပ်ထုံးလုပ်နည်း
လေလေ
▁အပြီးသတ်
▁ကန်ကြီး
▁ကျွန်းကြီး
သည်ရှိသော်
ကာလများတွင်
ရမည်၊
▁သတ်မှတ်သည်။
တော်၊
▁ရှင်သာမဏေ
▁its
န္န
▁စာမူ
▁အထူးပြု
အတိုင်းအတာ
က္ကာ
▁ရဟန်းတို့သည်
▁သီဟသူ
mu
▁သိပ္ပံနှင့်
ခွင့်ပေး
းမား
ချိုင်း
ရတယ်။
ခဲ့သလို
▁မြို့တွင်း
တစ်နေရာ
ပြီဖြစ်သည်။
ကြသည်မှာ
ise
ရှိသည်ကို
▁တိုးပွား
▁ပဉ္စ
▁ကြီးကျယ်
▁ထိုကျောင်း
တစ်စောင်
▁နေရာများတွင်
▁မီးခိုး
ခရီးသွားလုပ်ငန်း
ဖျောက်
လွယ်ကူ
ō
အောင်ဆန်းစုကြည်
ကျန်းမာရေးဌာနခွဲ
ရန်သူ
▁စတု
▁အဝိုင်း
▁ဖြတ်တောက်
▁တောင်ဘက်သို့
▁၁၈၂၈
▁တောင်ကြီးမြို့
သူနှင့်
အပင်များ
တစ်ဝိုက်
▁ပြဿနာများ
သုံးဦး
ခံခဲ့ရပြီး
▁အစားထိုးခြင်း
▁စားသုံးသူ
▁ဘူမိဗေဒ
▁စုံစမ်းစစ်ဆေး
book
မရမ်း
အတု
▁မြိတ်
▁ပုသိမ်မြို့
q
م
မမှန်
▁စာတိုက်
▁တစ်ရက်
49
▁ကင်ဆာ
▁၁၈၅၃
▁မဟာယာန
▁၁၈၅၁
▁စူးစမ်း
=108
ကြောင့်ဖြစ်သည်။
ဆေးဝါး
ကိုမဆို
▁ကြွယ်ဝ
▁ပါဝင်ယှဉ်ပြိုင်
▁လူနည်းစု
၂၀၁၆
▁le
စကို
ဖျင်
▁ထိုင်းနိုင်ငံ၏
ခံစားရ
ကွေ့ရွာ
▁ကောင်းမွန်စွာ
▁လွတ်မြောက်ရေး
=85
▁သနား
▁လုပ်ငန်းစဉ်
▁ကဲ့ရဲ့
ပျစ်
သုံးမျိုး
▁ကမ္ဘာကြီး
▁စစ်သည်
▁အခန်းကဏ္ဍ
▁၁၈၇၃
ထွား
▁ကြိယာ
▁စီးပွားဖြစ်
လက်အောက်တွင်
ကျမ်းများ
▁ချောက်
▁Ru
▁အသိဉာဏ်
▁ဟော်
▁အပင်မျိုး
သင့်သော
၅ဝ
▁ပရ
▁၂ဝဝဝ
▁ဖန်ဆင်း
ဆီကို
▁Star
ကောက်ယူ
▁ကျောင်းစုရွာ
▁ပြိုကွဲ
သတည်း။
ထရာ
▁အလက်
ဆင်းတု
ဟပ်
▁တောင်သူ
▁ပါတီဝင်
▁ကြို့ပင်
အိမ်တော်
▁ဘိုင်
ခဝ
dy
▁သတ်မှတ်ပေး
ခဲ့။
▁ကုန်းမြင့်
▁လာဘ်
▁ချောင်းဆိုး
သံဃာ
▁မွေးမြူရေး
▁အရွက်များ
သည့်အနေဖြင့်
လျှာ
▁ကျော်ကြားသော
▁ကလေးသူငယ်များ
▁အသုံးပြုပြီး
▁ဗန်
ကဲ့
သားတို့သည်
ငင်း
▁သို့နှင့်
နှုန်းဖြင့်
▁ကီး
▁ခေါ်ဆိုကြသည်။
▁မြို့ရွာ
▁၁၉၀၉
▁မြစ်ဝ
သွားရ
Q
အသင်းများ
ထကြွ
▁အနန္တ
▁ပြန့်ပွား
North
ဖြို
▁ဝိဇ္ဇာဘွဲ့
▁အကျိုးအမြတ်
ထက်ပင်
အရာဝတ္ထု
အာဏာပိုင်
▁ကထိက
သက်ရောက်မှု
▁ရောမမြို့
▁ရှူ
▁သဘောတူညီ
▁အကျိုးကျေးဇူး
▁ဒုံးပျံ
▁အာဂျင်တီးနား
▁ခရီးထွက်
သံကို
ရာမှာ
▁ထုတ်ပြန်ခဲ့သည်။
▁ال
▁မြစ်ဖျားခံ
ပြိုင်ပွဲများ
▁ရိုက်နှိပ်
မေ့
အစုံ
▁မော်တော်ကားလမ်း
ခဲ့သော်
ကောင်စီက
▁ပဲခူးမြို့
▁သတိုး
▁သမား
▁သားသမီးများ
▁အာဖဂန်နစ္စတန်
▁အိရှိ
▁ကြားဖြတ်
ိဿ
ထင်ရှားသော
အလုပ်လုပ်
ဆေ
ern
▁ဂိမ်း
တွင်းမှ
၌ကား
▁ဧည့်သည်
စွပ်စွဲ
▁မပြတ်
52
▁ဘန်း
▁ဗျ
▁၉၉
ဖြစ်၏
▁အပျို
san
ရေတွက်
▁နိုင်ငံပိုင်
ဒေသကို
▁ခူ
·
-1
ထွက်ပြေး
ရေကြောင်း
▁ပြည်နယ်နှင့်
ကိုဖြစ်စေ၊
ဗဲ
▁ကြမ်း
▁၁၇၉၅
တစ်ခုနှင့်
▁ဘူတာ
ဌာနများ
▁Htan
▁မဏိပူရ
ဒေသသည်
per
▁စင်ကြယ်
▁ဖီဂျီ
=67
▁တွေ့ရှိခဲ့သည်။
▁စာဆိုတော်
▁စစ်ပွဲများ
▁တစ်ဦးချင်း
▁အိန္ဒိယ၊
▁ခုတ်
သောနေရာ
▁သမ
▁အကြောင်းကြား
ဇေယျာ
▁ရာဇာဓိရာဇ်
SS
▁ဗျိုင်း
▁သင်္ကြန်
တြ
▁ဆောက်တည်
▁Mon
▁မိမိအား
▁ဇီးပင်
="85
▁လူသားတို့
▁ကြို့ကုန်း
▁နှိပ်စက်
▁အီလက်ထရောနစ်
mm
大
ပူရ
▁ဆော်
စစ်သား
တစ်ခုဖြစ်သော
▁သက်သက်
စေခဲ့
စပ်ဆို
ပင်မျိုး
▁မြင်းစီး
တော်တွင်
▁ထင်မြင်
▁နက်ဗျူလာ
ကမ္မ
လေပြီ။
ရှိုး
ဘက်၌
▁သရုပ်
Ch
မ္ဗ
▁ညောင်ပင်ကြီး
တောင်ထိပ်
▁ဟွန်း
▁l
▁သာယာဝတီမင်း
ရည်ရွယ်
စုံစမ်း
▁သတိပြု
ဟော့
▁ချိုးဖောက်
▁အောက်ဘက်
▁တွေကို
▁သီးနှံ
တော်၏
▁သစ်ရွက်
ညဉ့်
▁ကိရိယာများ
ခြင်းမရှိပေ။
တောင်ကုန်း
▁ကြီးပွား
လိုး
သီးခြား
▁ကန်း
▁ရောင်စုံ
အသင်းသည်
▁သတ်မှတ်ချက်
▁အင်္ဂတေ
▁ဆင်းသက်လာ
▁ပန်ခမ့်မြို့နယ်
ه
တို့ထက်
=78
▁record
နေရင်း
▁ဝဲဒေါင့်
▁ဆော့ဖ်ဝဲ
ထိရောက်
▁ပြိုင်
▁Lel
သမင်
▁Music
▁၂၀၉၃
ဌာနမှ
▁နှုတ်သီး
▁ဘီလျံ
▁တွန်းလှန်
▁အရှေ့အလယ်ပိုင်း
သုပ်
ဝိုက်
နယ်မှ
▁အောင်နိုင်
တည်ထား
▁မြင့်တက်လာ
IP
တည်၍
▁ရေနှင့်
ပုဒ်မ
အစဉ်အလာ
Ka
▁ဘိုးတော်
▁ဘူမိ
▁အနောက်တောင်
▁တာဝန်ပေးအပ်
ဇန
▁အဖြစ်သို့
အောက်ရှိ
▁ဆုတံဆိပ်
မဖြစ်မီ
▁နှစ်ပါး
တစ်မျိုးဖြစ်ပြီး
▁မြို့တော်မှာ
▁ဘာသာတရား
လှချေ။
▁၉၃
▁အတိုင်ပင်ခံ
="73
▁ယေရှု
အုပ်စု၌
▁ရှောင်ကြဉ်
သို့ပြန်
▁၁၈၄၈
မည့်အကြောင်း
▁အိမ်ရှေ့မင်း
▁Bar
မရှိချေ။
ပွက်
▁ကျယ်ဝန်း
▁မေးခွန်း
▁အသင်းကြီး
တစ်နိုင်ငံ
gy
▁ရေပြင်
ရေးတွင်
▁လွှင့်
▁ရပ်စောက်
စူ
▁ထန်
လုပ်ငန်းနှင့်
လိုက်သည့်
▁အလံနီ
ပြုသော
ဆိုပြီး
မင်းလှ
▁မန္တ
ura
ort
နီးစပ်
ပြောင်းလဲမှု
▁အမည်နာမ
ခဲ့တာ
▁၃ဝဝ
ချဲ့
▁တမာ
▁ကူကီး
▁လု
▁မှတ်တမ်းတင်ထား
အုပ်ချုပ်ခဲ့သည်။
▁မည်သို့ပင်
▁၂၁၁၆
▁ထွက်ခွာသွား
ွိ
အကွာအဝေး
မြောင်ရွာ
▁ကျောင်းကုန်း
ဟာရ
▁မှား
ချဲ့ထွင်
▁ပဒေသရာဇ်
ယူနိုက်တက်
▁စည်ပင်
men
▁သုတေသနပြု
ချိန်မှာ
ကင်ဆာ
ဟောင်းများ
ရှိခြင်း
ိယထေရ်
တိုက်တွင်
▁ခေါင်းစဉ်
ကြီ
ဆရာတော်ကြီး
ဉ္ဇ
ဘဝတွင်
▁ကျောက်ဆောင်
ပျ
▁တိုက်ပွဲဝင်
ဖိနပ်
တချို့
ရှောက်
▁ဤအ
▁hardcore
▁အလုံး
▁ကျမ်းများ
▁Thi
▁%
▁Per
▁နယ်သာလန်နိုင်ငံ
▁အတူတူ
▁အင်ဒို
▁အဆက်မပြတ်
▁ကတည်းက
▁နှာ
ative
▁မလုပ်
▁တစ်ဆူ
=91
ပြူး
အသင်းကြီး
ပါရှိ
▁ဆောင်ရွက်ချက်
▁အစပြု၍
▁ချုံ
ပြစ်မှု
ဟုပင်
▁ဝတ္ထုများ
▁မတိုင်မီ
▁တူသည်။
လျက်ရှိ၏။
▁Ad
▁မုံရွာမြို့နယ်၊
ical
▁လွတ်လပ်ရေးရ
▁အပေါင်း
▁ပြန့်
▁ပင်လယ်ပြင်
ပရိုဂရမ်
ရှုပ်ထွေး
▁ဆရာတော်၏
▁နေထိုင်သူ
▁ကျွမ်းကျင်သူ
မော်လမြိုင်မြို့
အေဂျင်စီ
▁လူဝီ
=48
ဇရပ်
▁ဂရိနိုင်ငံ
▁စာရေးသူ
▁တစ်စိတ်တစ်ဒေသ
▁မြောက်လတ္တီတွဒ်
▁ကျော်လွန်
ခဲ့ဘူး
▁လျှော်
လက်အောက်ခံ
▁ကဗျာအမျိုးအစား
သားရေ
▁သို့ဖြစ်ရာ
စကြာ
▁ယနေ့အထိ
ခန္ဓာ
မှောင်
▁၁၈၃၀
MS
မှုအား
လွတ်မြောက်
သရေ
မိုင်ရွာ
▁၂၁၁၇
ီး
ခေး
▁သားမွေး
မြို့မ
▁အာသာ
▁ဖိတ်ကြား
▁လက်နက်များ
ငှက်များ
low
▁ဂုံညင်းတန်း
▁ကြီးစိုး
▁12
အခြေချ
▁100
▁ဟိုး
ဖြ
▁နှုန်း
ဖျော်
တရားတော်
နှိုင်း
▁စမ်းချောင်း
▁ရေးခဲ့သည်။
တုံ့ပြန်
▁စေတီတော်ကို
▁စစ်တွေ
▁ပါရှိသော
▁ဒဏ်
▁စစ်တွေမြို့
=55
ရှိပေသည်။
တာဝန်များကို
▁ယေ
▁server
▁အကျိုးဆက်
အူး
▁တစ်ကောင်
အထူးသဖြင့်
ပြီးသား
ရှိသောကြောင့်
ဗန်း
နေသူများ
▁ဖွင့်ဆို
▁၁၈၆၂
SA
▁မီးဖို
gi
▁တက္ကသိုလ်တွင်
▁မိုးရေချိန်
မျိုး၊
စနစ်များ
=51
မျိုးနွယ်စု
▁သေဆုံးသူ
ကမ္ဘာလုံးဆိုင်ရာ
မူ၊
ပုံစံဖြင့်
▁အလယ်တန်းကျောင်း
har
▁အရေ
kan
▁black
▁လူသိများသော
ဆမ်
gan
▁တစ်စု
West
သယ်ဆောင်
▁ပုပ်ရဟန်းမင်း
▁အဘယ့်ကြောင့်
▁အိမ်ထောင်ပြု
▁ရေငုပ်သင်္ဘော
▁စာရင်းအရ
▁အစီရင်ခံ
ရောမ
မျိုးတို့
ks
▁မြေမျက်နှာပြင်
▁အကုန်
▁ဈေးနှုန်း
ဒေသများသို့
▁ဟိုင်
▁မပြုလုပ်
ဂေး
pro
▁မော်ဒယ်
နိုင်ငံများသို့
ae
အရင်းအမြစ်
တပ်များသည်
▁ဂွ
▁လှုပ်
ness
▁အောက်လွှတ်တော်
▁ကူးယူ
ဇေ
De
စစ်သည်
▁ရသ
ွီ
▁ခုနှစ်ကတည်းက
ပိုင်ဆိုင်မှု
ham
အောက်တိုဘာ
▁Ex
ရန်လည်း
တိုးတက်လာ
နီယမ်
▁နက္ခတာရာ
▁လတ်တလော
ခန့်မှန်း
▁ငါးနှစ်
▁အကျုံးဝင်
တစ်မျိုးမှာ
▁၁၉၂ဝ
▁လွန်ခဲ့သည့်
ဗိုက်
စေရမည်။
▁Maung
if
ခြင်းပင်ဖြစ်သည်။
ွိုက်
ဝိန်း
ဂီရိ
van
▁ရွာကြီး
▁အစီအစဉ်များ
▁ပုရပိုက်
ညီညွတ်
▁သန်းခန့်
▁လူသူ
▁Long
၂၀၀၀
▁ဆစ်
၂၀၀၈
ထူထပ်
ပေးခဲ့ပြီး
အမြတ်
▁အညီ
ကြိုးပမ်းမှု
▁Ge
▁ပဋိသန္ဓေ
စေရ
ဘိက္ခုနီ
▁ရွတ်ဆို
▁ဟိုပန်
▁မီးသွေး
တွေ့ရှိနိုင်သည်။
▁ရသော
ွာ
ဘာသာရေး
ရောက်ရှိလာ
လာနိုင်
▁ဖရန့်
မမြင်
▁မြန်မာတို့၏
▁ဖူးမြော်
▁တတိယအကြိမ်
=106
▁ဆုတ်
▁မော့
▁ကြွရောက်
▁တနိုင်းမြို့နယ်
▁Kyon
*
ဝဲလ်
လာပြီးလျှင်
▁ကျွဲနွား
▁မည်သူမဆို
▁မုဒုံမြို့နယ်
▁ပြိုင်ဘက်
▁အကြမ်း
▁ဝါရှင်တန်
ဖျော်ဖြေ
အသုံးပြုသော
တောင်တန်းများ
လိုသူ
န်ရွာ၊
▁၅ဝဝ
ခံနေရ
ရှိခြင်း၊
တရုပ်
ဘာသာစကားကို
နှစ်ရပ်
▁နိုင်ငံတွင်း
ထွာ
▁မာန်
တော်မူခြင်း
▁Sh
▁မရှိတော့
▁မမြင်
ကြည်ညို
="75
စက်မှု
nic
ဂါမ
ပုပ္ဖိယထေရ်
▁ကွေး
▁သိမ်းသွင်း
စီးရီး
▁ကယ်ဆယ်ရေး
ခေါင်းစဉ်
လှည့်လည်
တိုင်ရွာ
ရန်ပုံငွေ
Al
တည်ရှိရာ
▁သရက်ပင်
▁ဇယား
▁ဆရာစံ
▁ပြင်သစ်တို့
▁ဇာတ်ကောင်
မစား
တဲ့အတွက်
▁ဖောင်ဒေးရှင်း
နံ့သာ
▁Award
▁နွေရာသီတွင်
="64
▁ပေးထားခြင်း
ဘ၀
ွံ
▁Seik
▁ပို့ဆောင်ရေး
ဘရ
ကြသောကြောင့်
▁အလွတ်
▁ဗဟိုဌာနချုပ်
▁တစ်နည်းအားဖြင့်
▁Yan
▁ခေါ်ဝေါ်ကြသည်။
=54
ရုံမက
▁အတော်အတန်
▁ဒြပ်
မရောက်
▁ဒဂုန်
ဖြစ်လာပြီး
မှုများ၊
ရဟတ်
ဟိုတယ်
▁၁၈၇၅
▁ဒဿန
mit
ကတည်းကပင်
▁ချေမှုန်း
▁မွေးသည်။
ငတ်
▁ဖျော်ဖြေရေး
ဗိုလ်မှူးကြီး
=107
ရာအရပ်
လီယာ
▁ကျန်စစ်သား
▁တပ်များ
များတွင်မူ
စေရ။
▁အနည်းငယ်မျှ
သီး၊
အကယ်ဒမီ
ဖြစ်နေသည်။
ပြောကြားခဲ့သည်။
▁ရှေးရိုး
zi
ခဏ
▁သဘောကျ
စည်းမျဉ်း
တစ်ဦးသည်
▁ကြိုဆို
မရှိပဲ
▁သွပ်
ခရစ်ယာန်
တစ်နှစ်
ထူးချွန်
▁ရုပ်သံလိုင်း
ပုံစံကို
များအနေဖြင့်
▁သပြု
▁*
▁ရရှိနိုင်သည်။
▁မသေ
▁တော်ကီးန်
▁သလိပ်
▁၁၄။
▁မောင်နှမ
မိုင်ခန့်
▁ဖော်ပြပါ
▁၁၈၄၁
ရေကို
▁ရေးသားထားသည်။
တာတွေ
ight
▁တာဝန်များကို
▁7
▁မအူ
▁နို့တိုက်သတ္တဝါ
ချိုင်
သင်တန်းကျောင်း
▁မတူညီသော
အနောက်စု
▁တစ်ဦးတည်း
ညောင်း
▁ခွက်
▁ယူဆရသည်။
our
▁ဘုတ်
▁၎င်းအား
ထို့အတွက်ကြောင့်
▁သမိုင်းပညာရှင်
▁ရှုံးနိမ့်
▁တဘက်
ခဲ့ကြသည့်
▁လေးထောင့်
ခွဲများ
လိုင်ရွာ
▁ချထား
▁နေထိုင်သော
▁စာပေနှင့်
လုံးတွင်
လမ်းညွှန်
▁၁၈၇၄
ပုတ္တ
▁သားပေါက်
ဂတ
လုပ်ကြံ
အတိုင်းပင်
war
▁ကျော်ကို
▁ပတ်လည်
▁ဒိ
▁Dr
▁အငွေ့
▁စိတ္တ
=218
=93
နိုင်ငံများ၏
ome
နှေး
▁ရှန်
="218
▁had
အဂ္ဂ
ခဲ့သည့်အတွက်
သေတ္တာ
ကထာ
▁ဟုခေါ်သည့်
▁နေထိုင်ခဲ့သည်။
ပဲခူး
▁ပါဝင်လေသည်။
မဟုတ်။
ဟောကြား
▁အသီးအသီး
နှိပ်
▁အစချီ
▁စက်ဝိုင်း
002
▁ဖြစ်နေသည်။
ပရာ
▁တာဝန်ပေး
▁လှမ်း
လုပ်ရန်
ကိစ္စများ
▁တို့ဗမာ
မောင်းနှင်
▁အတတ်
▁ရှိပါတယ်။
day
▁မရနိုင်
▁တောက်ပ
▁လူတစ်ဦး
▁အပန်းဖြေ
တားမြစ်
▁ဝင်ရောက်ယှဉ်
သိမြင်
အခြေပြု
အလို့ငှာ
▁၁၆၉၉
▁အားကိုး
▁အကြော
▁အီကွေတာ
上
မဏ္ဍိုင်
မရှိပါ။
▁ပြည်နယ်များ
▁ဆွန်
ကျင်းပခဲ့သည်။
စီးတီး
ရာ၌လည်း
▁ဟစ်
▁အကြီးဆုံးမြို့
▁စကားရပ်
▁ဘန်ကောက်
တ္ထိ
မေးမြန်း
လေးဆယ်
မြစ်နှင့်
ငါးရာ
▁အာလူး
အောက်စု
▁အထက်တွင်
▁ပြောသည်။
မွ
▁မုံ
ဂျယ်
▁ဦးချို
▁ရေချိုး
▁သံပုရာ
▁ရေယာဉ်
▁ခန့်ရှိသည်။
▁၁၇၈၉
▁၁၈၇၀
▁၁၈၄၆
ယူခြင်း
▁ယူအက်စ်
အောက်သို့
▁နာရီတွင်
▁သက်သေခံ
▁ဗေ
▁အကျွန်ုပ်
ဘက်ခြမ်း
▁နေထိုင်ကြ
သာရှိသည်။
▁တရားအားထုတ်
▁စန်း
ဖောက်လုပ်
ဒေါက်
▁၁၈၂၅
▁ခမာ
▁ဖွင့်ပွဲ
ဟရ
▁ချိတ်
▁ခွဲဝေ
▁၁၈၂၇
မျိုးနှင့်
▁နံ
ကန့်သတ်
▁စကြဝဠာ
▁လေ့လာမှု
▁ဆီးရီးယား
ကြွယ်ဝ
о
ဖြင့်လည်းကောင်း
▁death
▁ကမ္ဘာအနှံ့
မှတ်တမ်းတင်
St
လာပြီးနောက်
▁လုံ့လ
ဖော်ပြခဲ့သည်။
▁မိစ္ဆာ
▁တက်ကြွ
▁အချိုး
အကြောင်းအရာများ
▁၁၈၉၀
မှတ်ပုံတင်
ရှယ်
အိမ်ထောင်
အသစ်ကို
နေချိန်တွင်
▁မြတ်နိုး
ပို့ဆောင်
▁သင်တန်းများ
နည်းလမ်းများ
▁ဟိုက်
▁အဂ
▁ထွက်သော
▁အရှေ့အာရှ
အောင်၊
လယ်ရွာ
tro
ဝင်၍
▁အလုံ
▁ဒူ
▁၁၆၈၄
▁သုံးဆောင်
CE
=217
▁ဖုန်
▁၁၆၈၂
ast
ယေး
▁တိုင်းသူပြည်သား
="217
▁အဖြစ်လည်း
သလား
▁ညွှန်းဆို
▁ဝါးတော
▁ရရှိခဲ့ပြီး
အဖွဲ့ဝင်များ
▁မင်းရဲ
▁အိဝ
လွှမ်းမိုးမှု
▁ရရှိခဲ့
▁ပဓာန
▁အိန္ဒိယနိုင်ငံ၏
▁အထောက်အကူပြု
▁၃၀၀၀
▁တပ်ဦး
▁ရွာတွင်
▁ရေးသားခဲ့သော
▁သုံးဦး
နှိမ်နင်း
ဝူ
ဖောင်ဒေးရှင်း
▁အထပ်
▁အတော်ပင်
▁ထူးခြားချက်
▁ယူဇနာ
မိဖုရားခေါင်ကြီး
▁ဟုဆိုသည်။
▁ရှေ့သို့
စာအုပ်ကို
စမ်းရွာ
ခန
▁ဆရာကြီးသည်
▁ပဲ့
▁16
▁အမြန်ဆုံး
▁အခြားသူများ
ကျွန်းများ
▁ငြင်းဆန်
ပန်ဝိုင်မြို့နယ်
▁တည်ဆောက်ရေး
▁အင်္ဂလိပ်အစိုးရ
▁ထုတ်ကုန်
="93
တစ်နိုင်ငံလုံး
AN
သစ်ရွာ၊
ခြင်းမျိုး
▁ဤကန်
▁n
ကြူး
▁United
ဂျေား
▁ဆောင်ရွက်နိုင်
ဆုံးရှုံး
▁စတင်ခဲ့ပြီး
▁နာဝီးမြို့နယ်
လူ့
တည်ဆောက်ရေး
တစ်ပိုင်း
မလုပ်
တင်၊
မှန်သမျှ
▁မိမိကိုယ်တိုင်
ဓုတင်
▁၇၀၀
န္တရ
▁စာသင်ကျောင်း
ပညာရှိ
▁ထားဝယ်မြို့
▁ကျန်ရှိ
="108
ပေ၏။
ဝင်ရိုးစွန်း
ကျယ်ဝန်း
▁ကျွဲခြံ
▁မြင်သာ
▁၁၇၈၈
အနီး၌
▁ပျောက်ဆုံး
▁ပင်လုံ
ser
▁ထုံ
ဗွေ
ဆရာများ
▁မန်ကျည်း
▁ဘုရားကုန်း
▁ထိုရွာသည်
▁ရု
▁နည်းလမ်းများ
▁ပြုလုပ်နိုင်
သွားလျှင်
စနစ်သည်
များသည်။
တမံ
LA
="92
▁အငြင်းပွား
စည်းကမ်း
▁အလေးထား
▁နေထိုင်သူများ
ကြီးကြပ်
▁ကင်မရာ
▁ကိုယ်စားပြုသည်။
▁နှစ်ခန့်
အထက်ပိုင်း
တွင်ပါဝင်
ပါကစ္စတန်နိုင်ငံ
▁Mawlamyine
山
▁ပထမဦးစွာ
▁ဝိုင်းဝန်း
▁စာသင်
၌ရှိသော
▁ထိရောက်စွာ
ရူပဗေဒ
▁has
red
သင်္ဘောများ
▁နောက်ခံသမိုင်း
▁လက်ဆက်
▁တစ်နေ့လျှင်
ထက်မြက်
သတ္တဝါများ
ox
▁သူကိုယ်တိုင်
▁၁၅ဝ
ဖယ်ရှား
▁၁၈၅၅
▁အုံး
နောက်ခံ
=208
="84
▁ကော်မတီဝင်
▁နေရောင်
ရသည်ဟု
che
▁ပုံတူ
▁ဖလမ်းမြို့နယ်၊
အဝင်
ခြင်းဆိုင်ရာ
မွေ့
မကင်း
▁ကနေ
တတ်ပြီး
▁အမရပူရမြို့နယ်၊
ကျက်စား
မျိုးဖြင့်
ကာလက
▁dis
▁တပည့်တော်
▁အအေး
▁အမိန့်ပေး
▁ချော
▁စွယ်တော်
ယ့်
ling
▁အဋ္ဌမ
▁ရွှေတံဆိပ်
au
▁ကန်တော့
▁အထင်အရှား
▁Google
စီးပွား
ပြီးတော့
ဇူး
▁မုံရွာမြို့
အစိုးရမှ
ဎ
▁ဩစတြေးလျနိုင်ငံ
▁zone
ဖခင်
▁days
မိသည်။
▁သူနာပြု
▁ရှိကြောင်း
tri
▁အမျိုးအစားများ
▁၁၈၁၂
▁ဗုဒ္ဓဘာသာကို
▁တနင်္ဂနွေ
▁ဇနီးဖြစ်သူ
▁ဟင်
▁ဖျက်
▁လျှပ်စစ်သံလိုက်
နိုင်၊
ခုတွင်
▁ဒဂုံ
၂၀၁၂
lon
မြတ်စွာဘုရားရှင်
ထားခဲ့
▁ထောပတ်
ရှိဘူတာ
အနည်းဆုံး
လက်ဝဲ
ဆန္ဒပြ
အဆောင်
ယယ်
▁ငွေစက္ကူ
▁ထိုစာအုပ်
▁un
▁၉၄
ဂျော့
▁စစ်သူကြီး
▁ဇေယျ
▁ရေအားလျှပ်စစ်
▁ခန့်အပ်ခြင်း
▁ဘုရားသခင်၏
ဖြစ်ခဲ့ပြီး
ငါသည်
ဖေါက်
▁လမ်းများ
▁ရဲတိုက်
နွန်
▁သုံးသည်။
ဥပဒေကို
▁သင်္ခါရ
▁ထိုင်းနိုင်ငံ၊
▁ချောင်
▁ချိုင့်ဝှမ်း
အော
▁ကုဋေ
▁ခွင့်
▁me
▁ဆက်နွယ်
▁၁၈၂၂
gar
▁အသင်းဝင်
▁We
▁အညာ
="208
▁တရုတ်တို့
▁အပ
▁ပစိဖိတ်သမုဒ္ဒရာ
မြှင့်တင်
တော်မူရာ
ပြုပြီး
▁များမကြာမီ
▁ကျင်းပသည်။
ကြေညာခဲ့သည်။
▁ခရစ်ယန်
အရှိဆုံး
ကြီးငယ်
နိုင်တဲ့
ခုနှစ်အထိ
နှစ်ဆယ်
ဟူသည်မှာ
▁သွယ်
▁၁၈၂၃
▁စားပွဲ
▁ပဲခူးတိုင်း
▁ပန်းခြံ
သီဟသူ
▁ဂွေးကုန်း
▁သံသယ
တည်ထောင်ခဲ့သည်။
▁၁၇၆၉
ရုပ်မြင်သံကြား
ပညတ်
▁အလွန်ပင်
▁ကမ်းလှမ်း
▁ချဉ်
ထရို
ကဗျာများ
တတ်သဖြင့်
▁ဦးဖိုး
▁သူရ
မင်းတို့
ကြားရှိ
နိုင်ဘဲ
ကလောင်
ခါနီး
▁အရည်ပျော်
▁ငါးပိ
▁လွှဲပြောင်းပေး
▁နာဇီ
▁ဟူ၍လည်းကောင်း၊
▁Shan
ရည်ရွယ်ချက်ဖြင့်
▁အသုံးများ
▁ထာဝရ
ပါဝင်မှု
▁မက္က
တို့ထံမှ
▁၁၂၀
▁အယူ
▁ခဏ
မြန်မာအမျိုးသမီး
ထန်ရွာ
သို့လည်း
ပေးကြသည်။
ခြင်းဟု
ခန့်ထား
▁ရေးသားထားသော
▁ပင့်ကူ
▁အင်းဝမြို့
ထွက်သော
လှာ
▁ဟစ်တလာ
▁ရင်းမြစ်
၂၀၁၃
▁အင်္ဂ
▁မြင့်တက်
=135
▁တောင်းခံ
တည်ရာ
တွေ့ရှိရသည်။
အလီ
▁တောင်တန်းများ
▁အခေါ်အဝေါ်
▁နေသည်။
ပန္န
ထုတ်လုပ်ခြင်း
▁ဖာရင်ဟိုက်
▁အင်္ကျီ
="135
▁နောက်လိုက်
▁အဘိုး
တစ်ခုအနေဖြင့်
ပြည်သူ
ei
▁ပါဝင်ခဲ့ပြီး
ပေးသူ
▁ရှိနေသည်။
▁ထပ်ဆင့်
▁သာလွန်
▁အသုံးပြုပုံ
▁သဗ္ဗ
သောအရာ
▁Maw
▁အာသံ
▁ချီးမြှောက်
▁ထင်ရှားစွာ
▁အနိုင်
▁တန်ချိန်
▁အမှတ်လက္ခဏာ
▁မြောက်ကိုရီးယား
ပင်၏
အသိ
ဝီး
နေခဲ့
နတ်သမီး
▁သုံးဆယ်
▁ငှက်ဖျားရောဂါ
▁Am
▁အာဏာကို
=137
▁အစ္စလာမ်ဘာသာ
ပေးလေသည်။
▁စာရွက်စာတမ်း
ကလေးကို
▁ဂျွန်ဆင်
▁သက္ကတ
ဇိုး
="137
နိတ်
ခြားနား
▁စစ်ချီ
ုပ်သံဇာတ်လမ်းတွဲ
▁ထိုအကြောင်းကို
ကြိမ်တိုင်တိုင်
စားခြင်း
▁ဟိုင်း
▁နဂါးငွေ့တန်း
▁တန်ဆောင်မုန်း
▁အစာကို
▁ဤသုတ္တန်
▁ဝမ်းနည်း
အရွက်
ပရို
ယူရန်
▁အကောင်း
ကိစ္စကို
ors
ကရိယာ
စည်သူ
▁သတ်မှတ်ခြင်း
▁သုံးမျိုး
ရသည်မှာ
▁၈၁
သည်ဟူ၍
နိုင်ငံများမှ
▁ကမ္မဋ္ဌာန်း
▁ခေါင်းဆောင်မှု
အမေရိက
▁ရောင်ခြည်
▁ကြေညာသည်။
▁ပျဉ်
ပဲ။
နေစဉ်အတွင်း
ပညာသင်
လျှို့ဝှက်
တစ်ချပ်
ွင်
▁စုပ်ယူ
▁စက်ရုံများ
တစ်ချို့
▁၁၈၃၉
▁လမ်းမကြီး
မိန်း
ရိုင်းတိရစ္ဆာန်
ဇာတ်လမ်းများ
ဆွန်း
▁၎င်းတွင်
bit
ပြုလုပ်၍
သွားသဖြင့်
▁Nga
ရှိ၍၊
▁စစ်ကြောင်း
သွားမည်
ဖြင့်ပင်
ကြီးများနှင့်
▁နေရာဒေသ
ဖြစ်နိုင်သည်။
ရလဒ်
လှံ
လိုကြောင်း
ကောက်ခံ
ခဲ့လေ
စစ်ကိုင်း
▁ယူအေအီး
▁two
▁ဒါပေမယ့်
များအားလုံး
55
ဂေ
▁ပါဠိတော်
▁ယင်းတို့အနက်
▁ဝန်ကြီးအဖြစ်
▁ဆိုက်ရောက်
▁သေဒဏ်
ဖွဲ့ဆို
ပေပြီ။
ကောင့်
▁ပါဠိဘာသာ
▁တည်ဆောက်ရန်
▁ပုံ။
▁သံဃ
▁မပြော
▁ရွှေပြည်
ခန့်သာ
▁မြန်မာ့သမိုင်း
ယန်ကျေးရွာအုပ်စု
ခဲ့ကြသည်
▁တယ်ပင်
▁၁၆၇၇
ခိုင်မာ
များဖြစ်ပြီး
န္ဓ
ပြောင်းလဲခြင်း
သုံးယောက်
▁ပေါ်လစီ
ဆံ့
လိယ
▁ထီးနန်းကို
ဖြစ်ကြသည်။
▁ကလောင်အမည်
▁Let
အရာရှိများ
▁Sun
▁ညီနောင်
▁တည်ထောင်ခဲ့ပြီး
ရုံ၊
▁နေရ
ဒေသ၏
▁ကျန်ရစ်
နယ်သည်
ရွှေ့ပြောင်း
▁လက္ခဏာများ
▁စစ်ဆေးခြင်း
▁၁၇၆၄
နှစ်များတွင်
▁တံတားဦး
▁လိုချင်
သည်ဖြစ်စေ
အမှတ်အသား
▁ဘရာဇီးနိုင်ငံ
ren
▁တယ်လီဖုန်း
အချို့သည်
▁အသုံးပြုထားသည်။
▁ဝေးကွာ
▁လောဘ
ပင်ပန်း
▁၈၆
▁one
▁နိုင်ငံရေး၊
▁ဖြစ်ရာ
unt
▁ဟိန္ဒူဘာသာ
တော်စပ်သူ
▁စကြဝတေးမင်း
သမာ
လယ်ကျေးရွာအုပ်စု
▁ဆက်မြောက်
သျှင်
▁ပရိယတ္တိ
="111
နေတာ
▁သမ္မာ
▁အနိစ္စ
58
ဘွဲ့ဖြင့်
ာန်
သည်ဖြစ်၍
▁ခမ်း
▁ကလေးငယ်
ဖစ်
▁မိခင်ဖြစ်သူ
ဟန်း
▁မပေး
လက်နက်များ
▁ထူထပ်
▁ငြိမ်းချမ်း
▁တစ်ခုဖြစ်ပြီး
▁ဆော
▁တိတ်
ကြခြင်းဖြစ်သည်။
▁ကြောက်ရွံ့
အမိန့်ကြော်ငြာစာ
▁ကန်၏
စခန်းများ
ဖိန်း
▁သဏ္ဌာန်
▁Inn
="82
701505
tal
အထိမ်းအမှတ်
▁သေဆုံးခဲ့သည်။
▁အနီးရှိ
▁သဘာဝဓာတ်ငွေ့
▁လွှဲ
▁သိုလှောင်
▁ဒလ
ခရိုင်ခွဲ
▁ဆင်ခေါင်း
များလည်းရှိသည်။
ပွဲတော်ကို
▁လှေကား
ဆောင်းပါးများ
အသုံးပြုမှု
▁ဖလား
ထားလျှင်
မယ်တော်
▁အသုံးပြုခွင့်
▁၎င်းမှာ
▁ရှုမဝ
▁ကျတီ
▁ကျွန်တော့်
▁ဦးခင်မောင်
▁၂၀၂၁ခုနှစ်
▁ယင်
▁အလှူခံ
▁တည်ရှိရာ
▁ထွန်းကားခဲ့သည်။
▁အကောင်အထည်
▁name
ငွေကို
▁ရှမ်းစု
ကျယ်ပြန့်
▁အိန
▁လောင်ကျွမ်း
▁ရည်ရွယ်ချက်မှာ
▁US
▁နဖူး
▁အဖို
ခွင့်ရှိသည်။
▁ဖြုတ်
▁new
▁မဲပေး
ကြရာတွင်
▁တီးဝိုင်းသည်
▁ဤသည်မှာ
တက
law
အရည်အချင်း
အွန်း
▁အဆက်
▁၁၇၉၂
▁၁၇၅၈
▁ထိုးဖောက်
ဏီ
ရှားပါး
▁ရဟန်းတော်
▁ကြားတွင်
▁အနော်ရထာ
▁ကျောက်တောင်
ဆိုရှယ်လစ်
မုခ်
▁၈၂
▁၁၈၃၃
နမူနာ
အထောက်အပံ့
ရှေ့လောင်ဂျီတွဒ်
အိပ်မက်
▁စာအုပ်တွင်
မည်မျှ
▁ကျိုင်း
▁ခဲယဉ်း
ကျောင်းသို့
▁၇၆
ဇုံ
စတား
မြို့မှာ
="67
▁၁၈၁၅
ဗန်းမော်မြို့နယ်
▁မှီခို
ep
▁တိုင်အောင်
ဗော
▁ပူး
ရောဂါများ
▁တိုကျိုမြို့
RC
▁၁၈၁၁
▁အင်ဆူလင်
kin
▁လိုအပ်သလို
▁မတွေ့ရ
လုပ်ငန်းစဉ်
▁ကျူး
ay
ဖျင်း
ရခဲ့သည်။
▁ပြည်မ
▁ဖြန့်ဝေ
▁တရားကို
▁မီလီမီတာ
တွင်လည်းကောင်း
▁၁၆၆၄
▁သုတ
▁ဇရပ်
▁လုပ်သား
အသုံးပြုကြသည်။
အမျိုးသမီးများ
မောင်၊
သိန်
အီရန်
ကဒ်
ဇာတ်တော်
ရှိရာသို့
▁တိုက်ခိုက်ရေး
▁နှစ်အောက်
ဇူလိုင်
နှင့်တူ
▁မိုးလေဝသ
ys
ဇလုပ်
68
ခွန်း
ဒေသ၌
ဂန္ဓာ
ထောက်လှမ်းရေး
အများစုကို
လျူ
ဖရုံ
nes
ခလုတ်
န်းရွာ၊
▁ဂျီဩမေတြီ
ရာသီတွင်
ins
▁ဝန်ကြီးများ
Sa
မီက
▁ဖြန့်ဖြူး
▁ကြားရ
▁ချောင်းဖျား
▁ဂွေးပင်
အမှတ်မှာ
▁သင်ကြားပို့ချ
▁လှူဒါန်းခဲ့သည်။
များအကြောင်း
ပမ်း
ِ
=110
▁နယ်သာလန်
▁ဝတ္ထုတိုများ
တွတ်
▁ဖွံ့ဖြိုးဆဲ
▁ပြန်သွား
ပျင်း
▁ထင်မှတ်
▁လိုအပ်ချက်
နှစ်ကြာ
▁ရောင်းဝယ်
▁တင်စား
ခဲ့သည်၊
ean
အနု
▁ဆိုလျှင်
ချစ်ခင်
▁ယူခဲ့သည်။
သိဒ္ဓိ
▁သက်ဆိုင်သည့်
▁၁၇၅၂
▁အောင်း
▁ဆိပ်သာ
▁စီးပွားရေး၊
▁၁၅။
မဏိ
တစ်ပင်
များမှာမူ
ဖေဖော်ဝါရီ
▁မျိုးနွယ်စု
▁ကျန်း
="110
ရေလက်ကြား
ကွန်ဂရက်
မှိန်
အချို့မှာ
ပြုလုပ်ခဲ့သည်။
ဆက်စပ်
▁ဆိုပြီး
▁ဂျပန်ခေတ်
သမုတ်
▁ဂီတကို
▁ခင်ပွန်း
မှတ်တမ်းများ
ယီ
လိုအပ်သော
▁အလွန်အမင်း
▁ကမ္ဘာဦး
မြတ်နိုး
▁ကညင်ကုန်း
လမ်းမ
=52
▁မိန့်တော်မူ
▁သံဃာတော်များ
ပါဟု
▁နယ်ခြား
▁မိုက်ခရိုဆော့ဖ်
▁ဂျော်ဂျီယာ
▁တာဝန်ကို
▁မိတ်ဆက်
ဿာ
ကြည်လင်
လုံးကြီး
တိုက်ရိုက်
တပ်သား
ဆန်ဆန်
▁ပြုလုပ်ထားသည်။
လက်သို့
bar
▁လက်တွဲ
အဝတ်
▁ကြိုးကြာ
ပြသည်။
▁ယခုခေတ်တွင်
တိရစ္ဆာန်များ
ျု
▁မျက်မှောက်ခေတ်
တာရာ
▁၁၈၇၇
▁ဖြစ်စေသည်။
ဆရာအဖြစ်
line
▁အမှုန့်
▁အဆိုရှိသည်။
မြေပုံ
▁ရနိုင်
လျှို
▁အချမ်းသာဆုံး
ဆင်းတုတော်
တဲ့၊
▁တယ်
လုံးဝ
="66
ညီညွတ်ရေး
▁တရားလွှတ်တော်
▁နေအဖွဲ့အစည်း
▁ဒက်
▁ဇာတ်ညွှန်း
ပင်ဖြစ်
အရေးပါ
စေတီကို
ပြစ်ဒဏ်
တွာ
▁ရစ်ချတ်
▁စည်းစိမ်
ကြပါ
▁အမှုထမ်းခဲ့သည်။
▁Or
▁ယနေ့ခေတ်တွင်
လက်အောက်ရှိ
▁Gra
ချောင်းဖျား
▁အိန္ဒိယနှင့်
▁နံ့သာ
နည်
▁စူပါ
▁Billboard
▁မလို
▁ပြသခဲ့သည်။
▁၁၇၉၃
▁မိုင်းပတ်
▁များက
ပြန့်ပွား
ရောင်ခြင်း၊
▁တောတွင်း
▁ကျွမ်းကျင်မှု
▁ပြောက်ကျား
▁ဝတ်ပြု
▁သာမန်အားဖြင့်
▁ဗားရှင်း
▁ထိုကျွန်း
▁ဆင်ယင်
ပါရှိသော
ဖြစ်နေသော
▁စူဠ
တန
▁နက္ခတ္တပညာရှင်
▁အသေ
▁သောကြောင့်
မည်၊
အနွယ်ဝင်
နိပါတ်
▁ပြုလုပ်သည်။
▁စိ
သူများ၊
မရွာ
▁ဘုရားချောင်း
▁မြန်
ခြင်းဖြစ်
▁ရေစီး
အောက်၌
▁၁၇၅၉
အံ့၊
မြို့အနီး
မင်းခေါင်
▁နူးညံ့
▁၁၁၀
▁ကျန်းမာရေးနှင့်
=104
တိုက်စား
▁စည်းလုံး
▁အရင်းရှင်
ဂံ
▁သော်လည်းကောင်း၊
▁ငဖဲမြို့နယ်
နန်းတက်
သူမ
ကျောက်တိုင်
▁ပြုတ်
ကာလ၌
▁ကျနော်
လုပ်ပိုင်ခွင့်
▁ချစ်သူ
▁ပြောင်းလဲလာ
ဒေသနှင့်
▁ဘာသာပြန်ဆို
အခွေ
▁ရရှိသည့်
▁နေထိုင်ကြသော
▁အထူးပင်
▁အရပ်သား
ရေတွင်း
ကသိုဏ်း
ဘုရားသည်
ပို့ဆောင်ရေး
▁စနေ
စေရာ
ဘိန်း
▁ဂရမ်
za
အားလည်း
▁အညိုရောင်
▁၁၈၄၇
▁မလိုလား
အခါက
အရေးကြီး
တတ်၍
▁ညွန့်ပေါင်း
▁၁၇၆၃
▁တပ်ဆင်ထား
၂၀၁၇
ကျမ်းတွင်
▁သို
▁ဖော်ဆောင်
ခဲ့ခြင်းကြောင့်
▁စတင်တည်ထောင်ခဲ့
▁up
▁ချပ်
ရွန်း
လောက်သာ
▁တင်ပို့ရောင်းချ
ဘောလုံးအသင်း
▁ဖုဂျိ
▁စီးဝင်သည်။
▁ဆိုလိုသည်မှာ
▁သဘောတူညီမှု
Ar
မရှိ။
အထည်
စာပေများ
▁ပညာဆည်းပူး
▁အစေး
▁၁၇၆၀
▁ဧချင်း
လှကျေးရွာအုပ်စု
ဘိက္ခုနီမ
▁ချောင်းဝ
ဒရာ
လျက်ရှိကြသည်။
▁Tar
တပ်ဦး
▁ကျည်
နတ်မင်း
▁စဝ်
▁သတ္တမ
▁တံငါ
ဘားမား
▁ဖောင်း
▁ခင်မောင်
▁ဟားခါးခရိုင်
နေရသော
အရှေ့စု
န္တာ
တောင်ကြီး
▁လူပျို
လောက်က
=62
ုပ္
▁ဖြစ်ခဲ့ပြီး
▁လက်ထပ်ခဲ့သည်။
▁ပေးရန်
ပန်းပင်
▁alternative
е
▁တယ်လီစကုပ်
မြောက်ပိုင်း၊
လာသောကြောင့်
တောင်ကြား
▁ကျောင်းတော်ကို
လေ့ရှိ၏။
တစ်ခုသို့
တိုင်ပင်
▁ပါလာ
ကျွန်း၏
▁အုပ်ချုပ်သည်။
အရောက်တွင်
နိုင်သမျှ
▁ကွာဝေး
ဂရမ်
မြစ်၊
ကလို
▁ဘွဲ့အမည်
တန်ချိန်
ရေးမှူး
▁မျိုးပွား
မလဲ
ဂါဝါ
မျှား
ဖြင်
▁ထက်မြက်
▁ဒဏ်ရာရ
▁စားသောက်ဆိုင်
CP
ကြကြောင်း
▁ဩဝါဒ
တတ်လေသည်။
so
="56
ပျား
ကောင်းများ
Po
ဒဏ်ရာ
ဂုဏ်ရည်
▁ချူ
အစိုးရကို
ရှိသူများ
မိုတို
▁တန်ဆာဆင်
နှော
▁အာဏာရ
▁ဇင်
▁mainstream
အချင်း
▁ဝါဂွမ်း
ဂုဏ်ပြု
စွတ်
တားဆီး
▁သေဆုံးသွား
တွမ်
▁တံတိုင်း
ted
▁ဃ
▁ကြမ်းတမ်း
▁ဝီရိယ
▁မည်သို့မျှ
ရရှိသည့်
▁၁၇၉၁
▁ရန်ကုန်မြို့ရှိ
▁အပြိုင်
▁၁၈၄၉
နံ့
▁၁၆၄၄
တက်လာ
▁ညီမျှ
▁အနွယ်
လမ်းကို
▁သံဘို
သုံးနှုန်း
▁အသက်မွေးဝမ်း
▁စီမံခန့်ခွဲရေး
▁အာရ
▁ပြည်တော်သာ
▁အင်းမ
▁ကမ်
လက်ထက်က
▁ကျွန်းကလေး
▁၇ဝ
ပါတီ၏
ဂျား
▁အသုံးဝင်ပုံ
▁ပျော့
ပလင်
သာသနာပြု
▁အဲဒါ
လီရှော
လောကသို့
ခင်မောင်
▁ဟန်ဂေရီ
▁ဝံပုလွေ
တွင်ပါဝင်သော
og
ကိုင်တွယ်
▁အင်ပိုင်ယာ
ထုတ်၍
ဝန်ကြီးဌာန၏
▁တစ်ပြိုင်နက်
ney
တွင်ကား
၍လည်း
▁မလိုအပ်
ရာ၏၊
port
ဧပြီ
▁ရက်ကန်း
ကောင်စီသည်
▁အလှအပ
▁King
▁IV
စိတ်ဝင်စား
▁ရင့်
နိုင်လျှင်
▁BD
ဖွင့်ဆိုချက်
▁၉ဝ
လပ်စ်
မို့၊
ကျူးကျော်
ဂျာမန်
ရင်းနှီးမြုပ်နှံ
▁guitar
▁အီတာလျံ
rit
▁သုတေသီ
ပေ၊
အာဏာကို
▁နမ့်ဖိုင်
▁အယ်လ်ဘမ်
ထိတွေ့
များသာမက
▁မြင့်သည်။
▁ဆင်ကူး
▁၁၈၄၂
ဖွံ့ဖြိုးမှု
▁၁၇၃၁
သွားနိုင်သည်။
တယ်ဆိုတာ
သေးငယ်
ကိုလိုနီ
မြိတ်
တစ်စီး
▁သင်ယူခဲ့သည်။
အသုံးပြုခြင်း
တရ
အတွင်းဝန်
▁ဇွဲ
▁၁၆၈၃
ဒေသများ၌
အကြောင်းရင်း
မချိဘူတာ
▁အံ့ဩ
သည်လည်းကောင်း၊
▁(5)
အရှိန်
ဘရာ
▁၁၈၀၇
ုန်း
▁ဖြုတ်ချ
လက်ပန်
▁ဖြစ်လာလေသည်။
လွမ်
▁ကျူတော
လိုစိတ်
ကြွေး
▁comp
▁စတော့
▁ဝိတိုရိယ
EC
ဝန်ထမ်းများ
▁ဤမျှ
ဠာ
sang
▁15
ပါကြောင်း
▁ပျောက်ကွယ်
▁ကိုးကွယ်ယုံကြည်
▁လျင်မြန်
light
ဘစ်
▁ဝေါဟာရကို
▁Naruto
=133
▁ကောက်ညှင်း
၏အဓိက
▁အောင်မြေ
▁ပြည်သူ့ရဲဘော်
▁စစ်ကိုင်းတိုင်း
▁လာသည်။
လျောက်
▁နွားနို့
▁ပေါ်ပေါက်ခဲ့
▁ဂျာမန်တို့
▁၁၈၄၃
▁စာရင်းသွင်း
▁တရားခံ
များထံ
▁ရေနွေး
ဂရီ
▁ထုံးစံ
နေဝင်း
▁ဘားမား
နှစ်ခုလုံး
▁ကုမ္ပဏီ၏
နယ်ပယ်တွင်
="133
▁၁၇၀၆
▁၁၇၆၅
▁ကျောင်းသူ
▁အဖမ်း
▁Wi
▁ဗုဒ္ဓ၏
ina
▁လျော့
▁၁၇၅၇
▁ဖြာထွက်
ဆောင်ရွက်ရေး
=96
▁ဖြစ်တတ်သည်။
▁ဖြစ်ကြ၏။
▁ကျွန်းချောင်း
▁ရှည်သည်။
▁နပိုလီယန်
▁ကက်သလစ်
စထ
အရာကို
ဇန်း
▁လွတ်လပ်မှု
▁ဦးဆောင်မှု
▁ဂျီစီဘီအေ
ဒီဇင်ဘာ
သူလည်း
▁အိမ်ထောင်ကျ
▁၁၈၄၅
▁module
▁ရွာသာ
ဗောဓိ
▁သာသန
ပသ
▁ဗောဓိပင်
ွမ်း
▁စင်္ကာပူ
ّ
▁first
▁language
bin
▁Kyaung
=212
'()
ထိမ်း
mil
▁ဂေါတမ
▁နှစ်သား
▁ပေးသည်။
▁သေချာစွာ
▁pre
▁မြောင်
▁ဥပဒေများ
="98
သေးသည့်
▁အတို
▁အလုပ်အမှုဆောင်
▁Africa
▁ရောက်သည်။
cy
တို့တွင်လည်း
▁အဓမ္မ
▁ကိစ္စရပ်များ
▁သီချင်းကို
▁ယင်းကဲ့သို့
ဘုရင်ခံ
▁မြန်မာ့ရုပ်ရှင်
ဝူး
သီတာ
▁ဆေးလိပ်
▁ထောင်စု
▁၁ဝဝဝ
နောက်တွင်
▁ကြိုက်
ငြား
တစ်ဝိုက်တွင်
ချိတ်ဆက်
▁တောတောင်
▁ဗိုလ်ကြီး
ပြီးသည့်
ပေးရမည်။
▁ငှက်မျိုးစိတ်
မင်းများ
▁ဆူပူ
ဗီးယား
▁ကိုယ်စား
အင်္ဂလိပ်လူမျိုး
▁တွေ့ဆုံဆွေးနွေး
တပ်ကို
▁ပြန်လည်တည်ဆောက်
▁အချို့ကို
70151
▁ပုံနှိပ်တိုက်
လည်းဖြစ်
စိုးရိမ်
▁လေးမျက်နှာ
▁၈၃
cent
▁အကဲဖြတ်
▁၁၆၇၂
▁ကောင်းမွန်သော
▁မော်စကိုမြို့
▁တည်ဆောက်မှု
နိုဝင်ဘာ
▁လှပသော
▁အဖေ
▁ခူး
▁ဝိညာဉ်
▁ခြုံ
ထုတ်ဖော်
အကောင်အထည်ဖော်
ခြစ်
▁တပ်ပေါင်းစု
=130
▁အသုံးအဆောင်
▁မြစိမ်းရောင်
▁ကြားနာ
ပုံဖော်
ချူပ်
▁ထိုမှတစ်ဆင့်
နှီး
▁ဂျပ်
▁တည်တံ့
▁တပ်မြို့
ဖွားမြင်
▁စွန့်စား
▁ဥရောပတိုက်တွင်
="212
ဝန်ထောက်
ဥမင်
ကြီးဖြစ်သည်။
ခေါ်ယူ
လုပ်ခြင်း
နိုင်ငံအဖြစ်
▁နိုင်ငံကို
သွားပြီ
ဘုရားရှိခိုး
စက်တင်ဘာ
တော်မြတ်
▁များပြားလာ
ပင်ဖြစ်၏။
▁ကျော်ခန့်
စိမ်
▁၁၇၀၅
ဝတ္ထုများ
▁ဗား
▁ရိုက်ကူးခဲ့သည်။
out
သလော
="130
▁ဘွဲ့တံဆိပ်
▁တစ်စုံတစ်ရာ
သင်္ချိုင်း
▁မကောင်းမှု
မှစတင်၍
▁တန်ဆောင်း
မှာကား
စဉ်အတွင်း
ရတော့သည်။
သည်ဟုဆို
▁ဆန့်ကျင်ရေး
▁ပရိသတ်များ
▁နှော
ကျန့်
▁ပါဝင်မှု
ပညာသည်
▁သည်းခြေ
▁အထောက်အကူ
tin
ဆိုလို
န္ဒာ
ပီယာ
let
▁နောက်ဆုံး၌
▁Sha
▁ပိုက်ဆံ
ိပ်
▁လျော့ချ
ြောက်အမေရိကတိုက်
▁ဟူသည်
ခြင်းခံရသော
▁ဘုရင်၏
▁၇၈
ဘဝသို့
အဖြေ
▁ပြောင်းလဲခြင်း
▁အသိအမှတ်
pho
ကြောင်းနှင့်
ညွှတ်
မှအစ
▁သင့်လျော်သော
▁music
ွိုင်း
▁Metal
▁၂၁၅၉
▁အချို့သည်
▁မိုးရေ
▁တခါ
▁မှော်ဘီ
ပေါက်ကွဲ
▁ဖောက်ပြန်
လိုလား
▁ပေါ်ထွန်းလာ
တောင်ပိုင်းရှိ
▁Kar
လေးကျေးရွာအုပ်စု
သူပုန်
အဝေး
ရှိပါတယ်။
▁၁၆၈၈
ဂမ်
အဆင်
▁ယူနန်ပြည်နယ်
လျှ
▁ဇီ
ပြည့်ဝ
▁ကျောက်စိမ်း
▁ဖွဲ့စည်းထား
ဇမ်
▁ချွတ်
▁ယူနိုက်တက်ကင်းဒ
စေခြင်းဖြင့်
▁17
ပြည်သူများ
▁များဖြင့်
Mo
▁၉၈
▁ဂျိုး
yin
▁ပြန်လည်ဖွဲ့စည်း
▁သံဃာတော်
ခဲ့ပုံ
ခေါ်သည်။
ဂေါင်
ြန်မာနိုင်ငံတော်
ပေါ်ထွက်လာ
ဝေးသော
▁he
▁ချေ။
▁ဘွဲ့ရ
ပျူ
သမီးတော်
▁အတိအလင်း
ခန္ဓာကိုယ်
နှယ်
ကလောင်ဖာမြို့နယ်
မန်တွန်းမြို့နယ်
့ချ်
ဂုဏ်ထူး
▁ဖွဲ့နွဲ့
▁UTC
▁Red
တခုခု
▁တစ်မြို့
="63
▁Hs
▁တပေါင်းလ
▁အကောက်
အလုံး
ခေါင်းဆောင်အဖြစ်
▁ရွေ့ပြောင်း
ရတာ
▁ပေါ်ထွက်
▁ဝန်ဆောင်မှုပေး
▁တစ်ဦးတစ်ယောက်
သိမ်းဆည်း
▁စီးရီး
▁လွင်ပြင်
▁ချွေး
▁Shi
▁သိက္ခာပုဒ်
▁ပျက်ကွက်
ရေးသားသော
▁တနေ့
မျိုးဖြစ်၍
တာဝန်ခံ
▁ရုံတင်
ချိုင့်ဝှမ်း
အပြား
▁ရွှေနန်း
▁၁၇၀၀
ထူထပ်သော
ပြည်ကို
အခြေအနေကို
သက်သေ
▁၁၆၉၂
▁အိမ်တွင်း
▁ဟောတော်မူ
သင်တန်းများ
ကုမ္ပဏီများ
▁ပျက်ပြား
တစ်ခုခုကို
လာပြီ
▁ဧရာဝတီတိုင်း
▁အတုယူ
▁မရှိသော
▁ခုနှင့်
▁ကယ်ဆယ်
ဇတ်
▁အောက်မေ့
▁မည်၏။
ဘယ
▁မြောက်ဦး
ပါလျက်
အင်တာနက်
▁ဤကား
ကုန်းတန်း
sha
ဘဲ၊
▁တိုင်းပြည်၏
▁ကိ
▁လေးနှစ်
ကြယ်စုတန်း
▁ပေါင်မြို့နယ်၊
နိသျ၊
သမာဓိ
▁အပြစ်ပေး
▁Pyay
ကြေညာချက်
အိမ်စောင့်အစိုးရ
အုပ်စုများ
▁ညီမ
လျော်
နေဆဲဖြစ်သည်။
သီးနှံ
ထားရှိသည်။
▁ဥရောပနိုင်ငံ
၂၀၁၈
ကြားမှ
▁၂၀၂၉
ဆယ်ပါး
များစာရင်း
▁အကြီးဆုံးသော
▁မီးသတ်
နေ့ကို
ပြည်ထောင်
yn
▁နှစ်ပတ်လည်
▁ထိုအဖွဲ့
▁သူ့ရဲ့
▁၂၁၀၁
▁ဗြိတိသျှတို့၏
ဖတ်ရှု
ပြီး၍
▁သုတေသနလုပ်ငန်း
ပြီးနောက်ပိုင်း
▁တို့နှင့်အတူ
တုံရွာ
▁ကယား
▁နမ့်ခမ်း
54
အိုလံပစ်
အစွမ်း
aing
▁တက္ကသိုလ်များ
▁မွန်တို့
▁ရေသွင်း
လွှ
▁မြှုပ်နှံ
▁စာတည်း
စတင်ခဲ့သည်။
67
▁ဂျန်
▁သိုးမွေး
▁၁၈၁၄
▁စွန့်ခွာ
မင်းနှင့်
▁စာသားများ
IC
70350
ကညင်
▁ဆေးကြော
ဂျုံ
တလျှောက်တွင်
▁ဂရု
ဆွမ်
▁စော်ဘွားကြီး
စော်
▁အလိုက်
▁နေရာသို့
▁ကြို
▁မိုးဗြဲ
ကျောင်းစု
▁သက်ရှိများ
▁၁၉၈ဝ
လုပ်ဆောင်ချက်
▁လျော့နည်း
ရှည်ရွာ၊
▁သူကြီး
ဋိ
kh
မတိုင်ခင်
▁ဩစတေးလျ
▁ကြက်ဥ
▁၁၇၉၆
▁Paung
မ္ဘ
▁ဟုခေါ်ဆို
▁၁၇၈၃
▁လန်း
အချစ်
▁ရွာသာယာ
▁၁၈၆၀
ခဲ့ရာ၊
ius
နာယက
▁ဒေတာများ
ပြောပြ
မည်သည့်
နေထိုင်သော
▁ရွေ့လျားမှု
ဖြစ်ပါတယ်
▁ကျွန်းတော
=142
▁ကုန်းလမ်း
အက်ဆစ်
▁အစဉ်လိုက်
ဖက်သို့
▁ကွာရှင်း
▁who
="78
ရရှိခဲ့
ခရမ်း
များအပါအဝင်
--
ခီး
▁သံဖြူ
သလင်း
ဘဝက
off
ခန့်က
ပိုင်နက်
မသွား
ခွဲခြားနိုင်သည်။
သမျှသော
အရာ၌
လျက်ရှိသည့်
ဖြူး
အဖြစ်အပျက်
မီးလောင်
▁အသံကို
▁ရေတွင်
="142
ဥပဒေအရ
အလား
▁စံချိန်
sy
အပြင်ဘက်
▁ဆင်သေ
▁၂၀၂၅
▁Tr
65
အရက်
▁Company
▁ဗိုလ်သက်ထွန်း
▁အကျဉ်းချုပ်
▁ကင်းဝန်မင်းကြီး
▁၁၈၃၅
▁တိကျစွာ
▁မြန်မာအစိုးရ
နတ်သား
▁နိုင်ငံခြားသို့
▁သိပ္ပံနည်းကျ
တပ်များက
▁ဘုရားကြီးကုန်း
သာယာကုန်းရွာ
နဝ
▁ရေလဲ
▁ရောဘတ်
▁အုန်းသီး
▁ထားရှိသည်။
စေချင်
တည်နေရာ
စုပေါင်း
=148
▁မဟာဗောဓိ
ခါဝါ
သွားအောင်
ရှော့
▁ကျော်ကြားလာ
="148
ရထားလမ်း
▁သာသနာနှစ်
မြတ်သော
▁ပွားများ
▁အပြန်
▁ပေါ်လွင်
ဏှ
▁ကရင်နီ
▁စောင့်ထိန်း
▁ပြည်ပြေး
▁ကောင်းကျိုး
ရှေ့နေ
▁ရွာသွန်း
▁၁၇၅၅
ခဲ့ရသည့်
ခွဲခြားမှု
သို့ပြောင်းရွှေ့
▁သယ်
ကျောင်းရွာ၊
▁မြန်မာဘုရင်
▁နီပေါ
▁ဘုရားရှင်၏
▁ဖွင့်လှစ်ပေး
▁၁၇၆၇
ရွေးကောက်
▁စံပယ်
ကုန်းကြီးရွာ
လာသည်ဟု
လန်းရွာ
▁ဘကြီးတော်
▁ဟိုနမ့်
ရိန်
တီးဝိုင်းများသည်
ရို့
တက္က
ဘေးမှ
▁OS
▁သဘာပတိ
▁ပေါ်ထွန်း
အစေ့
▁မတော်တဆ
▁အဓိကရုဏ်း
▁အခြေအနေများ
▁ဓာတ်ပြား
စန္ဒာ
▁သင်တို့
▁ပြုလုပ်ရာတွင်
ular
လိမ္မာ
သုံး၍
နေအောင်
ယန္တရား
ပုံရွာ
ယှ
ပြင်းပြင်းထန်ထန်
▁သင့်တော်မည်ထင်
▁ဆန့်
မိဘ
ျက်နှာချင်းဆိုင်
ဓာတ်တော်
▁ရွှေ့
▁ထနောင်း
▁ယူဆောင်လာ
▁လိပ်စာ
စိစစ်
▁ခေတ်မှီ
▁ဝန်ထမ်းများ
▁မှန်ဘီလူး
▁၁၉၃ဝ
လာပါက
▁ပြုလုပ်၍
▁အလွန်တရာ
▁တောင်ပံ
="57
ကိတ်
အတ်
အစီရင်ခံစာ
▁တာဝန်များ
ကြသူ
လုလင်
▁၂၁၁၀
▁အခြေချနေထိုင်
ပတ်သက်
▁ပုထိုး
လှ၏။
ရီယာ
▁အင်ဒရိုမီဒါ
ဖြစ်ရကား
ဂွန်း
စံချိန်
▁မြန်မာဘာသာဖြင့်
▁၁၈၅၈
▁၁၆၆၉
▁သွန်းလုပ်
▁၄၂၇
ယစ်
▁စတာလင်
▁ဟား
▁ဤတွင်
နှုန်းမှာ
▁သေး
▁ဖြစ်ပေါ်စေသည်။
▁စီရင်စု
▁ကင်းထောက်
ပြုလုပ်သော
▁အသွင်အပြင်
▁At
အတွက်လည်း
▁ဓာတ်ခွဲခန်း
ခွင့်၊
▁သရော်
အချို့တွင်
▁ဖြစ်ရ
မျိုးရင်း
▁လူကို
နှစ်အကြာတွင်
▁ပါလက်စတိုင်း
▁အားကစားပွဲတော်
နိုင်ငံတို့တွင်
ချိန်း
ထည့်ကာ
▁တန်ဆောင်မုန်းလ
ရေးဦးစီးဌာန
ရေးဝန်ကြီးဌာန
▁other
ဝတ္တရား
▁၁၇၅၀
ဉ်း
ُ
▁label
▁တစ်နှစ်ပတ်လုံး
▁ဆိုဒီယမ်
▁ထိုအရပ်
ဘွန်
▁အဖွဲ့သည်
▁သီပေါ
လွတ်လပ်
ake
▁လက်ဖက်ရည်
▁စတဲ့
▁ရေးမြို့နယ်၊
ချန်ပီယံ
▁သီတင်းကျွတ်
ဗီဒီယို
56
နွံ
▁ဖော့
စီမံခန့်ခွဲမှု
▁တစ်ကိုယ်တော်
▁မျက်နှာဖုံး
နှစ်ကောင်
▁အရာရှိများ
ဖြစ်နိုင်
PP
မင်းသားသည်
နယ်၏
င်းနှီးမြှုပ်နှံ
▁ဝါဆို
ဝိတ်
▁ပိုပြီး
▁ထိခိုက်စေ
▁ညာဘက်
▁အလုပ်ရှင်
နျ
▁ဦးမောင်မောင်
▁ဝန်ထောက်
▁၁၇၀၈
▁All
▁ဖြူး
အခြေခံဥပဒေ
ကောက်ရွာ
▁အယူခံ
▁လူနေမှု
ပီပီ
ဘုရားရှင်
=47
500
▁၁၇၉၀
▁အာရုံကြော
▁စွမ်းဆောင်
▁ဝင်လာ
ဝှမ်း
▁နိယာမ
ဖွ
▁ဆန်းသစ်
▁တည်ဆောက်ထား
▁အချိုးအစား
▁၇၉
ual
cu
တို့အပေါ်
▁မရရှိ
▁စိုက်ထူ
▁ပညာပေး
သည်ဟုလည်း
▁လက်ခံရရှိ
川
▁ဤကဗျာခေါင်းစဉ်
▁York
▁စွယ်စုံကျမ်း
နန်းမတော်
ကွပ်ကဲ
▁အပ်နှံ
ရောက်မှ
="54
▁ဒေသန္တရ
မလား
▁တြိဂံ
ရမယ်
ကျေးရွာစီမံကိန်း
သုံးဆင့်
ဖော်ပြချက်
▁folk
လမ်းနှင့်
▁တွန်
▁အကျဉ်းထောင်
ကိုကား
သောအခါ၊
▁၂၁၄၉
အဆောက်အအုံများ
။။
ပြန့်ပွားရေး
များကဲ့သို့ပင်
▁ဖွဲ့စည်းထားသော
သံစဉ်
ငှက်မျိုး
▁မအူပင်
▁တန်ပြန်
ဗျိုင်း
▁၁၇၆၂
ခရု
▁ဗုံးကြဲ
စစ်ဆေးခြင်း
နှင့်အခြား
Co
▁ခြောက်သွေ့သော
အဖွဲ့၊
▁အဆင့်မြှင့်တင်
ော့
▁ဖော်ပြထားသော
▁မှည့်
ဟန်တူသည်။
▁အများစုသည်
▁အာရေဗျ
▁အညို
အဘိဓာန်
BA
▁မျှော်
▁အရာများ
တစ်လုံးကို
▁ပညာတတ်
▁မလွယ်ကူ
▁တိုက်ကြီး
="107
မြန်မာပြည်
▁အစ်မ
▁ဒါန
တော်သည်
တလန်
▁အသွား
▁အမည်နှင့်
▁သက်ကြီး
စိတ်ကို
ရပ်ဝန်း
တောင်းပန်
ငန်
အရေးယူ
တစ်ရပ်ရပ်ကို
ခြင်းဖြစ်ပြီး
ဟုဆိုကာ
▁၃၈၀
▁Qu
▁မြေနေရာ
ဟုအမည်
▁အသီးများ
$
▁ဘွဲ့တံဆိပ်တော်
ဂင်း
ဖလ
▁အိန္ဒိယသမုဒ္ဒရာ
▁ထုတ်ပယ်
မြို့များသို့
ကြုတ်
အယ်ဒီတာ
ဖုံ
တ္တံ
▁၁၈၄၄
▁၁၇၉၈
▁အပြာ
နှစ်အရွယ်တွင်
▁out
ဗိုလ်ချုပ်ကြီး
▁ရန်ကင်း
ဝတ္တု
▁အရှင်သခင်
▁ကျွမ်းကျင်သော
မိန့်ခွန်း
များဖြစ်ကြသည့်
`
ပြည်နယ်ရှိ
="69
▁ပြန်လည်ရောက်ရှိ
စ္
ကန့်ကွက်
ပေါင်းစည်း
▁ကျင်းပခဲ့သော
မုဆိုး
▁အရိယာ
အဆုံးသတ်
စိုးစံ
▁၁၆။
သနည်း။
▁မန်နေဂျာ
▁အကြမ်းဖက်မှု
ရိဘူတာ
▁ကျန်ရစ်ခဲ့သည်။
ရဟန်းတို့
▁~
ပေါ်ပေါက်ခဲ့သည်။
▁ရယ်
ကျောင်းနှင့်
▁နုတ်
လာအို
▁၁၇၄၆
▁ပရာ
၍လည်းကောင်း၊
ပိုင်းကို
ex
နက်စ်
▁ကင်ညာ
သင်ကြားပေး
▁မည်ကဲ့သို့
ပွားများ
▁American
▁၁၆၈၉
သို့သွားရောက်
▁လုပ်ဆောင်မှု
▁ဂုံ
စစ်စစ်
▁ဟက်တာ
▁ဉာဏ
နိုင်ခြင်း၊
မုံရွာ
▁အသင်း၏
▁မြန်မာစကားပုံ
▁ကြုံတွေ့
ကို၎င်း၊
▁Fa
Se
ထားမှု
▁ပိဋကတ်တော်
ံ၊
မိဘူတာ
▁ထန်းတော
ညွှန့်
=61
ပတိ
▁ခနောင်
ဂျိဘူတာ
သမ္မတနိုင်ငံ၏
များကား
တို့ပါဝင်သည်။
▁၂၀၈၃
ခဲ့ရာတွင်
▁လှည်းကူး
▁Cl
▁၁၈၄၀
▁အလုပ်ကို
Sc
လော့၊
▁ပေ။
▁တစ်နာရီ
TA
▁al
▁ပင်တိုင်
▁လျှပ်စီး
▁နျူ
ass
ကိစ္စရပ်များ
72
▁Ab
တင်ဆက်
ith
မဟာမိတ်
▁ဆွစ်ဇာလန်
▁အစ္စရေးနိုင်ငံ
▁နိဒါန်း
▁ဂျိမ်းစ်
▁ပညာကို
▁ဖြစ်လျှင်
နယ်များ
မြစ်ကို
ဖွန်
▁မဟုတ်သော
ပေါ့။
▁မိတ်
▁ဆယ့်နှစ်
▁၁၈၁၀
ယုံကြည်မှု
ငါးမျိုး
စေရေး
▁ရုရှနိုင်ငံ
▁စီးနင်း
ဗျူ
လူမှု
▁နည်းပြ
▁ကုမ္ပဏီမှ
မှူးအဖြစ်
▁လွှတ်တင်
="47
နှင့်ပင်
eng
နှစ်သားအရွယ်တွင်
▁အစွမ်း
▁ရေးသားခဲ့
▁You
▁ဖြစ်ပွားသော
▁ပြောင်းပြန်
ဂလင်း
အကောင်
ဖရာ
ber
သွင်ပြင်
▁ထင်းရှူး
ရခြင်းဖြစ်သည်။
မြစ်တို့
▁ယန်
ဟေး
▁အပြီးတွင်
前
=134
▁ဝေလငါး
သတ်မှတ်ခြင်း
▁တစ်လျှောက်
▁ထိုဒေသတွင်
တော်ရွာ
▁အသတ်ခံရ
ရွှန်း
▁ခန်
▁၃၆၀
ound
▁ခြား
စစ်ဆင်ရေးက
လတာ
▁ကျွန်းများ
▁ကာလကတ္တား
သောစိတ်
▁မတွေ့
▁သမီးဖြစ်သူ
သင်္ဂြိုဟ်
▁ဒုံ
tain
▁တည်ဆောက်ထားသည်။
▁ဆရာတော်ကို
သည
="134
ခဲ့သူမှာ
ကျဉ်
PA
ku
▁ပြိုကျ
ခူးရွာ
▁ကသည်း
ဒိဋ္ဌိ
-19
▁ပြန်လည်ထူထောင်
တပ်မှူး
▁Gi
▁ပ။
▁အဖွဲ့မှ
▁စီတပ်
အချက်မှာ
▁မှောင်
right
▁Han
နိုင်ငံရေးသမား
▁ရက်နေ့မှစ၍
▁အရေးပိုင်
▁ငယ်ဘဝနှင့်
ပြဿနာများ
▁k
="94
တည်ငြိမ်
မီးရထား
ပါပြီ။
၀၀၀၀
▁နိုဘယ်ဆု
လေးပင်
▁ရေးသားခြင်း
ဗွန်
ပြခန်း
ara
ရင်ပြင်
▁ဌာနခွဲ
▁သနပ်ခါး
မတိုင်မီက
တစ်ရွာ
▁လား
ဖြစ်လျက်
▁နနွင်း
AS
▁လေ့လာခြင်း
▁ရည်
ပေးထားသော
▁ဆိုခဲ့သည်။
len
ME
▁ဝမ်းဗိုက်
ယိုယွင်း
၆၀၀
▁သက်သေပြ
Le
ဒီမိုကရက်တစ်
▁ဗြိတိသျှတို့က
▁သခင်ချစ်
▁အခြားနိုင်ငံ
▁Tri
မြူး
▁၁၈၃၈
▁Chi
ိန္ဒ
▁ဆဋ္ဌမ
▁သန်
လယ်ယာ
ပြိုင်ဆိုင်
မှူးကြီး
fi
▁အကြောင်းပြချက်
ဲလ်
အက်တမ်
▁ခွဲခြမ်းစိတ်ဖြာ
▁မှေးမှိန်
နားတွင်
ခြင်းငှာ
▁၁၈၀၆
▁သားအိမ်
▁နိုင်ငံသားများ
မည်၏။
▁ဉာဏ်ပညာ
အတွေ့အကြုံ
အိဘူတာ
မန့်
တံခွန်
ညွှန်ကြား
▁ပလတ်စတစ်
▁ပညာရှင်များက
▁ခေါ်၏။
အာရ်
များနည်းတူ
တည်သော
▁per
▁မျိုးစု
နာရဒ
ရုတ်
ဝင်း၊
ရိုသေ
▁ဦးရေ
▁ထုတ်လုပ်ရေး
▁ဗုဒ္ဓရုပ်ပွား
▁၁၈၁၆
▁ကြွက်သား
▁ခံခဲ့ရ
ကြီးများ၊
မည်ဆိုလျှင်
ရယူရန်
▁ထောက်ပြ
ပရ
▁သူတို့ကို
▁ပျော်ဝင်
ပြသော
▁စိတ်ချ
▁ဂရုစိုက်
▁ပြစ်မှုထင်ရှား
ကမာ
▁(1
▁သင်္ဘောဆိပ်
▁ကျင်လည်
▁ကလေးများကို
သကြား
▁ဒေါက်တာဘမော်
▁၁၆၅၀
▁အင်္ဂါဂြိုဟ်
▁အအိချိခရိုင်
▁ဟိရ
တည်ဆောက်ရေးအဖွဲ့
▁၁၉၄ဝ
မယ်၊
ပြဋ္ဌာန်းထားသည်။
▁၁၇၃၇
အဖွဲ့ဝင်အဖြစ်
▁သွားရောက်၍
▁ပထမအဆင့်
▁စစ်တက္ကသိုလ်
ob
မျိုးချစ်
▁တွင်းထွက်
ညီး
▁Can
နိုင်ငံတကာ
ရုံးများ
ထိမ်းအမှတ်တံဆိပ်
ရူပ
▁မြန်မာပြည်တွင်
ကြီးကျယ်
pan
အထူးကု
▁နီးကပ်
▁အထ
ွက်
side
▁ဇာတ်ကားတွင်
ပြုသည်။
သီကုံး
ပွဲများတွင်
အမြဲ
ဆွစ်ဇာလန်နိုင်ငံ
▁ဇနီးသည်
▁ကြားနေ
▁အားကစားနည်း
▁ကျော်စွာ
art
▁ဦးလှ
bon
▁အနှောင့်အယှက်
▁၁၇၆၆
လ္လာ
တာပါ။
▁ပိုင်းခြားထား
▁တိုက်ခိုက်ရန်
ဒံ
ငရဲ
ပထမဆင့်
▁မြန်မာ့အလင်း
အမျိုးမျိုး၊
▁၁၈၀၉
ဆင်တူ
▁ဒဿနိကဗေဒ
▁Sp
▁၂၀၃၄
▁ကျောက်ဖျာ
စိတ်ကူး
ker
▁ပြေ
၏အမည်
▁တောအုပ်
▁စိတ်ပညာ
▁အေမာမ်
လင်းရွာ
▁ကဿပ
နှစ်ချောင်း
▁သတင်းစာဆရာ
လက်တွေ့
▁ကြွတော်မူ
▁၁၈ဝ
▁ဖခင်မှာ
▁၈၄
တာ၊
မတင်
▁As
▁ကိုယ်ကျင့်တရား
▁တို့ကြောင့်
د
▁ရော်
La
လို၍
မနိုင်
▁မင်းခေါင်
▁ကျောင်းကုန်းရွာ
စစ်ကြောင်း
▁ဗမာ့လွတ်လပ်ရေး
ခြင်းခံရသူ
▁ကနောင်မင်းသား
▁ကျွန်းကုန်း
▁လေ့ကျင့်ရေး
▁ဘွဲ့လွန်
▁အမည်ပြောင်းလဲ
▁အင်ပင်
▁ကုန်ပစ္စည်းများ
လျှပ်
▁ဂျီဒီပီ
▁ဗိုလ်ချုပ်မှူး
▁အပိုလို
မှုပြု
မည်ဖြစ်ပြီး
▁သုံးပါး
▁အတင်း
▁မြင့်သော
ကြသောအခါ
▁ခိုလှုံ
လိင်
▁ထိပါး
ဖြစ်ခြင်း၊
▁သဲချောင်း
အခင်း
▁ရှိလာ
▁over
▁ကူးစက်ရောဂါ
ရင်ဆိုင်
ိုး
ဆိုးရွား
▁မြန်မာ့ရိုးရာ
ကျွန်းတွင်
▁၁၈၁၃
ဖြစ်တယ်။
▁မြို့ဝန်
▁နေ၍
ita
▁စာရေးဆရာမ
ထုတ်ပေး
▁၁၈၀၅
ပေတည်း။
ခွမ်
▁နယ်နမိတ်
▁အိပ်ရာ
▁ရေအိုင်
▁ဗလ
aungmya
မင်းလက်ထက်တွင်
▁ကွမ်းသီး
▁ဆွီဒင်နိုင်ငံ
▁မသန်စွမ်း
▁ဆည်းကပ်
▁ထပ်မံ၍
အငယ်
res
▁တစ်ဦးတည်းသော
▁ခိုက်
မင်းကို
▁ပွင့်တော်မူ
▁ကြောက်မက်ဖွယ်
▁နှောင့်ယှက်
="61
ရောဂါ၊
နေထိုင်မှု
▁Hla
▁Sch
ဖြစ်သည်၊
ကူးရွာ
▁sound
▁ဝံသာနု
▁အင်အားစု
▁Dis
ဆိုသလို
▁ဦးပု
နေမှု
uring
▁မီးဖွား
▁ရှေးရှု
▁မျိုးစေ့
ပေမဲ့
ဘိသကဲ့သို့
▁ပြည့်တန်ဆာ
နှစ်များအတွင်း
well
အဆိပ်
▁၁၈၃၂
▁၁၇၂၉
ကတိ
ပါဝင်၍
သို့ရောက်သောအခါ
▁၁၇၂၃
▁ဥမင်
▁ထိုင်း၊
cer
▁ယူ၍
အကျိုးကို
▁ထိုပုဂ္ဂိုလ်
▁ဝမ်ကောင်း
▁ပဌမ
ဋ္ဌာန
▁၁၆၅၅
▁II
တည်မြဲ
▁ရှည်လျားသည်။
ဟွာ
▁ဦးပုည
ရခြင်း၊
သုံးလုံး
▁၁၇၈၇
▁မိဖုရားခေါင်
=29
ပြူ
▁ရပ်ရွာ
▁စည်းလုံးညီညွတ်
တန်ဆောင်
နှုတ်သီး
မျိုးစိတ်များ
▁စာပေများကို
နေ့စဉ်
▁သေဆုံးမှု
ဆုတောင်း
▁မကြာမီပင်
IT
နည်းများ
ug
▁Hop
▁အားကစားသမား
▁တရားမ
ချိုင်ရွာ
▁နိုင်ငံတစ်
▁တိကျသော
ကြ၊
vil
▁တွဲဖက်၍
▁တိတိကျကျ
▁have
2016
▁မှီ
▁Nawng
▁မရမ်းကုန်း
="209
လူမျိုးများ၏
ေ့
အလောင်းစည်သူမင်း
▁သဘာ၀
ition
မှုအောက်တွင်
▁ဂီတာ
ပြဲ
▁ဂု
သည့်အချိန်တွင်
▁အစုကြီး
အောင့်
▁စိမ့်
ပန်းပု
▁အနီးအနားရှိ
▁ကွာခြား
▁Time
▁အုပ်စုများ
ရမည်ကို
ယဲ့
▁ဦးလေး
ရေယာဉ်
▁၁၈၁၈
ူး
59
လက်အောက်
▁လောင်စာဆီ
များကမူ
▁ထွက်သွား
tho
ခွဲခြားခြင်း
တစ်လျှောက်လုံး
လိုအပ်ချက်
ဒရစ်
her
▁လီနင်
▁ငြင်းခုံ
မှစကာ
လိုသဖြင့်
မရှိတော့
▁ဗဟိုဌာန
▁မြန်မာပြည်သို့
ကုန်းပြင်မြင့်
▁ဂီ
▁၁၇၁၄
ek
▁ရမ်း
▁ဒယ်
ပါးပါး
▁ခုရှိသည်။
ကားလမ်း
▁အခက်
ကျေးလက်
▁ကြီးထွားလာ
အဆင့်တွင်
ဒမ်း
▁စုပေါင်း၍
▁ချိပ်
ပြည်ထောင်စု၊
ရောက်သော်
ရွှေတောင်
လီယို
▁အရောင်မှာ
ချွဲ
▁အစုအဝေး
▁တပ်မတော်၏
တ္တော
▁လျှို
ကြိမ်ချောင်းကြီး
တဝိုက်
ဓူ
စနစ်တွင်
▁ငှက်မျိုး
ဆွေမျိုး
▁ရေပန်းစား
တို့သို့
ယူနစ်
▁ခိုးယူ
=131
▁သင့်တော်
▁လူများသည်
ခွဲဝေ
и
▁စင်တောရိ
▁တကယ့်
▁ထိုအချိန်ဇုန်
အလျင်
▁၁၅၀၀
▁Power
▁မြင့်မြတ်သော
▁Hlaing
ရှိုက်
▁ဆောင်ရွက်လျက်
▁ဟုဆို
နယ်နှင့်
▁အနီးဆုံး
ိုင်းတွန်း
၈ဝ
▁ဋီကာ
ရာကို
ရန်ကုန်မြို့သို့
▁မျိုးခွဲ
ရှုပ်
▁ယူး
▁စိတ်အား
▁ဤဥပဒေအရ
လက္ခဏာများ
▁မွန်း
▁ပညာသင်ယူ
▁၁၈၃၁
မြို့ကြီး
ခြင်းဖြစ်သည်ဟု
▁တန်ဆာ
▁ကျောက်ဂူ
▁ထွက်ပေါ်
▁နီပေါနိုင်ငံ
ပတ်လည်တွင်
ဖြစ်ရုပ်ကြွင်း
="131
ခရိ
="51
▁တန်ခိုးကြီး
ိန်
မှစတင်ကာ
▁ကာမဂုဏ်
▁ဖိအားပေး
▁အစောင့်
အလှူ
ရွာကလေး
ကလဲ
▁ပိတောက်
လမ်းရွာ၊
▁များသော
ုပ်
▁၁၆၅၆
▁လူဆိုး
▁Ban
▁သင်္ချာပညာရှင်
နေခိုက်
တံခွန်တိုင်
တဏှာ
ကြော်ငြာ
fa
▁မင်းပြု
▁ကွပ်မျက်
▁ရှိကြ
▁တတ်ကျွမ်း
OS
▁ဖြစ်ကြပြီး
▁၂၀၇၂
▁ဒွန်
▁ဝမ်နောင်
▁နာမည်ကျော်ကြား
▁တို့အား
▁လေယာဉ်ကွင်း
မြေပြင်
စက်ကို
ပြီးလျှင်၊
ဟွေ့
▁ဖုံးလွှမ်း
▁စာရင်းအင်း
လိုသည်။
ပါဘူး
▁ပြင်သစ်နှင့်
လူမျိုး၊
ဆိုသူက
ave
▁Pri
ညွန်
▁ထိုမှတဆင့်
▁တည်း
ref
အာမခံ
▁အသုဘ
qui
▁ဆောင်းရာသီတွင်
▁ထီးတော်
▁ရွှေတိဂုံစေတီ
▁အလယ်အလတ်
▁ဖင်လန်
▁စုရုံး
▁ငွေရေးကြေးရေး
▁အနိမ့်
▁ငါ့ကို
▁ပြန်လည်ပြင်ဆင်
▁အမှတ်စဉ်
နေပြီဖြစ်သည်။
နေကြသည့်
▁ပစ္စယော။
အင်ဒိုချိုင်းနား
▁ရှင်ဘုရင်
▁မရှိပါ။
သတင်းထောက်
လိုရာ
▁၁၇၉၉
="68
▁စဉ့်ကူးမင်း
ရုပ်ပုံ
များဖြစ်၍
▁ပျက်စီးသွား
▁11
ထားဝယ်
▁ဂိုရှယ်
▁ပြိုင်ပွဲတွင်
▁၂၁၂၄
▁သီတာ
ပုထိုး
▁၁၇၁၆
သရုပ်
ဖြစ်ပါ
ပိုင်းခြား
▁လွတ်ငြိမ်း
ဩဂုတ်
▁ပြေးဆွဲ
75
yl
▁မှုတ်
▁လျှော့
▁ဦးဆောင်၍
▁ရိုင်း
ကျောင်းဆရာတော်
▁တနင်္ဂနွေနေ့
71
▁ဒီပလိုမာ
▁အစွဲပြု
▁၂၀၃၃
အမူအရာ
ပဒ
ack
စေတနာ
▁၂၀၃၉
▁အပေါ်ယံ
ပြုလုပ်ခဲ့
အခန်းကဏ္ဍ
အပ်၏။
မင်းကြီးသည်
fer
▁၇၇
▁ပဏာမ
င်းကျေးရွာအုပ်စု
▁ဖလှယ်
▁မူးယစ်ဆေးဝါး
▁ပုဂံမြို့
▁တပ်မတော်က
▁ရှေးမြန်မာ
ပေးနိုင်ခဲ့သည်။
အကြားရှိ
▁လုံလောက်
▁ယူနစ်
▁၁၈၁၇
▁မန္တလေးတိုင်း
▁ဤသို့လျှင်
များအထိ
▁မချိ
သညာ
ကုလားရွာ
▁sa
mb
▁၁၇၃၅
=114
▁single
ဝိညာဏ်
▁ဗမာ့တပ်မတော်
▁ထွန်းကားလာ
▁ဒြပ်ထု
နတ်ဘုရားမ
▁မြို့များ
▁ငယ်စဉ်ဘဝ
မှုအပေါ်
▁၎င်းဒြပ်စင်
▁တည်ရှိကာ
▁လေ့လာရေး
ကင်းမဲ့
▁၂၁၄၁
vel
နပ်စ်
▁အားလုံးသော
ယသ
စာသား
အချက်အလက်
▁တွေ့ရတတ်သည်။
▁ကွဲလွဲ
▁ပိန္နဲ
▁အိမ်ရှေ့
တက္ကသိုလ်ဝင်တန်း
▁ပဉ္စမမြောက်
="114
နှံ့
ဒဿန
57
▁၁၈၀၄
▁ကျောင်း၊
တိုက်ပွဲများ
▁သဒ္ဓါ
▁ဖလံ
ဘဲ့
▁but
အတက်
▁ပုန်ကန်မှု
ရသေး
Na
▁မြောင်းမြ
▁h
▁ကျန်စစ်သားမင်း
▁ကျော်မျှ
▁အဓိ
▁၁၇၀၇
▁ယူကရိန်း
ပါရဂူ
▁၁၆၆၂
ရန်လိုအပ်
▁ပျောက်ကွယ်သွား
="74
uck
▁စစ်ဌာနချုပ်
▁မြို့တည်
▁သိကြသည်။
တည်ဆောက်ပုံ
="58
ဘုရားကို
▁အမည်သည်
ဆောင်ရွက်ချက်
▁ဗလီ
တိုင်းကို
▁၄ဝဝ
▁ဂမုန်း
▁လေးပါး
ွယ်
▁တောင်ခြေ
▁ဓာတ်ပြု
အမေ
▁မယ်ဇလီ
▁လျော်ကြေး
▁၁၆၅၇
လက်စွဲ
▁မဟာဗျူဟာ
မရှိလျှင်
ဒွတ်
သမျှကို
▁၉၁
▁မွေးဖွားခဲ့ပြီး
▁ကောက်ပဲသီးနှံ
▁မြေပေါ်
▁အပျော်တမ်း
သွားရောက်ခဲ့သည်။
မှရသော
စတက်
နေရာမှာ
▁ကော်ဇော
="60
▁၁၈၀၃
ရရှိနိုင်
▁၁၇၂၅
▁ရခိုင်ပြည်နယ်၊
လင်္ကာရ
▁နင်း
▁ကျီးပင်
hla
မြုံ
▁ဘဝကို
▁မင်းရဲကျော်စွာ
▁မစား
အင်းဝ
▁တူရကီနိုင်ငံ
မချိ
သိမ်းသွင်း
▁ပိုမိုများပြား
▁လမု
မျက်လုံး
lla
သနား
www
ထုတ်ကုန်
▁အကောက်ခွန်
▁သုံးထပ်
▁ကျောက်မြောင်း
ile
▁ငှက်သိုက်
▁၂၁၆၀
တိုင်းပြည်များ
▁သီပေါမင်းလက်ထက်
▁ဝူဟန်
▁ထုံးကျောက်
▁ဝင်ရိုး
ပလွေ
▁Com
ရွာမှ
▁ho
နှင်းဆီ
▁ရုံးချုပ်
ust
ဘူရီ
▁သရက်ကုန်းရွာ
အခါ၌
ဖြူရွာ
▁နိုင်ငံ့
ခန့်ရှိသည်။
▁၁၇၂၁
▁အချက်ပြ
▁မြှင့်တင်
ခါစ
▁နှမ
=200
များ၌လည်း
နိုင်ငံခြား
▁ခေါ်ဆိုခြင်း
▁ဆယ်တန်း
ဘောက်
▁၇၈၁
ခဲ့ကြခြင်း
များစွာရှိသည်။
ပိဋကတ်
▁လူသတ်မှု
▁အရှုံး
ရုန်း
ပြုလုပ်နိုင်သည်။
▁ထက်သန်
▁နှင်းဆီ
=115
လက်ဆောင်
▁ရေပူ
▁ပြုလုပ်သည့်
▁Yin
▁Sc
နိုင်သေး
လိုက်သဖြင့်
▁ဖျော်ဖြေတင်ဆက်
▁၁၆၅၉
▁လုပ်ငန်းခွင်
▁ပိုးသတ်ဆေး
▁လက်ရွေးစင်
tion
▁အသာ
▁တိုးတက်ရေး
Ó
သရဖူ
ရေးလုပ်ငန်းများ
ကြောင့်ပင်
တည်ရှိသည့်
▁လွတ်လပ်ရေးရပြီး
ဝါ့
လှေကား
ဝန်ကြီးဌာနမှ
▁မြို့နယ်အတွင်း
▁မြို့တော်ဝန်
▁ဆိုသော်လည်း
sp
▁မထေရ်
▁ဗိုက်
▁တက်လာ
ထိုးခြင်း
နွေ
▁ဂရင်း
ပူးတွဲ
▁ပျော်ရွှင်
ပညာ၊
---
အပ်နှံ
ခြင်းလည်း
▁၈၀၀
အတွေ့
▁ဇန္နဝါရီလ
▁Wake
▁ရွှေတိဂုံ
▁လက်အောက်
တွ
▁ဥရောပသမဂ္ဂ
▁တပင်
section
CC
အနုပညာရှင်
တို့ဖြစ်ကြ
ဖြစ်သည့်အတွက်
ကလေးသည်
▁တစ်ပြည်လုံး
▁လသာ
▁၁၇၉၇
▁ထိုသူသည်
▁ရေသိုး
▁စက်ဆန်း
▁မျိုးရိုးဗီဇ
ရှိနေသည်။
▁လျာထား
▁လေထီး
▁ပုလင်း
ရတနာပုံ
sion
▁စာအုပ်များကို
ပြောင်းလဲမှုများ
▁UK
▁အရပ်ဒေသ
အကြာတွင်
▁အခကြေးငွေ
လျှား
▁ရှိခဲ့
ကိုဖြစ်စေ
▁အထွက်
နောင်း
▁သောကြာ
▁စတီး
▁အကုသိုလ်
ခေတ်ဦး
မွှား
ခံရမှု
မရှိဟု
စတိုင်
▁နောင်လုံ
▁အင်အားကြီး
▁ရော့
မြို့ဟု
▁ကျင်းပပြုလုပ်
မင်းမြတ်
▁လူနေ
▁၁၈၀၈
ကိုမျှ
တည့်၊
▁မြစ်ကြောင်း
ign
Mi
ပေးစာ
▁ပြီးမြောက်
▁အုပ်ဖို
ms
▁ဖောက်ဖျက်
ဌာန၏
ရှိတဲ့
ချမ်းသာခွင့်
ဒုတ်
ဘွဲ့၊
သတ်မှတ်ချက်
ရရှိခဲ့ပြီး
အရှေ့တောင်ပိုင်း
လူမျိုးစုများ
တစ်ဦးကို
▁ရဲဘော်သုံးကျိပ်
▁Japan
▁သော်လည်းကောင်း
အတတ်ကို
▁ကူးသန်း
▁ရွေ့
မိလျှင်
နိုင်။
စုပ်
▁ပေါက်ကွဲမှု
▁အရာထမ်း
ဝင်စား
▁ခြေလျင်
ပုံနှိပ်တိုက်
▁ပြောခဲ့သည်။
▁အစိုးရကို
ရေးသမား
▁လက်မောင်း
မောင်နှမ
သာရှိ
စီရင်စု၊
လဆန်း
ပေါက်ကွဲမှု
cle
▁ရောက်ရှိသွား
▁ရေးသားဖော်ပြ
အင်အားစု
တပ်ပေါင်းစု
▁အခွင့်အလမ်း
▁ဆင်ဖြူတော်
▁ဖော်ပြကြသည်။
▁number
▁မှိုင်း
▁ရိုသေ
လား။
▁မှန်းဆ
▁ပုစွန်
▁ရူး
IANA
ထင်း
▁ဒါဟာ
▁Mac
▁လုပ်ငန်းဆောင်တာ
▁၁၇၃၈
လျော့နည်း
▁ပြည်နယ်၏
▁ကျေးရွာများ
ဗမာပြည်
▁ပရိုတွန်
▁ပြုပြင်မွမ်းမံ
ရှိခြင်း။
▁၁၆၆၀
▁ကြေးမုံ
စောင့်နတ်
▁တင်ဆောင်
▁လာသော
▁၁၆၇၆
▁အောက်ခံ
▁၁၈၀၂
▁ခြေလက်
uch
▁ဒီးဒုတ်
▁စစ်အတွင်း
ပါမည်။
သစ်များကို
▁မိုးကြိုး
▁ယား
old
ship
▁ခေတ်ကာလ
▁မာရီ
ကျော်စွာ
ဗိုး
တစ်ရပ်ရပ်
နိုင်ပါ။
▁သွန်သင်
▁အထက်သို့
▁တရုတ်နှင့်
▁လက်အောက်ရှိ
▁အစောပိုင်းဘဝ
▁ပါဝါ
ဘေးတွင်
စည်ပင်
▁ပါဝင်ခဲ့
▁အုတ်ဂူ
▁ဘောလခဲခရိုင်
အကြိုက်
အမျိုးမျိုးတို့
ခံရပြီးနောက်
ကွက်များ
▁စစ်ကိုင်းမြို့
အသင်းကို
▁ကြည်း
▁ပို့ပေး
ဖြုတ်
ရုရှား
တစ်ဦးဖြစ်သော
သေးဘဲ
မြွှာ
▁အိမ်တော်
DF
တော်တော်များများ
▁မူတည်
ဒြ
▁မေမြို့
▁အားထား
မြု
="95
အနည်းငယ်သာ
▁လေးလံ
▁ပန်လောင်း
နိယာမ
▁ကောဇာသက္ကရာဇ်
=219
ဒိုင်အောက်ဆိုက်
အမြန်
▁စံတော်ချိန်
="219
▁ပေါ့ပါး
▁ဦးအုန်းမောင်
▁မျှသာ
▁ပခုံး
=140
▁ကညင်ချောင်း
ros
အာကာသ
▁၁၃၀၀
▁သန်လျင်
▁၂၀၆၉
ရီယို
▁ဗဟိုဘဏ်
ကျာ
▁ခံရလေသည်။
ကမ်းပါး
ဤသို့
▁စံနစ်
▁အကာအကွယ်ပေး
စကုပ်
ဖြူ၊
ပြည့်နှစ်တွင်
▁ဘယ်သူ
နဒီ
▁အိမ်တွင်
▁သဘောပေါက်
▁မပါ
▁ဥတု
အစရှိသော
ier
▁အသုံးပြုခဲ့ကြ
အရာရှိအဖြစ်
▁ပခုက္ကူမြို့
ဘုရင်များ
ကြီးအဖြစ်
▁ဆင်းတုတော်
▁တာဝန်ထမ်း
wi
နှိပ်စက်
ကွာဝေး
▁ဗျာဒိတ်
▁Che
▁နိဂုံး
၄၀၀
▁ဈာပန
မြို့နယ်ရှိ
▁ကုန်းကြီး
="140
▁အပိုင်းအခြား
ထိပ်တွင်
နှင့်သက်ဆိုင်သော
၂၀၀၉
▁ခုနှစ်အတွက်
▁စူးစမ်းရှာဖွေ
အများစုတွင်
▁ကျို
eth
အထိမ်းအမှတ်အဖြစ်
သွားနိုင်
▁နယ်စပ်ဒေသ
▁အုပ်ချုပ်သော
▁ဇီးတော
တော်မူပြီး
ခေတ်ကာလ
ဒိုးရွာ
▁၁၇၅၃
car
ခဲ့သည့်အပြင်
▁14
အဖြူ
ont
ဘာသာစကားများ
ဆေးတက္ကသိုလ်
ps
Bot
▁ရှေ့ပြေး
▁အခွန်တော်
▁ဆိုကာ
လွှတ်တော်ဥက္ကဋ္ဌ
ကူးတို့ဆိပ်
ပါတဲ့
ပုံရိပ်
oo
▁သေတ္တာ
▁ရုံးပင်
သောအခါ၌
▁အကြွေး
▁ဝေါဟာရသည်
300
▁ဆူးလေ
▁တိုင်းပြည်ကို
▁Institute
တမာ
▁မြို့နယ်၏
သို့လည်းကောင်း၊
▁နိုင်ငံမှ
▁နမ့်တစ်မြို့နယ်
▁တွေ့ကြုံ
▁ဝါဒဖြန့်
▁မတူညီ
▁ချော်
သည်သာမက
ငယ်များကို
ရဘူတာ
▁အထက်မြန်မာပြည်
ယဲ
ယူသည်။
▁စစ်ကြီး
▁ဝန်ကြီးဌာန၏
▁အမျက်
▁ရေငံ
▁နှစ်ပိုင်း
▁စိတ်နှလုံး
▁ထိုအခါက
သူရ
စင်ကြယ်
▁ဗဟိုကော်မတီဝင်
▁၁၇၈၂
▁ပေးအပ်ခဲ့သည်။
▁ဂွေး
▁မနှစ်သက်
စက်၊
ခွပ်
▁ငါးပါး
▁နေရာယူ
▁၁၇၅၆
ရွာသစ်ကုန်းရွာ
▁အမှောင်
cho
▁၈၇
နိမ်
▁အမွေအနှစ်
ခဲ့ပါ။
အင်န်
အခါတွင်
▁၎င်းတို့အား
ကျောက်တုံး
နိုင်ခဲ့ကြသည်။
▁ကမ္ဘာမြေမှ
ey
▁၁၇၉၄
အနိုင်ရ
▁ကာရန်
တစ်ဦးနှင့်
▁အောင်ပွဲ
သိပ္ပံပညာရှင်
ale
▁ပွင့်လင်း
▁အက်ဖ်
ဦးဘ
ဆေးရုံကြီး
▁မတူပီမြို့နယ်၊
=102
▁မေ့
▁၁၈၀၁
=154
▁၁၇၈၆
▁ကွမ်းလုံ
လုပ်သူ
ကြွက်
▁စည်ပင်သာယာရေး
▁ဓာတ်သတ္တု
▁မျှဝေ
▁သိပ္ပံပညာရပ်
▁ခိုင်ခံ့
မရှိသည့်
ကားများ
AC
▁ဘောလုံးသမား
သည့်အရာ
▁လက်ပံပင်
အေးချမ်းသာယာရေး
▁လွှဲအပ်
သဘောဖြင့်
▁ပရဟိတ
သွားစေ
ဦးရေမှာ
သင့်သည်
တည်တံ့
▁တောင့်တင်း
▁ဦးစော
စတစ်
လက်မှတ်ရေးထိုး
▁လွှ
▁ဒြပ်ပေါင်း
▁အသက်ရှည်
▁သာဓု
▁အောက်စဖို့
▁၁၆၇၉
စယ်
အရဟတ္တဖိုလ်
▁ခက်ဆစ်
▁မြန်မာတို့က
နှစ်များ
▁ဓနသဟာယ
▁မြေပဲ
ွား
▁၁၄၄
မြင်ကွင်း
သုံးစွဲမှု
▁၁၇၃၆
ဖွဲ့၍
▁ဖြေကြား
▁အမှန်တရား
▁သက္ကယ်
လာရသည်။
▁၂၀၈၈
▁ဝါသနာပါ
အားလုံးတွင်
တစ်ခုချင်းစီ
▁စေတီတော်၏
စား၍
တက်ခြင်း
▁၂၀၃၀
▁ပစ္စယာ
▁ကင်ညာနိုင်ငံ
မာရီ
▁ဗျာ
ဝမ်းကွဲ
ကျောင်းကို
နေထိုင်သူ
ev
▁၁၆၆၁
အစောပိုင်းတွင်
အရောက်
="102
▁ယဉ်ကျေး
ရကာ
▁မြန်မာစကား
▁ပြည်သူပိုင်
▁၂၀၆၈
▁ကြီးပြင်း
▁၂၀၆၇
ကျောင်းရှိသည်။
သွားများ
=81
ဘာဝ
lim
တော်နှင့်
ထားပြီးလျှင်
▁လုံခြုံ
▁မွေ
▁အံ့ဖွယ်
▁ပျဉ်းမ
ဒီးယား
ကြတဲ့
="104
▁ပထမဦးဆုံးသော
တာဝန်များ
သာယာရေးအဖွဲ့
▁ပြုခဲ့သည်။
▁ရရှိရန်
ပြက်
▁ဦးဆောင်သည့်
▁လူရွှင်တော်
▁အတက်
ဂါးကျေးရွာအုပ်စု
ဝင်ရောက်လာ
တောကြီး
အပြောင်းအလဲ
မဂ်
▁ဆိုနီ
နားရွာ
▁သူခိုး
န္တု
တာကြောင့်
အီဂျစ်
ရဲတပ်ဖွဲ့
ဖွတ်
လိဂ်
▁တနှစ်
အိုင့်
▁တေးသီချင်း
အဆင့်သို့
▁ဟူ၍လည်းကောင်း
▁ဥပဒေကြမ်း
တမန်
ရှည်၍
ညောင်ပင်သာရွာ
▁ဝိုင်အမ်ဘီအေ
ပုည
=124
▁ဒေတာရင်းမြစ်
▁ခေတ်အဆက်ဆက်
ကြမည်
▁သဘာဝအလျောက်
ထရစ်
▁အလေ့အကျင့်
နည်းစနစ်
▁ရှေးနှစ်ပေါင်း
▁အတည်ပြုခဲ့သည်။
▁ကြက်သွန်နီ
▁Records
ယူရသည်။
▁မျက်ရည်
▁st
▁လိုရာ
ဟုခေါ်တွင်
▁ပုလိပ်
▁သီလရှင်
▁မိုက်ခရို
စကားများ
="124
▁ယဉ်
▁၁၈၂၉
▁အကြီးစား
မဂ္ဂဇင်းတွင်
ဂူဘုရား
▁ထိုပစ္စည်း
▁၁၇၂၆
▁ကာလတွင်
▁သတ္တ
တည်ဆောက်မှု
top
▁နေပူ
▁ပြပွဲ
ပိုင်း၌
အဆီ
ငယ်ကို
▁ဦးသန့်
ral
▁Computer
▁တစ်ခုလည်း
▁လိမ်
▁ဤဥပဒေ
▁လွန်ခဲ့သောနှစ်
မှုများတွင်
▁ဆိပ်ကမ်းမြို့
▁အေဝမ်း
လုပ်၍
စေလေသည်။
▁ထိုရဟန်း
ves
▁သရက်တပင်
နှစ်ဆူ
▁၁၇၅၁
လျှော့ချ
tan
မာန
ပြည်နယ်များ
▁လက်အောက်သို့
▁အတွေး
▁စစ်မြေပြင်
oc
▁သစ်ပုတ်
▁ထိုကိစ္စ
ရပါ
▁တရုတ်ဖြူ
▁ကျွတ်
▁တကမ္ဘာလုံး
▁အပြိုင်အဆိုင်
နင့်
ပံ
▁ပန်းသီး
▁ကရုဏာ
▁၂၀၄၀
မယ်လို့
▁ထူးဆန်း
ကျောင်းသူ
ကျိတ်
....
▁di
▁God
▁အရောက်
▁ဘက်တီးရီးယား
▁ဒြပ်ဆွဲအား
▁နေရာတစ်ခု
▁ကြက်သား
▁အေးချမ်း
▁ဝမ်းမြောက်
▁၅၀၀၀
ပြာသာဒ်
ရှိပါက
▁ကျန်ရှိနေ
▁နယုန်လ
▁လာအိုနိုင်ငံ
မေးခွန်း
▁တပ်မတော်သည်
▁၃၅၀
လက်ရုံး
အမြောက်
▁အမှိုက်
လုပ်ရ
သဘောတူ
ကိစ္စများကို
ညောင်ကုန်းရွာ
▁Ti
▁အထက်ဖော်ပြပါ
▁She
မျှော်လင့်
တည်ရှိသော
▁အညစ်အကြေး
▁ဗန္ဓုလ
▁၁၇၁၃
သူများလည်း
ခရစ်နှစ်
အချိန်မှာ
▁ယဉ်ကျေးမှုနှင့်
▁ဟန်း
▁ပင်ကိုယ်
▁ပျားရည်
="115
▁အဖွဲ့ကို
▁ပန်းတင်
▁ရေထဲတွင်
▁၁၆၄၈
များနှင့်အညီ
▁ပုဇွန်တောင်
ရာထူးဖြင့်
ကျင့်စဉ်
ally
မိန်းကလေး
▁Kun
▁လစ်ဘရယ်
▁Miss
တိုက်ပွဲတွင်
▁၁၆၆၃
▁လူပုဂ္ဂိုလ်
▁၁၆၆၅
ကစားခြင်း
▁အိမ်သာ
ဆင်းသက်
ရုံနှင့်
▁ရွှေလှေ
တို့ထံ
board
▁ဖြစ်ပွားခဲ့သော
ရောက်သောအခါ
▁Mc
လိုချင်
ငြိမ်းချမ်း
မပေါ်မီ
▁ဆုတ်ယုတ်
▁တွေ့ရှိခဲ့
▁ဘုန်းတော်
▁အစပိုင်းတွင်
သူတို့အား
ations
▁Win
▁မနီလာ
▁ဗြိတိသျှတို့သည်
ပါပြီ
ကောင်းမွန်သော
မိန်
▁ထိုမင်း
ဒေါသ
▁တပ်မြို့စည်ပင်
▁တလ
▁ဆိုထားသည်။
▁ခိုင်မြဲ
မှု၏
▁ပိုးမွှား
ခြေထောက်
ကြီးမှ
အစိုးရနှင့်
▁သင်ကြားရေး
▁ယုဒ
မင်း၊
▁လွှတ်တော်အမတ်
မအဲဘူတာ
▁အလည်
▁ခုမှ
▁မေဂျာ
▁လေယာဉ်များ
တီးဝိုင်းများ
မှတပါး
ဂါတ်
ရေခဲ
▁တစ်ဘက်
ပြည်မှ
▁အခမ်းအနားကို
▁၁၇၅၄
▁ဝတ္တု
▁၁၁၅
မျိုးရင်းတွင်
ကြော့
သိက္ခာ
တပ်မက်
တီဗီ
ရောနှော
ဗဟိုကော်မတီ
အကျဉ်းထောင်
▁One
▁College
ဗိ
▁ပစ္စည်းဥစ္စာ
တစ်ဦးဖြစ်
▁မှတ်မိ
ဖောင့်
အင်အားစုများ
▁ex
ဝန်ကြီးဌာန၊
▁Burmese
လျှပ်စစ်စွမ်းအား
▁Tw
ဒရို
▁ကျေးလက်ဒေသ
▁သန္ဓေသား
▁ဂျပန်ပြည်
▁ဗိဿနိုး
▁ငယ်စဉ်
မြင့်အောင်
▁ရိုးသား
တိုင်း၌
▁၁၇၃၀
▁၂၀၂၃
ပေါင်းများစွာကို
=99
အတောအတွင်း
▁အဖွဲ့က
▁၂၀၄၃
ပြ၍
ပါလိမ့်မည်။
▁ဂျင်မီ
▁ထကြွ
’’
လိုင်စင်
ရက်စ်
ရီးယန်း
▁နှစ်စဉ်နှစ်
vis
ယတ်
▁အစောပိုင်းကာလ
▁Ke
▁အဖော်
▁တွေ့မြင်ရ
အပိုင်းတွင်
အဆ
လက်နက်ကိုင်
လူမှုရေး
▁ပုဂ္ဂိုလ်ရေး
▁ပညာတော်သင်
မြို့တော်ဝန်
တိုက်၊
လှိုင်းများ
▁ထရီ
စေပြီးလျှင်
အကုန်
▁တရားစီရင်
▁မတည်
▁အကန့်အသတ်
▁၁၇၆၈
ဝေါ်
ရီယမ်
ပေးပါ။
ဒ္ဒ
လေးမျိုး
▁လောင်းကစား
▁အဖွဲ့တွင်
ခေါ်သော
ပြည်နယ်နှင့်
▁တောင်တန်းဒေသ
▁၂၀၅၃
▁ဂုံမင်း
▁စစ်တိုက်
▁၉၀၀
ပန့်
ကြဉ်
▁လေးခု
▁အဂ္ဂမဟာပဏ္ဍိတ
▁ပြောဆိုကြသည်။
ပဋိပက္ခ
▁ဆိုကြ
ky
အဟောင်း
gg
ခေါင်းလောင်း
တြိဂံ
ဣ
▁တပ်မတော်သား
т
မျှော်စင်
▁ဗြဟ္မ
လဲရွာ
▁အထည်အလိပ်
သန့်သန့်
▁အသုံးပြုကာ
▁mo
▁Un
▁စတင်တွေ့ရှိ
▁ရှေးယခင်က
နံနက်
▁ဆင်မ
▁ကုတင်
မယ်ဆိုရင်
ဟုန်းရွာ
▁၂၁၄၂
အမှတ်တံဆိပ်
▁ငြိမ်းချမ်းစွာ
▁ခင်ခင်
ပါသေးသည်။
▁မာရ်နတ်
▁ကျင်းပရာ
ကျသည့်
▁ခေါင်းဆောင်ကြီး
▁အဖွဲ့ကြီး
▁သမ္မာကျမ်းစာ
▁ခေါ်သည့်
▁ကမ္ဘာ၏
ခေမာ
ညီမ
▁ထိုအခါမှစ၍
ဆိုရာ၌
▁ရိုက်ကူးသော
ose
▁ဆော့
ကွိုင်
ကျောင်းစုရွာ
▁အသင့်အတင့်
တက္ကသိုလ်၊
▁အပြော
ကျ၍
▁ရခိုင်တိုင်း
▁တစ်ထောင်
ကြတော့
▁ပြသည်။
ရက်လုပ်
ဖြစ်သည့်အလျောက်
lect
▁၁၆၉၈
▁Wan
▁la
▁ကျုံက
▁တောင်ငူမြို့
ese
="48
▁အလံနီပါတီ
သံရုံး
▁ဒိဋ္ဌိ
▁ကျင်းပကြသည်။
ration
ပွေ
ခန်ရွာ
▁စစ်ကဲ
▁ထိတ်လန့်
▁ကမ္ဘာစစ်ကြီး
64
ဋာ
ဟန့်
▁ပင်လယ်ကွေ့
▁ကြည့်မြင်တိုင်
ပြည်နယ်လွှတ်တော်
▁ရတန
▁သရဖူ
▁ပေါက်ဖွားလာ
လေး။
ထားသည်ဟု
▁တပေါင်း
des
▁ကျော်ကြားသည်။
▁နန်းစံ
ညှ
သစ်၊
▁နောက်ကျ
▁Forbes
า
▁Entertainment
▁ဂရိတ်ဗြိတိန်
▁လောကုတ္တရာ
ချမ်းမြေ့
▁ISP
ကောင်းမှု
နိုင်ခြင်းမရှိ
ချေရွာ
နီယာ
▁သိသာစွာ
ပုတ်ရွာ
▁ပြောဆိုခဲ့သည်။
▁ငြိမ်း
နည်းပြ
▁ပျက်စီးစေ
စေတီ၊
▁Mor
▁ထုတ်လုပ်ခြင်း
▁ဆော့ဖ်ဝဲလ်
ရှိခဲ့ပြီး
tle
▁မဂ္ဂဇင်း၊
▁စိတ်ဝင်စားဖွယ်
▁သပြေပင်
▁State
ထားနိုင်
▁ပေါက်ဖွား
▁Sar
▁အပြီး
▁ဂျိုးဇက်
အန
၂။
နမ်း
ဘယ်လ်
▁တစ်ခုလုံး
▁၁၆၈၅
တို့သာ
▁1.
ပြန်ဆို
သာသာ
▁ကျွေးမွေး
▁ဖုတ်
▁သုဝဏ္ဏ
que
▁စစ်ရေးအရ
▁India
တစ်ဆင့်
▁အရိုင်း
▁ရောက်ခဲ့သည်။
▁ဆိုရ
သားနှင့်
အလယ်စု
▁ပုဂ္ဂိုလ်ကြီး
▁ကြာရှည်
▁စုတ်
သစ်တောများ
▁မကြာသေးမီက
မှုမှ
လိုပါက
မျိုးခွဲ
စာများကို
မှုတို့
▁၂၁၈၉
▁တောင်းဆိုချက်
မြင့်၊
▁မျက်မှောက်
ဝန်အဖြစ်
▁ခုနှစ်များ
ရသေးသော
ဘွဲ့နှင့်
လကြာ
တွေလည်း
▁အမျှ
▁ကလ
▁လွိုင်လုံ
▁ထဲတွင်
လှပ်
▁အမဲ
ထည့်ပြီး
ဂယက်
ဟုဆိုသည်။
ပ၊
▁၁၂ဝ
စစ်ပွဲများ
Th
▁တုန်
▁can
Ro
လောက်သော
ကလူ
ပိတ်ဆို့
▁ရက်နေ့မှာ
▁လူနှင့်
ကိုယ်တော်မှိုင်း
လာသူ
ဖုံးလွှမ်း
သုန်
▁ဖြတ်သန်းစီးဆင်း
▁ကီလိုမီတာအကွာ
▁မန်ချူး
▁ရက်သတ္တပတ်
ဝိပဿနာ
နေထိုင်ခဲ့သည်။
လက်ဝှေ့
▁အိမ်ထောင်ရေး
▁ဗိုလ်တထောင်
▁သိပ်သည်း
▁ပုံပြင်များ
ခေါင်းဆောင်ကြီး
▁ဆုတောင်းပြည့်
စက်ရုံများ
▁၁၇၂၄
ပဋိ
၏ဇနီး
▁ခြောက်လ
ကောင်များ
▁Kh
ပညာရပ်များ
▁end
များပါဝင်
▁အဆင်
▁Is
▁his
လွ
▁မိုးရွာ
▁ပြန်လည်ပြုပြင်
▁ဘာသာရေးဆိုင်ရာ
၍မရ
ens
အကြောင်းကြောင့်
အဆက်
▁ရှီအာ
သည်ဖြစ်စေ၊
▁တစ်ခုသော
Ba
▁မြစ်ရေ
အဖွင့်
▁နည်းဗျူဟာ
နာမ်
▁ရိုးရာဓလေ့
▁ဆုံကုန်း
မူကွဲ
▁၁၆၅၈
head
▁နှစ်အတွင်း
▁ပေါင်းသင်း
▁ထိမ်းမြား
▁မုခ်
▁ဗိ
▁၁၇၃၃
ရာဇဝင်ကျမ်း
မဟုတ်ဟု
▁ထယ်
ခဲသည်။
▁Maha
အမတ်ကြီး
ပုန်ကန်
▁ဂစ်တာ
ator
ရှိ၏၊
▁ဤအချက်
▁ဖော်စပ်
▁ရဲရင့်
▁Bra
တင်မြှောက်ခြင်း
▁ရွာသစ်ကြီး
တောင်ငူ
မူရင်း
▁တစ်ကိုယ်လုံး
ကီလိုမီတာ
lock
ပုဆိုး
သားတို့၏
mor
▁၂၀၅၀
အစ္စလာမ်
အကြာ
နိုင်ခဲ့ခြင်း
▁ဖန်တီးပေး
▁၈၄၂
ရှုး
ရန်မှာ
ဇ္ဈ
တစ်ဦးလည်း
လေသော်
▁ရှားပင်
▁ကျက်သရေ
▁တိမ်းရှောင်
လာဘ
ဆောက်တည်
နှင့်သာ
cus
အားကစားသမား
▁ဓလေ့ထုံးစံ
ထားရ
▁ကွယ်လွန်ခြင်း
▁ပါရာ
▁နေရာမှ
▁TV
အချိန်အထိ
စာချုပ်ကို
Eleven
▁ဒါပေမဲ့
ala
▁တပ်ခွဲ
▁အကျ
▁ကူဝိတ်
▁Union
တရားသူကြီး
▁နောင်အခါတွင်
▁သူတပါး
ဖျံ
▁ရည်ညွန်း
▁၂၂၁၀
▁အချက်များ
ဝိညာဉ်
စတုတ္ထ
▁ကျောင်းအုပ်ကြီး
ဆောင်ရွက်နိုင်
နယ်စား
ရိုးရွာ
လွယ်သော
▁လူသိ
▁sub
ဝင့်
နှစ်အတွင်း
▁ဥရောပတွင်
▁အတု
▁အောင်ချမ်းသာရွာ
သင်္ခ
▁၂၀၃၆
▁ထိုအထဲတွင်
▁ကရိ
ud
ရန်မလို
▁Mun
အိန္ဒိယကျွန်းစု
▁၂၀၄၆
ထားပါတယ်။
TV
▁သိကြား
▁၁၇၀၄
▁ကျောက်ခဲ
▁အကျိုးစီးပွား
▁၁၇၄၃
ဖော်ပြထားသော
▁၁၇။
နဘဲ
ထူးချွန်ဆု
▁Yu
ကာတာ
▁ရှေ့ဆောင်
▁ဤအက်ဥပဒေကို
သိန်းတန်
ပုတီး
▁မြန်မာ့တပ်မတော်
▁ဖက်ဆစ်ဂျပန်
မျိုးစေ့
မပါသော
▁အသိုင်းအဝိုင်း
▁ဝမ်လုံ
▁နှစ်လုံး
▁၁၇၆၁
ယနေ့
▁ဖြစ်ပေါ်လာသည်။
▁သွေးသောက်
ပြုခဲ့သည်။
စွယ်စုံကျမ်း
ြန်မာ့ဆိုရှယ်လစ်
သူတို့က
▁used
▁၁၆၆၈
▁ဇင်း
၁၉၄၈
▁သမားတော်
ညိ
▁မြန်မာမှု
ကွန်မြူနစ်ပါတီ၏
သူတို့ကို
▁အွန်
▁Mony
ဆယ့်
▁အလားအလာ
▁ခမောင်း
ငါးဆယ်
လေးဦး
▁၁၇၄၀
လူသိများ
ရရှိရေး
ful
▁ဒေး
ပစ်ရန်
▁ထိုသူကို
အချိန်က
ထေ
စိုးမိုး
▁နော်ဝေး
▁မျိုးစဉ်
▁သမားရိုးကျ
▁လုံးချင်း
ကိစ္စများတွင်
▁နေထိုင်လျက်
▁လူ့ဘဝ
▁ရှိသောကြောင့်
အလောင်း
▁စစ်ဖြစ်
▁ရေဦး
▁သည်းခံ
ရိုနာဗိုင်းရပ်စ်
▁နိုင်ငံရပ်ခြား
田駅
▁စာရင်းဝင်
▁သောတာပန်
app
ငေါ့
ရုံမျှမက
သမာပတ်
▁ငှက်ကြီး
▁ရောဂါကူးစက်
▁ပါရဂူ
▁ဓမ္မာ
rate
ကံစု
can
▁မွှေး
မလို
▁စနေနေ့
တော်၌
▁၂၁၃၁
▁လက်မမှ
နေကျ
▁တိုင်းမှူး
▁ပင်လယ်ကမ်းခြေ
ကျမ်းဂန်
သီးသန့်
ခြင်းအား
▁နေဝင်း
ward
တောင်စု
ဟုလည်းခေါ်
ကျွန်း၊
▁ဖုခု
▁၎င်းနောက်
တိကျ
အသုံးဝင်
ပျော်ရွှင်
▁ဘူတန်နိုင်ငံ
▁စန်
▁၁၇၄၉
▁ယင်းမှာ
▁ရွတ်ဖတ်
၌လည်းကောင်း
▁ခွေ
အငူ
end
ကြရာမှ
ကျခံ
ထွက်သည့်
▁နမ်း
▁မြေတိုင်း
တစု
▁နားလည်မှု
▁ရေးသည်။
▁ယူနီကုဒ်
▁ဆောင်ယူ
▁အစုံ
▁နိုင်ငံရေးနှင့်
▁မောဟ
▁ဖော်ပြထားသည့်
▁space
▁၁၇၁၈
▁၂၁၂၈
မြစ်ကမ်း
▁နဂို
လာခဲ့သော
▁နောင်လိုင်
▁အရေးကြီးသည့်
အသုံးပြုခဲ့သည်။
▁ကြက်သွန်
put
▁ထိုငှက်
ကျော်သူ
▁အသိပေး
▁ရေးဆွဲခဲ့သည်။
ချင့်
▁စစ်တောင်းမြစ်
▁အနောက်ဘက်ကမ်း
ရေးဆရာ
ကြည့်ပါ။
ယူကြသည်။
ony
▁မှန်ကန်သော
▁ဒက္ခိဏ
ဝဏ္ဏ
ပုပ္ဖိယ
ဘိုးဘေး
=113
▁မြေလွတ်၊
လေးတွေ
▁ဘာမှ
လောင်ရွာ
▁se
▁ဥပစာ
rs
▁ကျွန်းသာယာ
ယူခဲ့သည်။
▁သိမ်မွေ့
▁၁၈၂၀
ချက်ဖြင့်
▁ပတ်ဝန်းကျင်တွင်
ရုံးတွင်
ရှိခြင်းကြောင့်
တည့်တည့်
သောင်ရွာ
အရှေ့တောင်အာရှ
တိုက်တွန်း
▁လူ့ဘောင်
▁ကျိန်
ဂုံး
▁ထိုနောက်တွင်
▁အဖြစ်လည်းကောင်း
တစောင်
▁အမှုန်
▁ပေးလှူ
တခုကို
="113
▁နှလုံးသွင်း
cin
▁ဒလက်
▁၁၇၄၈
▁ကျောက်မျက်
▁လိ
padaung
▁ဟိုနား
မင်းကြီး၏
Ac
ဖန်ဆင်း
ယဘူတာ
hy
iz
များအတိုင်း
များဖြစ်ကြပြီး
▁၁၉ဝ
စွန့်လွှတ်
▁ဟော့
▁ဇီးဖြူကုန်း
ဆန်းစစ်
▁စက်မှုဇုန်
ကျယ်သော
စစ်ရေး
သုံးရပ်
▁လူအင်အား
ထိုး၍
ပြုလုပ်ထားသော
ငုံး
▁၁၇၃၉
ဦးရွာ
▁တက်ကြွစွာ
▁၂၁၉၄
66
▁သန်းထွန်း
ဟာသ
▁ပျက်စီးခြင်း
ပွဲများကို
▁ဂွေးတောက်
အရေးအခင်း
▁British
မန
နေပါတယ်။
▁ထွန်
▁ရန်သူများ
▁သီချင်းများကို
▁အရွေးခံ
▁အနီးကပ်
ညံ
စစ်တမ်း
63
▁အဆုံးအဖြတ်
ဒီယမ်
▁ရာထူးကို
▁50
Da
တစ်ခွင်
▁အီရန်သည်
ဂွေး
ကျော်ခန့်
များအဖို့
▁အတွင်းဘက်
အချိုး
ခဲ့ကြသည်ဟု
▁အထောက်
▁နှစ်ခုစလုံး
▁အုန်းတော
သုံးသော
အလို့ငှါ
▁မြေလပ်နှင့်
▁this
ပဒေါင်
▁ကျင်းပရန်
▁လူမှုဝန်ထမ်း
ther
▁တုန်လှုပ်
▁ဂေါတမဗုဒ္ဓ
▁အကျဉ်းသား
▁ပြည့်လွန်နှစ်
▁၁၉၉ဝ
ark
▁ဆွစ်
ပဲ၊
အသွင်ဖြင့်
▁သခင်ဇင်
▁နှိုင်း
▁မဆလ
သစ်သား
▁ဖြစ်၏၊
နှင့်ပတ်သက်သည့်
▁စုန်း
▁ဦးမောင်
စောင်းတန်း
ရှယ်ယာ
လှီး
▁မဟာဗန္ဓုလ
လက်အောက်မှ
မကျီး
▁စံကား
▁ခံတွင်း
▁၁၇၄၇
ဘွန်း
SO
▁စစ်တမ်း
▁ca
▁ပြုံး
▁ဖြစ်အောင်
ရွာသို့
▁ဂီတ၏
ဒရီ
တစ်ခုသာ
▁ဘဏ်လုပ်ငန်း
ာရာမ
BM
တာနဲ့
▁မဟာမိတ်တို့
▁ဆရာတင်
▁အနာရောဂါ
▁တော့
▁၁၆၇၃
▁Than
ပြသခဲ့သည်။
ရဲတိုက်
တိုင်းမ်
ပါရှိသည့်
▁ဧည့်
=70
▁၄၀၀၀
တောင်ခြေ
ကျခြင်း
▁ရေနံမြေ
▁၁၆၅၁
=160
hat
မှုတို့ကြောင့်
▁ဂန္ဓ
ထိုင်းနိုင်ငံ
နယ်ရှိ
▁ထောက်ခံမှု
ထွက်ပေါက်
▁ဘုရင်မကြီး
ေတာ
အိဝ
▁လက်သည်း
တုံ့
ဝေးကွာ
▁လေကို
ကုန်သွယ်မှု
▁၁၆၆၆
▁တစ်ဆက်တည်း
▁မြစ်များ
▁Love
▁ပင်လယ်အော်
ဒြပ်
ဝင်ရိုး
▁လုပ်အား
▁သုံး၍
▁ဒစ်
ပြိုကွဲ
▁၁၈။
စည်းစိမ်
▁မဝင်
▁ပယ်ချ
▁လမိုင်း
ရှိနေသော
ဘွမ်
ရသောအခါ
မယူ
▁မှတ်တမ်းများ
မူကြမ်း
▁ခင်း
အတွင်းမှာပင်
▁မဏိ
ပင်လယ်ကွေ့
ကျမှ
▁အလယ်ချောင်း
▁စူ
ကျွန်းနှင့်
သာသနာပိုင်
ချခြင်း
ခမောက်
▁၁၆၇၄
▁ထို့ကြောင့်လည်း
▁လေ့လာဆည်းပူး
အဖွဲ့သို့
▁Association
▁မီးပုံးပျံ
伊
ع
野
=123
ဖြစ်စေသော
▁လွတ်လပ်ခွင့်
▁တစ်ဦးနှင့်တစ်ဦး
▁ပေခန့်
မိန့်တော်မူ၏
▁ယောက်မြောက်
တွေ့မြင်
▁ဖုခုရှီးမား
အစ်ကို
အကျိုးသက်ရောက်
ခန့်ရှိ
RI
▁အကြာတွင်
▁ယဉ်ကျေးမှုများ
▁ဝင်စား
▁ပွတ်တိုက်
ရောင်းဝယ်ရေး
ေါ
စုံလင်
▁တား
▁ဒေသအလိုက်
▁ဌ
="62
="123
▁Internet
စာရင်းအရ
▁စမ်းသပ်မှု
ကုဋေ
ခြင်္သေ့
သွားလာနိုင်
ဋ္ဌာ
ဆဲဖြစ်သည်။
တဲကျေးရွာအုပ်စု
▁လကမ္ဘာ
▁၁၇၂၀
စ၍
ဇစ်
ယွီ
▁နိုင်ငံနှင့်
တိုက်ခိုက်ခြင်း
▁ဖြတ်သန်းသွား
▁သညာ
▁ဤနည်းဖြင့်
▁၁၆၇၀
ပုံမှန်
အုပ်ချုပ်ရေးစနစ်
ပါးသော
▁မူလအစ
▁သင်ခန်းစာ
ဖန့်
ာဘိ
▁ကိုသာ
ကွဲရွာ
▁တည်ရှိခဲ့သည်။
▁သေဆုံးခဲ့
ပလီ
သူရဲ
▁ဖော်ပြခြင်း
▁၂၀၇၉
တော်များကို
ချေမှုန်း
ခုံရုံး
▁ဂုဏ်သတ္တိ
="59
အရေးပါသော
သားများကို
မြေခြား
▁ယူနန်
▁၂၁၆၈
လက်စ
▁Oke
▁ထုတ်ဝေသည်။
AR
▁ဂေ
▁ကံကလေး
▁အလိုအရ
ခွဲထွက်
ကျော်၊
ဘရီ
ရှိပြီး၊
ပစ်လိုက်
▁သတင်းများ
▁စူးစမ်းလေ့လာ
▁ကျောင်းသားသမဂ္ဂ
▁IP
လာရ
▁စကြာ
ဒါန်း
▁နတ်ဘုရားများ
စေခဲ့ပြီး
▁တယ်လီ
အားနည်း
လျော
ကျွန်တော်
DP
▁၉၂
ရက်ထပ်နှစ်
ali
=71
ပြုလုပ်ရာတွင်
▁မရိုး
zz
▁ဆီဆုံ
သွားပြီးနောက်
အရုပ်
▁ကြေ
လုပ်ငန်းများ၊
▁သတိရ
စွဲကိုင်
တိုက်ကြီး
ရန်ကြိုးစား
中
▁နိုက်ထရိုဂျင်
ร
=112
▁တိုးလာ
▁ဥပုသ်
▁ပြင်သစ်လူမျိုး
ဖြစ်လာခဲ့
မြစ်ဝ
▁တီထွင်မှု
ဖြစ်သည်ကို
▁လူမှုအဖွဲ့အစည်း
ကုန်းရပ်ကွက်
▁လိုက်လျော
▁ရုပ်လုံး
ပုံတစ်ပုံ
ပေါင်းစု
▁ကျောင်းမှ
▁တောင်အမေရိက
▁ကြွေး
▁ထွင်
စည်းရုံးရေး
▁ကမ္ဘာ့အကြီးဆုံး
▁၂၀၁၁ခုနှစ်
▁ကဒူးကြီး
▁ဗွီ
▁မိုင်းကိုး
အရပ်မှ
▁ဒဏ္ဍာရီများ
တမော့
▁မခံ
▁ခုနှစ်ထိ
ရုပ်သံ
▁ကိုးကွယ်ကြသည်။
▁ဒေါ်စိန်
မိ၍
မဟုတ်ပါ။
သက္ကယ်
▁အာရုံခံ
သရွေ့
▁၁၆၄၉
လ္လ
▁အစီအစဉ်ကို
▁နီကို
ကိုဖြတ်၍
မချ
▁၂၁၆၂
▁၁၇၄၂
ရေသောက်
သွ
ဆီက
မှုနှုန်း
အသုံးပြုနိုင်
▁၂၀၉၅
▁ဗူး
lit
="112
အဆိုပါ
ရောဂါဖြင့်
▁ဓမ္မာစရိယ
▁နှစ်ထပ်
▁၁၆၈၇
▁တည်ထောင်ခဲ့သော
▁ဒေါ်မြ
နှိမ့်
▁ထန်းလျက်
အရာများ
ရော့စ်
▁၂၄၀
ဒိန်း
သုတ်သင်
ကြည့်ရာ
စေ့စပ်
▁ညောင်ချောင်း
▁ကြွေးကြော်
▁အထီး
▁ငါးရာ
ပိုင်ခွင့်ရှိ
▁ကျွန်းပင်
▁၂၁၉၆
▁အပြည့်
အတွဲ
400
▁နိမ့်ကျ
အနံ့
▁၁၉။
▁၁၃၅
▁ဆေ
ထ်
▁ပုဂ္ဂိုလ်တစ်ဦး
▁ဂျပန်၊
iya
၂၀၁၉
▁ဆောင်ပုဒ်
ဆု၊
▁အခေါ်
▁Cor
မတွေ့ရ
ဆက်သ
ဘုရားသခင်
014
▁၂၁၀၀
သားများက
ချုပ်အဖြစ်
▁ဆက်၍
▁သတင်းစာတွင်
ငွေများ
▁တင်ပြခဲ့သည်။
▁အောင်မြင်သည်။
▁သစ်ခွ
အစွဲ
▁ဆောင်ရွက်ခြင်း
▁ပြေလည်
ဂရု
တက္ကသိုလ်များ
▁Q
▁ဖြစ်တယ်။
=80
ရှည်ကြာ
▁မှုခင်း
များဖြစ်ကြ
▁မြစ်ချောင်းများ
မည
▁၁၇၂၇
▁အကျော်ကြားဆုံး
▁နှစ်ခြိုက်
ဉာ
▁ဥရောပတိုက်သား
ပေသေးသည်။
▁ဦးနေဝင်း
၆ဝ
▁စီးကရက်
▁လှော်
▁တပ်ကုန်း
ရီယန်
ဓာတ်ဆား
တောင်းခံ
▁ဖုံး
ပျက်ပြား
▁သူမကို
▁Inc
ကြာအောင်
▁မြစ်ကမ်း
င်္က
သည်ဖြစ်ရာ
စူးစမ်း
▁ရှုတ်ချ
▁ဤကိစ္စ
တိုက်နယ်
▁၂၁၄၃
▁အက်စ
ခဲ့ရသည်
မည်သို့ပင်ဖြစ်စေ
လိုက်သည်
ပေးမှု
▁ထွက်ကုန်
မြန်မာနိုင်ငံ၏
▁၂၀၆၁
▁အထင်ကရ
ခဲ့သည့်အတိုင်း
▁၂၀၇၃
▁ပိုများ
fr
အပေါ်၌
▁နယ်စား
ဖြစ်ကြောင်းကို
ခြင်းထက်
နားကောင်မြို့နယ်
▁ကင်ဆာရောဂါ
စစ်သားများ
▁၁၂၇၈
▁ကျွန်းသစ်
▁တီထွင်ခဲ့သည်။
▁ပထမဆု
ကဿပ
▁ဂျပန်နိုင်ငံ၏
အစီအစဉ်များ
၏သားတော်
ple
ာဘိဝံသ
တော်မှ
▁ပွင့်သည်။
▁သရုပ်ပြ
▁လေ့လာခဲ့သည်။
ဗေဒင်
Ta
▁ရေလက်ကြား
▁General
▁ငွေတောင်
▁ဖြစ်ခြင်း
▁ကင်းလွတ်
▁၂၀၉၈
ရုပ်များ
သင့်သည်ဟု
▁ရွာရှည်
လေ့လာရေး
မုံရွာ၊
▁အရှည်ဆုံး
▁တခ
▁တစ်ချိန်က
▁lo
တစ်ခု၌
လမ်းတွင်
ဓာတ်အားပေးစက်ရုံ
▁ပါဝင်လာခဲ့သည်။
▁နောက်နှစ်
▁ပူပြင်း
ဇာတ်ကောင်
ရှည်သည်။
▁ဖြည့်
▁မာရ
ကြလေ
▁နိုင်ငံခြားမှ
ဩဝါဒစာ
▁လူဝီဘုရင်
▁တို့၌
▁၁၃၉၂
eg
▁၂၀၄၈
ရွိုက်
▁ရေဆင်း
▁၁၇၀၉
အချိန်၌
မဟုတ်ပဲ
▁သူ၏ဖခင်
ုတ္တရာ
လတ္တံ့။
▁inter
▁ဗိုလ်လုပွဲ
▁fa
els
▁လှည်းဆိပ်
▁၁၇၂၂
▁Fu
ရခြင်း၏
ပေး၏။
သော်ငြားလည်း
နှောင်
▁ရေကာတာ
▁လျှောက်တင်
ဈေးနှုန်း
တိုးတက်ရေးပါတီ
▁အဖွဲ့များ
ကျန်းမာ
အောင်မြင်မှုများ
ပါ့
▁အနုပညာလက်ရာ
▁ထုတ်လုပ်နိုင်
▁ဆော်ဒီအာရေဗျ
▁Party
စာရင်းဝင်
▁အခွင့်အာဏာ
ဗျူရို
▁စတင်အသုံးပြု
▁ဂြ
▁ထိုကာလ
▁အောင်ဇေယျ
စဉ်ဆက်
လမ်းစဉ်ကို
▁လိုက်စား
▁မြန်မာ့အသံ
▁၂၁၄၇
ရက်နေ့မှ
▁အဓိဋ္ဌာန်
▁Khin
rock
လာခဲ့လေသည်။
▁ဦးကို
နိုင်သေးသည်။
ကောင်ရေ
▁ရေငွေ့
ခြာ
တော်မူပါ
▁၁၆၄၇
မြို့များတွင်
sta
▁၂၀၃၂
▁သင်ရိုး
▁ဩစတြေးလျတိုက်
အောက်မှ
▁အလယ်ဗဟို
နိုင်တော့
ကြီးပွား
ဆီယမ်
▁တန့်
▁သိမ်းဆည်းထား
ရွေ
▁မိုးရာသီ
ori
▁ဆန်းကြယ်
ခွင့်ရရှိ
cro
ရချေ။
း၊
▁၂၀၄၂
ဘင်း
လိုလို
▁မှီဝဲ
မနာ
ကျင့်ကြံ
ခဲယဉ်း
▁ကျဆင်းလာ
▁မြင်နိုင်
▁Nu
▁၁၆၄၅
အဖြစ်သတ်မှတ်
▁Art
▁စာပို့
▁၂၁၃၃
▁အလုံးစုံသော
▁တို့ကိုလည်း
▁လက်ထက်က
▁၂၁၀၉
▁လေ့လာသော
တစ်ရပ်ဖြစ်သည်။
▁အင်္ဂါနေ့
တည်ရှိပြီး
▁ဒီရေ
▁တရုတ်နိုင်ငံ၏
မထင်
ံး
▁ဘုရားပွဲတော်
တလိုင်း
အပ်သည်။
ကုန်းမြေ
အမည်များ
▁ဒီဇင်ဘာတွင်
=53
▁လက်စွပ်
အခွင့်
▁ခုခံတိုက်ခိုက်
▁အလာ
▁သိမ်ကုန်း
▁နေရာ၌
▁exp
စာလုံးများ
ဗိုလ်ချုပ်နေဝင်း
▁ပန်းချီကားများ
▁၁၇၁၅
လိုဏ်
▁အရောင်တင်
▁ဝေဒ
ထက်ပို
taw
ဓာတုဗေဒ
ဟူသမျှ
▁၂၀၇၁
ပုံစံများကို
စန္ဒ
▁ဤဘဒ္ဒကမ္ဘာ
နွတ်
▁အသေအချာ
ပြသာဒ်
▁အလျင်အမြန်
လျက်ပင်
▁Harris
အဖြစ်သာ
▁အစပျိုး
▁အကျိုးခံစားရ
▁အရေးအကြီးဆုံး
▁အိုင်ကြီး
▁ကက္ကူ
▁မှောင်ခို
▁ဗေဒ
နှင့်ဆက်စပ်
▁၂၀၀၈ခုနှစ်
မြို့ဝန်
လွီ
စောမွန်
▁၂၁၇၃
▁၁၆၈၀
ကိုးပါး
▁ဇေတဝန်ကျောင်း
shi
ချေသည်။
ire
▁၂၁၃၇
ပြုလုပ်ခဲ့ကြသည်။
▁အလုပ်လက်မဲ့
▁ဖွတ်
ရှင့်
▁နောင်ခမ်း
▁၁၆၄၃
တင်မောင်
္စ
▁အချိန်အခါ
ုမ်း
▁ကျည်ဆန်
▁အမြတ်ဆုံး
▁အရင်းအနှီး
▁၁၆၄၆
ဂိရိ
ari
ics
▁ရုံ
▁Her
ထွက်သွား
▁နှင်ထုတ်
ကြွပ်
နှိမ်
▁ပလာ
စက္ကန့်
▁၂၀၅၂
အင်ပိုင်ယာ
ဖြည့်စွက်
သရုပ်ဖော်
="106
▁ကျိုတို
▁အခက်အခဲများ
=79
▁ကခုန်
mber
သူများတွင်
▁ပါရစ်မြို့
▁ဗွိုင်ယေဂျာ
▁မြစ်ချောင်း
ဆင်းသက်လာ
▁ဘေးမဲ့တော
▁နိုင်ငံတော်က
ရုံးစိုက်ရာ
မဘူတာ
ကမ္ဘာစစ်အတွင်းက
သတ်မှတ်ထားသော
မြိုက်
aya
▁လူမျိုးစုများ
ဟန်ရှိသည်။
▁ပါမောက္ခချုပ်
800
သတ္တ
▁မြန်မာအမျိုးသား
sen
တည်း၊
62
▁Em
ချကာ
▁အမည်ခံ
▁ကြယ်တံခွန်
Pro
ula
▁နာမည်ကို
▁ဖျော်
▁မဂ်
lat
ထုတ်လုပ်သူ
မှန်ပြောင်း
▁၁၆၀
မြို့ကြီးများ
▁လုံလောက်သော
စိန်း
lay
ုံ
ဂုချိဘူတာ
▁မကျီးပင်
ဏ္ဏ
▁North
ကိုယ်ထည်
ထုတ်ခြင်း
နေထိုင်ခဲ့
သီတင်းသုံး
▁ဧည့်ခံ
ဘီယာ
pol
ပစ္စည်းကို
ဇေတဝန်
▁သန္ဓေ
ကွပ်ကဲမှု
ကွီး
အုပ်ချုပ်ရေးကို
မှုအရ
▁ဆင်ဆာ
သက်ဝင်
▁တစ်ချက်
▁မာကျူရီ
▁အများကြီး
▁ရေဝေ
ညု
▁UN
▁ငှက်ပျောတော
▁ဆူနာမီ
▁ဝင်းဒိုး
▁အိုင်းရစ်
▁0.
တက္ကသိုလ်၌
စဉ်း
▁ယခုထက်တိုင်
▁ကြက်သွန်ဖြူ
နေပါက
လူဦးရေ၏
▁ဥပဒေနှင့်
ပြီးဖြစ်သည်။
ဟံ
▁မောင်းမ
ွပ်
▁ဟွန်
ပုဂ္ဂလ
ာလင်္ကာရ
▁၁၀၃
ဆိုင်များ
▁လူမည်း
▁လူသားတို့၏
▁ခတ္တိယ
▁ကာရံ
တက်ရွာ
▁အင်တာဗျူး
▁မဂ္ဂ
ထူးကဲ
▁ရှုခင်း
▁ရန်သူကို
နှိုင်းယှဉ်
▁၉၇၇
▁၂၁၅၀
ရသကဲ့သို့
▁သခင်တင်
ica
▁ပြည့်ဝ
▁ဂျာမနီ၊
မတွေ့
အဆင့်ရှိ
ကရ
▁နှစ်မျှ
ခန်းများ
▁၁၇၀၂
▁လူဖြူ
ကုမ္ပဏီမှ
▁လက်ဝါး
▁၂၀၁၆ခုနှစ်
ပတ္တမြား
တစ်လွှား
▁စစ်ပြီးခေတ်
▁အမည်း
▁စန္ဒာ
ကလန်
ဟုမ်း
▁၁၆၇၈
▁open
ကုံ
80
သဖန်း
အိုခဘူတာ
▁အရွယ်ရောက်ပြီး
▁၁၆၉၁
ဆေးအဖြစ်
▁စသည်တို့ဖြင့်
ုတိ
▁ဂုဏ်ယူ
▁ခေါင်းပေါင်း
▁ရေလမ်း
ပေါ်လွင်
ထုတ်လုပ်သော
▁ပြီးစီးခဲ့သည်။
မညီ
▁ဝင်ခွင့်
လာမည့်
tis
="77
▁၂၂၂၀
▁ဤအမျိုးအစား
့ဒ်
ီးယပ်စ်
မဂ်ဖိုလ်
မိသားစုဝင်
တော်သို့
▁သက်ရောက်မှုများ
▁ရော့ခ်
ပြည်နယ်သည်
သယ
▁ခုံကြီး
▁ငြိမ်းအေး
လောင်စာ
ele
ပါလျှင်
နိုင်နင်း
▁ဆုံးဖြတ်ခဲ့သည်။
▁ကြံခင်း
▁ရွာငံမြို့နယ်၊
တိုင်းသည်
▁၂၁၂၁
▁အာဏာသိမ်းမှု
ER
ကြိုးကို
▁ငြိမ်ဝပ်ပိပြား
ရှိစေရန်
▁ကျွဲတလင်း
သတ်မှတ်ခဲ့သည်။
စဉ်ကာလ
▁ကျောင်းတော်သည်
▁အရောင်း
ဖျော့
ပိတ်ပင်
သည့်နောက်
▁စွယ်စုံ
ပြုမူ
▁အမက
▁sp
▁ချန်ကေရှိတ်
▁software
=116
="71
တိုက်တိုင်းအောင်
▁ဓမ္မာနံ
▁ကမ္ဘာ့ကုလသမဂ္ဂ
▁မင်္ဂလာဒုံ
ကိုးကန့်အထူးဒေသ
▁ခါနာဂါဝါခရိုင်
▁၂၀၉၂
less
▁ကျောင်းစု
သမိုင်းကြောင်း
▁တမ်း
တည်းဖြတ်
="116
▁ကြိုက်နှစ်သက်
▁ဗင်
="79
▁အဝေးရောက်
ဉာဏ်။
▁သတင်းပို့
▁စတင်ထုတ်ဝေ
▁ဒုက္ခသည်
▁ဆောင်ရွက်မှု
▁ထိုနှစ်တွင်ပင်
ဗိသုကာ
▁ကျားသစ်
▁၁၇၂၈
ပြည်ပ
ပေးနိုင်သော
▁လောကတွင်
▁စက်ဖြင့်
▁၁၇၄၄
PI
▁၃၈၉
▁တည်ထောင်ခဲ့
လုပ်သားများ
ကောင်စီမှ
▁ချို့ယွင်း
မွမ်းမံ
▁ပါရီမြို့
စီး၍
▁စတင်ဝင်ရောက်
rus
▁ပြင်ဆင်ဖွဲ့စည်း
▁ဝေသာလီ
▁ကျန်ရစ်သည်။
မိတ်ဆွေ
တတ်သည်
▁South
ပျဉ်း
ရွေ့လျား
tter
စာရွက်စာတမ်းများ
ပမာဏမှာ
▁ဦးမြ
▁ခန
▁တပ်မြို့အတွင်း
▁ကြီးပြင်းလာ
စကားရပ်
▁အထက်လွှတ်တော်
▁ခန့်အထိ
▁စည်သူ
▁သိနိုင်
တိုးတက်လာခဲ့သည်။
ကြည့်ပါက
▁all
▁ဖြစ်ကြလေသည်။
▁တွံတေး
▁အီသီယိုးပီးယား
ညွှန်ပြ
▁၁၇၄၅
လတ္တံ့
ပဉ္စ
▁အင်တိုင်း
နေသေးသည်။
▁ဆွေး
▁ဘွဲ့တော်
ချင်း၊
▁၂၀၉၄
ဘဏ္ဍာ
န္ထ
▁ထုံးဘို
ene
ရက်မှ
▁ဘီ၊
NG
▁စီစဉ်ထား
ကပ္ပ
▁၂၀၁၈ခုနှစ်
▁ဖမ်းမိ
ဌာန်
▁နေ၏
701506
ခိုရွာ
▁ပူးပေါင်းကာ
ရေးဖွဲ့
ထီးနန်းကို
order
▁၂၁၁၂
=204
သွာ
ကိုတော့
ကြပါ။
လား၊
▁အချုပ်အခြာ
▁ကုသမှု
▁ထောက်ခံအားပေး
▁စိန်ခေါ်
="204
▁အဝတ်အထည်
▁three
▁ပလေးစတေရှင်
▁website
▁ချိဘခရိုင်
▁ရှော
ဟုခေါ်၍
▁သမ္မ
▁နယ်မြေများ
▁ဗုဒ္ဓဝင်
61
▁ဝါကျ
▁ဩဇာအာဏာ
သည်နှင့်အမျှ
▁ကော်ဖတ်
▁ဘဏ္ဍာ
▁ကွင်းကောက်
▁၃၂၀
မှတ်ယူ
▁Times
▁၁၂၀၀
အများအပြားကို
▁နင်
ဘရှိဘူတာ
ခဲ့သူများ
▁၂၀၆၀
▁၂၀၇၀
▁စစ်ပြီး
တစ်ရှူး
▁၉၇၂
▁အတွင်းက
ခဲ့ကြပါတယ်။
="55
ကယား
▁ပဒေသာ
▁အိုးအိမ်
ခေတ်သစ်
▁ဓန
ကာမ
▁မြေနီ
ရမယ်။
ငယ်နှင့်
▁Pyaw
▁ဧရာမ
ever
▁အလုပ်ရုံ
▁၂၀၉၇
ချီ၍
စရာမလို
အစပ်
▁လည်ချောင်း
▁သတင်းစာတိုက်
▁Vo
တျာ
▁တရုတ်နိုင်ငံမှ
ade
ano
▁အလွယ်
ပိုမိုကောင်းမွန်
▁Sam
အခက်အခဲ
သခွတ်
လာခဲ့ကြ
ပန်းကန်
ကာကွယ်ဆေး
နိဂုံး
ဗြိတိန်
▁အစားအစာများ
ခိုလှုံ
▁ပါစိတ်အာပတ်
▁သိရှိရ
ညှိုး
ဖြစ်ပေါ်စေ
မကြာမီ
▁ရွေးချယ်ခြင်း
၏ဖခင်
ဖြန့်ချိခဲ့သည်။
▁Pre
ဝါဒီများ
▁High
▁(19
မိသော
▁ပန့်ခ်
▁ပဋိပက္ခများ
ပြဆို
▁၂၀၈၆
▁အပြည့်အစုံ
▁၁၇၀၁
ရောဂါကာကွယ်ဆေး
▁လုပ်ကိုင်သည်။
ကြီးစိုး
▁Str
▁မင်းညီမင်းသား
ဆောင်ရွက်မှုများ
အေးအေး
အပိုင်းအခြား
▁၂၀၅၉
တစ်ဘက်
▁ပုံသေ
ချော်
သံစုံ
▁ဒေသတစ်ခု
လေးအိမ်
ခနဲ
▁ရုံးသုံး
နီ၊
▁ပါရီ
ဂရစ်
dra
ces
▁လက်မှု
▁ဆန်းစစ်
ခုနစ်ပါး
▁အကြောင်းပြ
ဂန္ဓ
▁၁၇၁၂
ဟိုင်းရွာ
▁ဂျုံ၊
▁ကွန်ပြူတာ
á
0130207015
▁လပြည့်ကျော်
ဘာ့ဂ်
▁ကညင်ငူ
▁မျိုးစိတ်များ
▁ငါးဖမ်း
▁ဥပဒေများကို
▁ဓာတ်ပုံရိုက်
ဖှာ
▁Shey
▁မူဆလင်
▁been
▁ရဟတ်ယာဉ်
▁ကျီးကန်း
ထားသောကြောင့်
ညင်
▁States
▁၂၁၃၈
▁ပိုးထည်
▁၂၀၈၁
▁သူဌေးကြီး
မျိုးပေါင်း
▁၂၀၃၇
▁ရွှေဘုံသာ
▁တိန်း
ရှင်းပြ
ino
ood
▁အဲဒီလို
▁ရန်သူ့
CD
▁တိုင်ကြား
▁ရာစုမှ
ငု
▁မဲနယ်
ဖြစ်လာမည့်
▁အိမ်ရှင်အဖြစ်
▁မန္တလေးမြို့၊
▁ရာဇဂြိုဟ်ပြည်
ထင်ရှားသည်။
▁မွေးနေ့
▁နာရ
▁News
▁ညောင်ရမ်းခေတ်
နွဲ
ဖို့အတွက်
▁အရန်
ကာယ
▁ချောမွတ်
▁ဇို
လုပ်ကိုင်ကြသည်။
je
အုပ်ချုပ်သော
mat
▁ညှပ်
လင်ရွာ
ော်
လုပ်ငန်းမှာ
များတွင်သာ
▁၂၁၀၆
အသင်းမှ
မန်နေဂျာ
ဟံသာဝတီ
မကြာခဏ
အတွက်မူ
ညည်း
ုက္က
▁မှောက်
စိန်၊
ပေါ်က
သာဝက
ပြုကြသည်။
▁ဒေသနာ
▁သုံးလ
တို့ကြား
ပေးခဲ့သော
တပ်သားများ
▁လျစ်လျူရှု
ert
▁ပျံ့နှံ့သွား
နားထောင်
ဘူမိ
▁ရက်အထိ
▁ရေးသားဖော်ပြထား
▁ထိုထက်
▁လျှို့ဝှက်စွာ
▁တည်းခို
▁ယင်ကောင်
လီးယား
နိုင်ငံများသည်
ပွဲစား
Ra
ဒွေး
▁များမှ
ဘာသာကို
ညွှန်းကိန်း
တပင်
▁ကွမ်းသီးပင်
▁ပြုလုပ်ရာ၌
▁သင်သည်
ပိန္နဲ
▁ဘေးရန်
ငယ်လေး
အတော်
▁၁၃၀
▁ဘာသာရပ်များ
▁ကျောက်ဆည်ခရိုင်
▁စသည်တို့သည်
▁ဂေဟစနစ်
Ho
ယွမ်
▁ပန်းရောင်
▁ထံမှ
▁နန်းတက်စ
▁ဝေဖန်ရေး
ကဝိ
▁စိတ်ပျက်
▁ကြို့
ဂတိ
▁ကမ္ဘာကို
အမြီး
▁စစ်ဦးစီးချုပ်
ဝန်းရံ
▁25
အခွံ
▁30
ram
ကျိပ်
ဆယ့်တစ်
နောက်လိုက်
н
▁ပဲရယ်လ်မန်
▁Death
တပ်မှ
နျူ
▁စေတီပုထိုးများ
▁Kya
ပြည်၊
▁အသံတိတ်
▁စေတီတော်ကြီး
သုတ
▁ဘောဂဗေဒ
▁ရုပ်ပိုင်းဆိုင်
▁အရေးနိမ့်
ကျပ်တန်
ခွင့်ပြုချက်
▁၂၁။
▁Ki
▁မိနစ်တွင်
▁နှေးကွေး
▁ပုစ္ဆာ
▁ရေမျက်နှာပြင်
▁ရှိသေး
▁cl
▁ထောက်လှမ်းရေး
မသင့်
▁စစ်မက်
▁လေသာ
▁ပြည်ပပြန်
▁၂၀၇၇
မြစ်ဝကျွန်းပေါ်
▁high
▁ကြံ့
မည်မဟုတ်
▁၂၁၄၄
▁ပယင်း
ကျသည်။
ဖေါင်း
တော်ဘုရား
▁ခန့်မှန်းရသည်။
အကျယ်အဝန်း
ဖြစ်သည့်အပြင်
ould
▁ရောမတို့
ပစ္စည်းများ၊
ဖြစ်ခြင်းကြောင့်
လုပ်ကိုင်ကြ
သံအမတ်ကြီး
▁Ó
▁၂၁၀၅
ဟုလည်းကောင်း
ငှ
ကုလ
သူငယ်ချင်း
▁ရာစုအတွင်း
▁၁၄၀
▁David
▁အမိဒေါ်
▁အမူအရာ
အတွင်းမှာ
▁၁၆၇၁
▁ဆင်တူသည်။
era
ကြွား
▁လူတွေ
နယ်သို့
သွားရသည်။
▁ဆိုးရွား
▁လက်ဝဲဘက်
လမ်းရှိ
တက္ကသိုလ်၏
ရုပ်ရှင်ကား
ဝေါ့
ယန
အာနန္ဒာ
ာ့ခ်
▁၂၀၈၄
၂၀၂၀
ပစ္စည်းများနှင့်
ရည်မှန်းချက်
▁မဟာဘွဲ့
လန်ဒန်
▁ပြည်ပမှ
▁ဤစာအုပ်
တန်းစား
▁ဥက္ကဋ္ဌ၊
ပြိုင်ခဲ့သည်။
ဒီမိုကရေစီပါတီ
▁မြန်မာတို့သည်
▁သတိထား
▁ချမ်း
▁စာချုပ်ကို
ှာ
ray
အိန္ဒိယနိုင်ငံ
စိတ်ဖြင့်
ကျန်းမာရေးဌာန
တန်ဆောင်း
ပုရ
▁၂၁၄၀
ပဝရ
use
ပိုင်းရှိ
▁ဒေါက်
နောင်လုံ
ထေရီ
late
▁ပြီးတော့
မှစပြီး
လက်အောက်သို့
▁မကွေးတိုင်း
▁မျိုးသုဉ်း
ကတုတ်
များနှင့်လည်း
▁Bi
▁မြင့်မြတ်
ထည့်သွင်းခဲ့သည်။
▁Los
သွတ်
ပါစေ။
မင်းကျော်
zo
အိမ်တွင်
သို့လည်းကောင်း
ت
▁service
=203
▁Son
လက်ပံတောင်းတောင်
▁အဖွင့်
▁အခါအားလျော်စွာ
တော်မမူ
▁ကတ်ထိုက်
ထားတာ
▁ပျဉ်ထောင်
စွမ်
နေထိုင်ခဲ့ကြသည်။
▁ထိုးစစ်
ဖျန်း
▁မဟာမိတ်တပ်များ
မှထွက်သော
▁နောက်တစ်နေ့
ရှုံ့
▁၂၀၇၆
▁ကူညီပေး
ေဟိ
▁လက်ရေး
▁အစဉ်အဆက်
▁ရေမ
ဃောသ
▁ထိုထို
="203
နှစ်ပေါင်း
▁ရေအား
▁ကန္တာရ
းဗား
အထောက်အထား
နည်းအတိုင်း
ခန်းတွင်
တို့မှာလည်း
▁နီးကပ်စွာ
နောင်မို
▁ကျောက်တလုံး
ပေးရေး
▁၂၁၂၃
ဂေါတမ
▁အအို
ငြိ
▁အမှုတော်
▁ရေများ
▁ဒေသကြီး
လျင်မြန်
▁ခေတ်တွင်
▁အလယ်ပိုင်းတွင်
▁၁၇၄၁
▁ကျွမ်း
ပြီ၊
လမု
ရရှိပြီး
▁လျှပ်စစ်မီး
▁တောင်ကလေး
▁roll
▁ဓားပြ
တွင်းထွက်ပစ္စည်း
▁အသံသွင်း
ဖြစ်မည်
▁အမျိုးမျိုးကို
သုံးပြီး
ရပ်နား
ဖရက်
အငြိမ်းစား
▁၂၀၂၆
နေရာတစ်ခု
အင်္ဂလန်
▁ကလော
သံမဏိ
▁ကိစ္စများ
သင်္
▁ပြုလုပ်ပြီး
အတိုကောက်
သွားတတ်သည်။
အာဏာသိမ်း
▁အအောင်မြင်ဆုံး
att
▁ရေးမှတ်
ဂျမ်း
စခန်းသို့
▁ဆိုင်သော
▁ဂမ်ဘီယာ
နှာ
▁အခြေခံသော
▁ဗီဇ
ဖောက်ပြန်
▁ရှိဇုအိုခ
သန်းခန့်
▁အောင်မြင်သော
▁ကိုလံဘိုမြို့
အလင်းရောင်
▁ဖခင်၏
▁ထိုကျမ်း
မွမ်း
▁အဖမ်းခံရ
လုပ်ငန်းအတွက်
▁လိမ္မာ
▁နက်နဲ
▁ရာစုနှစ်တွင်
ဘာ့
▁အလ
အချို့သော
ချိန်မှ
လောက၌
▁ခေါ်၍
▁မြန်မာမင်း
ဓာတ်ကို
▁ဘုရားရှင်က
▁မိဘများမှာ
လူတို့
▁ကုန်သည်များ
pu
သေးပါ။
▁အန
မြောက်ပိုင်းရှိ
▁စေလွှတ်ခဲ့သည်။
▁အတော်အသင့်
▁၂၁၂၅
▁ပါတီတွင်း
ပါသော်လည်း
▁ကျောက်မျက်ရတနာ
field
▁ဓမ္မစကြာ
▁စီမံအုပ်ချုပ်
hel
▁စိတ်၏
ဏိ
▁ကျွနု်ပ်တို့
▁ပေါလု
ဆောင်ရွက်ခဲ့
ဝါးရုံ
ငယ်ကျေးရွာအုပ်စု
▁မြစ်ဝှမ်း
ပင်။
▁အကြမ်းအားဖြင့်
▁တစ်နာရီလျှင်
ပေးချေ
▁ကိုင်းတော
မည်ဖြစ်
▁ရှိခဲ့ပြီး
▁fe
▁၂၀၂၇
အောက်ရွာ
▁တမျိုး
▁၂၁၅၁
▁ကြည့်၍
ကြန်
▁ခစား
▁code
▁ခြစ်
rom
▁ပုံစံများ
စေနိုင်သော
တွဲဖက်
တို့ရဲ့
▁ပရောဂျက်
တောင်ပိုင်းတွင်
▁ပြည်နယ်တစ်ခု
နှစ်ဘက်
▁ပံ့ပိုးပေး
ပညာရပ်များကို
▁ထိုရောဂါ
စိန်ဝင်း
ဖဲ့
▁၈၉
▁လာခဲ့သည်။
ND
▁၂၀၆၄
နှစ်သားအရွယ်
▁၂၁၉၅
▁၂၁၉၈
မန္တ
▁အေသင်
▁ဦးထုပ်
▁လိုဏ်ဂူ
▁နိုင်ငံတစ်ခု
ရပ်စဲ
▁ကဗျာ၊
▁ရွေးကောက်ခံ
▁စုံလင်
▁၁၆၅၂
ကြီးနေဝင်း
တစ်ဖန်
▁အမျက်ထွက်
နှင့်ပူးပေါင်း
▁ထူထောင်ခဲ့သည်။
▁ထိုနယ်
▁အဆုံးစီရင်
▁လက်ျာ
▁ဆက်သွယ်ထားသည်။
▁မြို့မကျောင်း
▁ဗိုလ်မြ
▁၁၀၁
ich
▁ရှန်း
ထင်မြင်ချက်
▁ဝါဆိုလ
▁ကြံတော
▁အတွင်းမှ
▁လက်မှုပညာ
▁လေ့လာရန်
လေ့ရှိသည့်
AP
ရရှိရေးအတွက်
▁၂၃၄
အတွေး
ရှည်သော
▁သခင်စိုး၏
thumb
စာအုပ်တွင်
▁ရေထွက်
▁အထင်
သဒ္ဓါ
▁၂၀၅၁
တိုတို
▁မှန်ကန်စွာ
များမှတဆင့်
ကျင့်ဝတ်
yu
လေကြောင်းလိုင်း
▁သခင်စိုးသည်
၂ဝဝ
▁အမည်ရှိသော
နေဟန်
▁13
ကုန်ဆုံး
အိမ်သို့
ကြေးနန်း
▁မြေကို
▁ဗုဒ္ဓဟူးနေ့
▁ကျွေး
ကမ်
▁ရွှေဘိုမြို့
▁အထွေထွေအတွင်း
▁ယောက်ျားလေး
ပန်းချီကား
ပါးစပ်
▁ဖြစ်ကာ၊
နေကြရ
▁၁၆၅၃
▁အပင်များကို
▁တွေးတော
▁အရမ်း
နရီ
▁မရှိ။
▁part
ဇာတ
အလံကို
▁ဟန်ဂေရီနိုင်ငံ
▁ပြဇာတ်များ
နှစ်အကြာ
▁ချုပ်ငြိမ်း
▁မလွန်
▁မီးချောင်း
ပြီးနောက်၊
▁အဆိုး
လုပ်ဖော်ကိုင်ဖက်
▁TDS
▁electronic
▁ဩစတြေးလီးယား
▁Science
▁ဘီအိုင်အေ
▁စာရွက်
▁စတုတ္ထအကြိမ်
နီလာ
▁အလေးပေး
▁ဆေးဖက်ဝင်
▁ကမ္ဘာလှည့်
▁ဝု
▁ဘီဘီစီ
မျိုးလည်း
သည့်တိုင်
▁လက်ပံကုန်း
ရေးကော်မတီ
▁ဦးသိန်းစိန်
▁၁၆၉၀
များအပေါ်တွင်
AA
ဖြန်း
အပြန်
လုံခြုံ
ying
လေယာဉ်ပျံ
▁sh
▁လမ်းမတော်
▁အချိန်ပြည့်
▁စဉ့်
▁၁၇၃၂
ဖြစ်လေရာ
▁ရက်စွဲပါ
▁ဘိသိက်
ခဲ့စဉ်
▁၂၀၈၅
▁ကျိန်း
▁ထိုသူ၏
အနီ
ခင်းကျင်း
ကွာခြား
▁ဗုံ
တစ်ရပ်အဖြစ်
သွားပြီးလျှင်
▁ဒရယ်
၇ဝ
▁ကမ်းပါး
rat
▁မျှတ
▁ကြားသိ
▁လွတ်ကင်း
ကောင်စီကို
▁နစ်နာ
▁၂၁၀၃
ဒ္ဓိ
ချုပ်ချယ်
▁နဂ
pp
▁English
▁ပုံစံအားဖြင့်
▁၂၀၉၆
ဘက်ရှိ
▁အဖြစ်မှ
ချခဲ့သည်။
▁လမ်းမ
ပင်ရင်း
သိုလှောင်
rin
မျိုးစု
အဖြစ်နှင့်
▁ရရှိခဲ့သော
▁လုပ်ဆောင်နိုင်
▁ခုခံကာကွယ်
▁ပုဇွန်
SP
▁ခွန်အား
ထုတ်လုပ်ရန်
▁၂၀၈၉
တိုးတက်ရေး
▁မတင်
နန္ဒာ
▁သစ္စ
▁ဥရောပနှင့်
ထားသကဲ့သို့
▁ကုန်းပြင်မြင့်
▁စီမံကိန်းကို
▁ခန့်ရှိ
တောင်တန်းဒေသ
▁ဂျူးလူမျိုး
ဆိုခြင်း
ပေးလျှင်
တစ်ခုလုံး၏
▁ပညာရေး၊
▁ပြိုင်ပွဲများ
▁6
စစ်ပွဲတွင်
▁အနည်း
▁ပန်းကန်
▁၂၀၈၀
she
bal
▁အိုဆာကာခရိုင်
▁မရှိမဖြစ်
တိဿ
▁စစ်ဆေးစီရင်
▁မြေးတော်
▁ဘီးလင်း
များသောအားဖြင့်
ဆွဲအား
လေးလုံး
ခမ်
▁ပြည်သူ့စစ်
ယူဇနာ
Myanmar
gra
ဆိုင်ရွာ
▁အောင်ပန်း
ပြန်လာ
ပုန်
အမှုဆောင်
သတင်းအချက်အလက်
▁ကျောက်ပြား
အကျိုးပြု
ပိုင်းနှင့်
▁ဥများကို
▁ကိုင်ဆောင်
အပိုင်
tes
▁စစ်ကိုင်းမင်း
ဆယ့်ငါး
ဘွဲ့တံဆိပ်တော်
ဖြစ်ပြီးလျှင်
▁ကျောရိုး
▁သီတင်း
▁အနီးအနား
ဆိုသူသည်
ပုံတို့ကို
fe
▁မရှိခြင်း
▁ရှင်ပြု
▁ပဲရစ်
▁ဓညဝတီ
အနီးသို့
▁Center
▁Development
原
▁လွန်ကဲ
ဝှ
▁သူများ
▁အကယ်
▁ကံသာ
▁ပြန့်နှံ့
▁ရဲတပ်ဖွဲ့
▁မြေငလျင်
▁အပါအဝင်ဖြစ်သည်။
▁ကိုလံဘို
▁နောက်တစ်ကြိမ်
သူတစ်ယောက်
▁ပြည်ကြီး
နှစ်မျိုးရှိသည်။
▁၁၇၁၀
▁ရစ်ပတ်
▁တောင်ကုန်းများ
ဗွီ
ဂုဏ
အာဏာပိုင်များ
ထိစပ်
▁ပဒုမ
ဟုံ
▁မစင်
▁ယခုအချိန်တွင်
▁၂၀၆၂
AD
▁ပေကျင်း
▁စစ်ပြေး
မှူ
▁ယူဆကြ
▁ဇာတ်ကားများ
▁ဆန်တက်
▁ဇေ
တွေအတွက်
▁လုယက်
ute
▁နေဝင်
▁ကွန်မြူနစ်များ
▁အရာဝတ္ထုများ
▁၁၃၈၁
wing
တော့ပဲ
ယူသော
▁အစိတ်
တီးကျေးရွာအုပ်စု
ခြင်းမရှိခဲ့ပေ။
မိဘများ
▁နှစ်ဆ
▁အချို
ပျောက်ကွယ်
▁အကြို
နီးကပ်
ပေးလျက်ရှိသည်။
ပေါ်မူတည်
ကာဗွန်
လေသည်
▁၂၁၈၂
▁م
lam
တရားရုံးက
▁အကျိုးကို
လီယန်
▁စာမေးပွဲကို
သန်းခေါင်စာရင်း
ထည့်သွင်းစဉ်းစား
▁တစ်နေရာမှ
ခံထားရ
▁Shenzhen
▁ကိုယ်ကို
▁ပီတိ
▁၂၁၂၉
▁ရမ်
▁မယုံကြည်
▁ခွဲခြား၍
▁သွေးကြော
ယာဉ်များ
ပညာဖြင့်
လွတ်လပ်ခွင့်
▁စစ်တောင်း
ရောဂါကို
အချုပ်
လစ်လမ်းစဉ်ပါတီ
အဆင့်ဖြင့်
ကိုယ့်
လာတဲ့
မြင့်မြင့်
▁ဖုန
▁နေ၏။
ရှော်
တွင်သာမက
အားကောင်း
ဝိသေသ
▁ကရိယာ
၍လည်းကောင်း
နှမ်း
မာလ
AI
▁သန္တာ
သုံးသည်။
▁ဘုရင်က
ထွက်ပေါ်လာ
ယပ်စ်
ကျည်
▁အမည်ပေးခဲ့သည်။
ဂျော
ရှစ်ဆယ်
အိုင်း
▁ရွှေပန်း
▁မှတ်တိုင်
တြာ
အမျိုးသားပြတိုက်
▁ဟင်းလျာ
▁ခန့်သာ
တစ်သန်း
▁ဤနည်း
သာဖြစ်
အကွက်
▁လုံးပတ်
▁ကိုသိန်းဖေ
ကြတော့သည်။
▁ဖော
ာယ
▁နော
▁တွေ့နိုင်
▁ပြာသာဒ်
▁အမ်း
▁ရှောင်ရှား
▁အင်္ဂလန်၊
round
▁မင်းတို့
အရေအတွက်မှာ
▁၁၇၁၁
▁ပေါက်ကုန်း
GS
▁ပေါက်လာ
▁ကီလိုဂရမ်
▁လွိုင်မွေ
▁ကြောက်လန့်
wan
ization
▁ထီးဖြူ
▁ယမ်းမိုင်
လျင်မြန်စွာ
▁Kale
ကြိုင်ရွာ
over
▁ပထမနှစ်
နေပေသည်။
မရနိုင်
ဖြင့်၎င်း၊
▁အိုးစည်
▁ရွေးချယ်ခဲ့သည်။
▁တွဲဘက်
Cl
▁၂၀၆၃
ပြိုကျ
စတိတ်
ဆုံရွာ
▁ဗို
တိုက်ဖျက်ရေး
ပါရှိပြီး
▁သံကြိုး
အမှား
၌၎င်း၊
▁ဂျိန်း
▁လျော်
▁၂၀၂၈
▁ဆူဒန်
▁၁၃၂၆
ဂေဟာ
ခန်း၊
ဆိုင်းရွာ
သော်ကား
▁ပန်းတော
ဂွေးချို
ကောင်းသည့်
▁အဓိပတိ
▁သစ္စာဖောက်
▁အစရှိ
▁မဲခေါင်မြစ်
FA
နီရွာ
▁Stone
ပါမူ
ရုပ်၊
ချောင်းဝ
ပေါက်တော
▁အယုဒ္ဓယ
ient
▁ညောင်ရမ်း
၁၉၆၂
▁ထိုနည်း
▁ရုံးတော
တန်းကို
▁ဝမ်းသာ
File
▁မင်းရွာ
▁ဆည်ကြီး
▁ရောဂါလက္ခဏာ
ချစ်သူ
▁၂၁၈၈
နိုင်သည်၊
ဘဝနှင့်
စေရေးအတွက်
▁ညောင်ဦး
ပညာရေးဝန်ကြီးဌာန
သန်စွမ်း
▁အနောက်ဘက်သို့
▁ကြော်
▁သက်ဝင်
ယော့
ဖွင့်ဆို
အမှုန်
▁မြင်ကွန်း
အောင်လံ
မဟုတ်ချေ။
▁ထိုရေ
▁အိမ်ရာ
ပင်မ
▁နှောင်း
▁တည်ဆောက်ထားသော
တိုက်ခိုက်ရန်
▁ထိန်းသိမ်းရန်
cre
သောသူသည်
▁စွဲကပ်
ဂိုဏ်းချုပ်
▁၂၁၁၁
▁ဓာတ်တော်များကို
▁တုပ်ကွေး
▁ခေါ်ကြ
▁၂၁၃၄
ထမ်းရွက်
ဖင်း
သံလိုက်
ဖြစ်ခဲ့သော
▁အထပ်ထပ်
အေးချမ်း
ပဒေသာ
ပထဝီ
လူကြိုက်များ
▁အံ့ဩဖွယ်
များအားလုံးကို
▁ထုတ်ဝေသည့်
ရိုးရိုး
ပထမဦးဆုံး
ဇွဲ
▁ခြေလျင်တပ်ရင်း
▁နိုင်းမြစ်
▁တစိတ်တပိုင်း
ဂနိုင်
▁မတိုင်မီက
▁ရသေ့ကြီး
ဆန်းကြယ်
▁ယက်
ခဲ့၏
စစ်သည်များ
▁နီလာ
ခံရ၍
အသင်းနှင့်
သေးသော်လည်း
▁သတို့သမီး
▁ထိရောက်
▁ရေးသားထုတ်ဝေ
ဘုတ်ရွာ
ဗြဲ
နိုင်မည်ဖြစ်သည်။
အလေး
▁ရုပ်ပုံများ
▁ကန်တစ်ခု
▁ထိန်ပင်
▁အနောက်သို့
▁ဦးမြတ်
▁သိမ်းပိုက်လိုက်
р
′
،
ပါဌ်
▁အထွတ်အမြတ်
▁ပွေး
▁အကြွင်းမဲ့
တစ်ခုဖြစ်၍
▁ဆီးနှင်း
▁ဘတ်ဖတ်
▁Kyar
▁ဂရိဒဏ္ဍာရီ
▁မွန်လူမျိုး
ရက်နေ့အထိ
အောက်ဆိုက်
▁ဒေါ်တင်
ယခင်က
ဖွဲ့စည်းမှု
▁အင်းတော်
▁ကျော်ဖြတ်
▁ထုတ်လုပ်သူ
ဆင်နွဲ
ဒရာမာ
▁၂၁၃၆
ပုန်ကန်မှု
▁ဝက်သား
သည်နောက်
ပွေး
မြို့နယ်ခွဲ
▁၂၀၃၁
▁ပြုပြင်ပေး
▁ယောင်လင်း
MB
ture
ရွတ်ဆို
Bo
▁အော်ပရာ
ဇင်ကျေးရွာအုပ်စု
ပြိုင်း
စေရန်နှင့်
▁သဘာဝအတိုင်း
lor
ကျောင်းကြီး
arm
လမ်းများ
▁ရန်ကုန်မှ
ထက်မပိုသော
ပက်လက်
▁နမ့်ပန်
အသင်းတွင်
▁တည်ဆောက်ပုံ
▁မိသားစုဘဝ
ချုံး
▁Loi
▁Hot
တိုက်ခတ်
သုမန
ခဲ့ခြင်းဖြစ်ပြီး
▁မေတ္တာစာ
▁(6)
▁မျိုးရင်းတွင်
▁အသေး
▁သွားလာနိုင်
▁ယင်းသို့ဖြင့်
▁မကြီး
▁၁၆၅၄
▁၂၀၄၁
ကင်းသော
ဝတ္ထုကို
အမွေ
▁ဒုတိယဗိုလ်ချုပ်
▁ကျောက်သား
ပင်စည်
စာတန်း
▁၁၆၈၁
ခင်ကျေးရွာအုပ်စု
▁Park
▁အထွတ်
တောင်းဆိုခဲ့သည်။
ခြားရေးဝန်ကြီး
▁ဒေတာ
ရှိသေးသည်။
▁သင်တန်းသား
▁မည်သို့ပင်ဆိုစေ
▁ရန်ကုန်မြို့မှ
▁၆၁၀
▁အေးမြ
▁ကျုပ်
▁၂၁၁၄
▁စစ်တပ်မှ
▁ထုတ်လုပ်သည့်
▁ထင်ပေါ်
▁ပေါ်ပေါက်လာသည်။
မှူးမတ်
ပေးမည်ဟု
ပင်တည်း။
▁ရွှင်
▁ပြသထားသည်။
▁အိုင်း
▁အရင်းအမြစ်များ
ရှင်မ
ကွန်ဖရင့်
အာဟာရ
အောက်ခြေ
တောင့်တင်း
▁ပတ်လမ်း
ပျောက်ကင်း
မြှ
နှစ်ထပ်
မြင့်သည်။
▁၁၇၀၃
▁အချဉ်
▁အလုပ်လုပ်ကိုင်
▁ရှမ်းလူမျိုး
▁ဗို့အား
ထုတ်လုပ်သည့်
စတို
စစ်သည်တော်
▁ရည်ရွယ်သည်။
▁စတူဒီယို
တဖက်
▁ထိုအရာ
ဒြဗ်
▁တည်ရှိခဲ့
င်ရိုးညွှန်းတမ်း
▁blues
▁ဒိုင်အာခီ
▁လူ့လောက
မြိုင်ရွာ
သဲဖြူ
▁စစ်တကောင်း
ဆေးရည်
▁ဖြစ်ပေါ်ခဲ့သည်။
FC
မင်းထင်
လက
▁ဖြစ်ရပ်များ
▁စစ်ပညာ
▁work
တိုင်တိုင်
တစ်သက်တာ
▁ဒဿမ
ဟူသောအမည်
▁သမပိုင်း
လစာ
▁Tra
▁လျို
▁ထိုအကြောင်း
lli
ကြဘဲ
သားများ၏
ကုသိုလ်ကောင်းမှု
မဲပေး
▁Green
▁၂၀၈၇
ကျသွား
▁တောထွက်
▁တရားဓမ္မ
▁သခင်နု
အောင်မြင်ခဲ့ပြီး
▁နာမ
▁မြောက်များစွာ
မြန်တပ်မဌာနချုပ်
ငယ်ကလေးများ
နှင့်ပြည့်စုံ
▁ကွန်ဖရင့်
ခပ်သိမ်း
ရေကြည်
▁၂၁၀၄
အလိုရှိ
ကျူးကျော်မှု
▁ကျေးဇူးပြု
လည်းပါဝင်သည်။
ဥပဒေပြုလွှတ်တော်
ဖလှယ်
ကိုးကွယ်မှု
▁ပေါင်းထည့်
ဂွတ်
OC
မာတင်
ရောင်၊
ှိ
▁၃၉၂
မိဿ
▁ကော့က
တွေကတော့
▁လာရောက်လည်ပတ်
▁သုဒ္ဓ
စဉ်အခါက
▁နှစ်မှ
▁သနပ်
လျောင်း
▁တိုတောင်း
▁ဗွီဒီယို
▁၂၀၈၂
▁မြတ်စွာဘုရားထံ
ယောက်အနက်
▁မကြီးကုန်း
▁ကျွန်ုပ်တို့သည်
▁ဆက်နွယ်မှု
သီချင်းများကို
70
ထွက်ခြင်း
▁စာတမ်းများ
နွဲ့ရွာ
▁ဘန့်ဘွေးကုန်း
▁ဟိမဝန္တာတောင်
အတ္တ
ဝမ်းမြောက်
မှဆင်းသက်
▁တစ်နေရာသို့
ပရက်
▁တည်ဆောက်ခဲ့ပြီး
မတည်
▁မိုးနဲ
▁သူလျှို
မှုတွေ
ရာဌာန
▁ရောက်ရှိနေ
တတ်၏၊
မယ
▁မန်ပြိန်း
ဆည်းပူး
▁နိုင်ငံဖြစ်သည်။
ခဲ့ပါ
▁ငု
ဓန
▁ပိရမစ်
▁ပြုကြသည်။
အောင်လုပ်
ခန့်ရှိ၍
၇၈၂
▁၁၇၃၄
ပေါင်းများစွာသော
ကာကွယ်ရေးဝန်ကြီး
့စွယ်စုံကျမ်း
ပတ္တိ
▁မာကျော
▁စေတီတော်သည်
▁ဆွ
၂၀၀၅
လတွင်
▁တည်ခဲ့သည်။
နေသကဲ့သို့
ဘုရင့်နိုင်ငံ
▁လတ်
ထန်းပင်
ပဿ
▁ဦးဖေ
ဘာဝနာ
ရင်းရွာ
ကံရွာ
အိချိ
နိုင်သောနေရာများ
▁တိုက်ခိုက်ခြင်း
▁စစ်တုရင်
▁Kin
▁ပျဉ်း
စာပေနှင့်
ဆွဲဆောင်
မြော်
ချူ
ချဲ
မတန်
▁ပုဆိုး
ပရဝုဏ်
▁islands
▁Hpyu
▁မိုင်းလွေ
▁Japanese
▁ကိုယ်အလေးချိန်
▁စိမ်
ငြိမ်သက်
တစ်ထပ်
sing
▁Cra
key
ံ။
▁တောင်ရိုး
ထုံးစံ
▁လေးချိုး
▁ဦးဥတ္တမ
ဘွဲ
ကြီးများက
▁ပရိနိဗ္ဗာန်
▁ဆက်စပ်နေ
▁ဒေဝါ
▁မင်းတပ်
ပင်ဆိပ်ရွာ
▁၂၁၂၇
▁၂၁၅၅
▁ရွှေနန်းတော်
ချေားဘူတာ
▁ယောဂီ
ဗရီ
တောင်ကြားလမ်း
စာပေဆု
▁စေခိုင်း
▁အခဲ
gue
ဝန်းကျင်တွင်
တထောင်
သောင်းကျန်းမှု
▁ရေငန်
စေသည်
တဲလ်
▁ဆက်စပ်မှု
▁သတ္တုများ
▁သံယောဇဉ်
စကေး
▁ပေးဆောင်
ရသော်
▁အမေရိကန်သမ္မတ
▁၂၂၀၀
ို့
ပြခြင်း
မှတ်ချက်
▁Act
▁Open
▁ဗဲ
ush
▁၂၁၉၉
နေစဉ်တွင်
ွန့်
▁ငါးမျိုး
၁၉၆၅
▁ပြိုင်ပွဲဝင်
▁ညစ်ညမ်း
▁၂၁၀၇
▁မိဘများက
▁ဆင်ဖြူကျွန်း
ဆိုဒ်များ
များပါရှိသည်။
▁၄၆၆
▁ဖြစ်စေနိုင်သည်။
▁ကြယ်များ
ရောက်ပြီး
▁ခန့်ကို
သိသော
ဘုရင့်
နံဘေး
pat
▁လျှောက်လွှာ
▁အမွေဆက်ခံ
ဆို့
ဖြန့်ဖြူး
▁ထိုသူတို့
▁ပြည်ပနိုင်ငံ
▁၁၂၅
▁သီကုံး
▁၂၁၆၆
အရင်
ကျော်ဇော
ခြောက်ပါး
▁အင်းဝသို့
▁ထောက်ပံ့မှု
▁ယွန်းထည်
illa
တစ်သောင်း
ထီးနန်း
ဖော်ကျူး
▁ရှင်စောပု
ထုလုပ်
စေလျက်
ကုန်းမြင့်
ခြင်းသို့
ည့်
အပေါက်
မိုနို
▁ဖက်ရှင်
▁တရားမျှတ
▁အဓိပ္ပာယ်ရ
▁ဤဥပဒေပါ
▁ဆေးရုံကြီး
အသုံးပြုနိုင်ရန်
ဒိုင်းနက်
ဝီလျံ
▁တေးရေး
အစည်း
▁ထွေ
▁ma
▁ကုန်းတန်း
▁မောင့်
ရှည်ရှည်
ဆော့ဖ်ဝဲ
ရွှေဘို
▁၂၀၇၄
▁မြိတ်မြို့
စုကို
မြင်သာ
▁အက်ဒွပ်
ရဟန္တာ
▁သုံးယောက်
▁အင်းလေး
ဒေသနာ
ဝတ်ပြု
ဦးဆောင်သော
ကြံ့
ရေဒီယို
▁စာဖြူစုရွာ
အရပ်ကို
ပုသိမ်
စာ၊
သန်းပေါင်း
▁၇၇၆
လက္ခဏ
▁ထိုရဟန်းသည်
▁မီးပြတိုက်
မျိုးစုံကို
ကရား
များကိုပင်
▁ခွ
▁သိလို
သဲကျေးရွာအုပ်စု
ဟေ့
▁Earth
▁တိုက်နယ်ဆေးရုံ
▁Mrauk
▁ဆိုးရော့စ်
▁တစ်ခုစီ
ရှိုင်းယား
ကြောင်းတွေ့ရသည်။
ရလေ
▁program
အဖွဲ့ကြီး
▁၂၁၃၅
▁သံတွဲ
▁၂၁၂၂
▁Christian
▁ပရိဘောဂ
ဖို့ဒ်
▁ဆေးကုသ
▁နည်းပညာများ
စုန်း
▁စတင်မိတ်ဆက်
တစ်ဦးဖြစ်သည့်
ဆိမ့်
ခရိုင်ရှိ
▁နဂါးမင်း
▁ပြင်း
▁စစ်တပ်များ
ခုနှစ်၌
▁Je
ရှိပြီးလျှင်
▁အရှင်မြတ်
ria
▁Air
ဖို့လို
▁တို့အတွက်
▁မိုင်းစံ
ဗဲ့
▁ကြက်တူရွေး
▁into
▁၂၀၆၅
တစ်သိန်း
▁လေးနက်
၏သမီး
▁လေထဲတွင်
Car
လောင်ကျွမ်း
ယွင်း
▁နားမွန်
▁ခရီးသည်များ
▁မိုဘိုင်း
ဆုပေးပွဲ
▁ဖြစ်တတ်
▁၂၀၂၄
စာမူ
▁မခင်
ကုန်ကူး
▁သဘောတူစာချုပ်
ကတိုး
သူဟု
ပညာနှင့်
▁ရှေးကျသော
▁anti
▁ဘရောက်ဆာ
▁ရေသည်
ဂလ
ကြပြီး၊
ဒရယ်
မိပါက
▁မလုံလောက်
▁သရေ
အတော်ကြာ
ခဲ့ဘူးသည်။
▁၅၅၀
▁မျှော
▁ပညာရေးနှင့်
hen
▁ပေါက်ရောက်သော
ဝါစာ
၁၉၇၂
DC
နေရသည့်
▁တစ်ဦးလျှင်
Ha
တိုးပွား
xi
▁ရလေသည်။
တွင်ကျယ်
▁ဆယ်နှစ်
မြို့ပြ
သောစကား
▁ချီးမြှင့်သော
▁သခင်အောင်ဆန်း
နေပုံ
▁West
▁နှစ်လ
RT
▁တံဆိပ်တော်
▁ပြုစုခဲ့သည်။
▁ရွှေငွေ
၃၀၈
အလျှောက်
▁ခေါ်ဆိုကြ
တိ၊
▁တရားသူကြီးချုပ်
▁ဝင်ရိုးစွန်း
▁ထုတ်လုပ်ခဲ့သည်။
မွာလ်
တောင်ပိုင်း၊
ရှေ့နေချုပ်
▁ဟင်္သာတမြို့
ထိမှန်
▁၂၂၁၇
ကျွန်းသို့
ရှည်ကြီး
ပါပဲ
သာစည်
ဗရာ
▁ခုနစ်ရက်
▁သာဝက
လှပေ။
▁တည်ဆောက်ခြင်း
▁အဇာတသတ်မင်း
ဂျိမ်း
အခေါ်အဝေါ်
=152
▁မနေ
▁Soyuz
▁ဦးသိန်း
▁စလေ
တေဇ
သတင်းများ
▁စာပေလောက
ရေးသားခြင်း
ပြောသော
ح
▁တိတ်တဆိတ်
▁မေရိကန်
▁ကာဂျစ္စတန်
▁မက်ဆာချူးဆက်
島
ကောင်းကောင်း
▁အမှန်စင်စစ်
▁စီအိုင်အေ
▁အပျော်
self
▁ပြည်တွင်းပြည်ပ
▁ဗိုလ်ရန်အောင်
နီးပါးမျှ
▁ဇာတ်သဘင်
ကိုင်းရှိုင်း
▁Namh
ဆုတ်ခွာ
▁ခွဲခြားထား
▁သိပ်မ
ခြံရွာ
="152
ခစား
="154
မင်းတရားကြီး၏
▁သက္ကယ်ပြင်
▁မြေစေး
▁ဂုံမင်းကွင်း
▁များလည်း
▁တပ်ဆင်ထားသည်။
သပြု
▁တီထွင်သူ
ထွမ်း
ဖြစ်စေသည်။
ထိပ်ဖျား
▁စေတီပုထိုး
aut
ဟင်းလျာ
▁Ste
သောနေ့
▁ဟပ်
▁စတင်ရေးသား
ပုလင်း
▁တောကျောင်း
▁မန်ချက်စတာ
စနစ်နှင့်
▁၂၀၃၈
▁ဇရပ်လှ
ဥပဒေများ
တာပဲ။
တစ်ခုအတွင်း
▁ပေပေါင်း
ခဲ့ကြပေ။
ဝင်များ
ဓာတ်များ
▁အလွမ်း
▁လွဲ၍
▁ကိုယ်တော်
တည်ထောင်သူ
▁၂၂၁၂
စနစ်၏
တလ
သည့်နေ့
▁ဆရာဦး
▁ပေးခဲ့
ကုမာရ
lus
▁စနစ်များ
မြေး
Ga
လိုက်ပါသည်။
stan
▁ထိုနိုင်ငံ
မြေ့
အတန်း
ထုတ်ပြန်ချက်
▁ဝတ်ဆင်ကြသည်။
▁သားဖြစ်သည်။
လိုင်းများ
▁သုံးစွဲသူ
▁ချင်းလူမျိုး
▁မဇ္ဈိမ
▁၂၁၅၆
ဇဝ
▁ခုတ်မောင်း
တပ်များနှင့်
▁လူစု
၉ဝ
လိုက်စား
▁မယူ
▁ထိန်းချုပ်မှု
ပေရာ
မိဖုရားကြီး
▁အားကစားပွဲ
အဖု
▁Ben
▁အမေရိကန်နှင့်
▁ကမ္ဘာ့နိုင်ငံ
▁၂၀၅၈
mission
▁အသက်ကြီး
▁နိုဘယ်
တစ်မျိုးမျိုး
ပေါက်စ
ကျောင်းတော်ကြီး
▁ဗဟိုချက်
▁အစွယ်
အခြေအနေများ
များရရှိ
မုံ့
တစ်ဦးအား
ဖြစ်တယ်
အိမ်များ
▁ကမ္ဘာလှည့်ခရီး
ထုတ်ဝေသော
ဆိုပါက
၁၅၀
ဖြား
▁လယ်မြေ
▁မဂူ
သံသရာ
ဖျ
▁စစ်မျက်နှာ
▁ရွာဟောင်း
▁လွတ်လပ်ရေးကို
▁၂၁၉၇
▁အဆုံးအမ
ext
သုံးဆောင်
လေ့မရှိ
Or
ထန်ကျေးရွာအုပ်စု
▁ခရာ
▁ယုံကြည်ချက်
▁၁၆၆၇
မွှေ
ရော၊
တေးသံ
အက်တလီ
▁၃၆၅
▁ပေးလိုက်
▁သူတို့က
မော်လမြိုင်
▁စစ်သားများ
ဗဟုသုတ
ရှုတ်ချ
▁စွပ်
▁အနိုင်ရခဲ့သည်။
ပျော်ဝင်
ဒေးဗစ်
မခံရ
စောင့်ရှောက်ရန်
တေးဂီတ
▁စခန်းချ
▁အမည်စာရင်း
▁စရိုက်
စံပြ
Dr
▁ဘယ်လ်ဂျီယမ်
=126
ခင်ဗျား
ပူဇကထေရ်
နှုံး
▁ဖောင်တော်
အားလပ်ရက်
အချက်ကို
ဝတ္ထုတို
▁လူမ
▁အစွမ်းကုန်
ခြင်းခံရသည့်
▁အဆင်သင့်
မကိုဋ်
ယိုး
▁မန်ဆန်
ချိန်အထိ
▁နွေဦး
ory
▁အချိန်မှစ၍
="126
၂၀၀၇
▁ကုန်ကြမ်း
နေထိုင်ခြင်း
▁သက်ကယ်
▁ထုံးတမ်းစဉ်လာ
▁လက်နက်ခဲယမ်း
▁ငြိမ်သက်
▁ခြောက်နှစ်
▁ဒုတိယအကြီးဆုံး
▁ကဝိ
ဋ္ဌိ
▁ထိုအတောအတွင်း
▁တံခွန်
▁ပြုသည်။
▁ဘေဘီလုံ
စီးဝင်
▁ဆီဇာ
▁ကျယ်ပြန့်လာ
ထိုက်သူ
▁တည်ထောင်သည်။
၇၀၀
အချိန်ကာလ
များအကြောင်းကို
ဒယ
ဝုဒ်
▁ကိုးကွယ်ရာ
▁ဂန္ဒီ
lia
PS
▁အစရှိသည်တို့
▁ဟိုနောင်
အားကစားနည်း
တော်ကြီးကို
▁ခြေရာခံ
ဒေသမှာ
ကျန
မအောင်မြင်ခဲ့ပေ။
▁တမင်
ဟုလည်းကောင်း၊
▁ကျင့်ဝတ်
▁ရှိနေသော
▁Hta
▁အဲလ
▁အင်္ဂလန်သို့
▁အချို့နေရာများ
▁ထိန်းချုပ်ထား
▁ကုလ
▁ဌာနေ
▁အိမ်ယာ
▁၅၄၆
လ်တန်
သင့်သည့်
ju
အမြစ်
▁၁၀၆
▁သတ္တဝါတို့
▁နိုင်ငံတော်မှ
▁တောင့်တ
အဘိညာ
▁Sky
▁၃၃၃
▁ကျော်စော
mic
▁၁၃၆
▁ဂီတပညာ
လေရာ၊
▁၂၁၃၉
▁ရွာသာကုန်း
မွေးဝမ်းကျောင်း
▁၂၀၁၉ခုနှစ်
နိုင်သကဲ့သို့
ဖြစ်ကြ
လိုပင်
▁စာရေးဆရာကြီး
▁အကူ
ဇဲ
ရင်းမြစ်များ
▁မှန်မှန်
▁၃ဝဝဝ
▁သီချင်းဆို
စလီ
ew
col
▁သက်မွေး
▁ရောင်းချခြင်း
လိုက်နာကျင့်သုံး
▁တောင်စောင်း
နိုမြို့
▁ကံကုန်
သရက်ပင်
ရှိခဲ့သော
bel
▁သံဃာ့
=109
▁၈၈၆
▁လေ့လာတွေ့ရှိ
▁ကိုယ်တွင်း
▁၂၁၁၅
▁ငရုတ်
▁ရေအေး
▁သင်၏
မှုအခြေအနေ
လာကြလေသည်။
စခမ်း
▁ပုတ်
မက္ကဆီကိုနိုင်ငံ
မြတ်စွာ
ဆူးတောင်
bor
▁ရှောက်ချောင်း
▁၂၆၀
▁တူးဖော်ရရှိ
▁ကလေးငယ်များ
ပြန်သဖြင့်
ခေါင်းလောင်းကြီး
ْ
▁နာတာရှည်
▁မဖြစ်မနေ
▁ရွက်ညှာ
▁ဘဝသစ်
▁နော်မန်
ခင်ပွန်း
▁မုန်
၁၉၇၃
▁မီးခိုးရောင်
ုံး
▁မိုင်းယွန်း
▁၅၆၈
▁တနည်း
လှိမ့်
စိုက်ပျိုးခြင်း
▁မိဿလင်
ဖော်ဆောင်
▁သစ်မွှေး
▁အသွားအလာ
▁အားကောင်း
လေထု
နိုင်ငံ၌
အဆက်ဆက်
ပုံအခြေခံဥပဒေအရ
အောင်ဆန်းသည်
▁၂၁၄၈
တတ်ခြင်း
ဂီး
▁အဓိကကျသော
▁ထောက်ကြံ့
▁ဆွဲငင်
▁၂၁၁၃
လာမှု
▁အရပ်အခေါ်
▁၂၁၆၄
▁ဖြောင့်မတ်
လိုက်ကြ
မကျန်
ဂိုင်
▁ဆိုးကျိုး
▁ရောက်အောင်
နည်းနှင့်
▁ဇမ္ဗူ
၅ဝဝ
▁စက္ခု
▁လျှောက်ထားချက်
▁Va
တို့၌လည်း
▁အဆိုပြုချက်
ဂဝ
▁တောင်ဘက်ပိုင်း
များပြုလုပ်
▁၂၁၀၂
အနက်မှ
pen
▁j
ဩဘာ
wet
▁အရုဏ်
ဖရိ
ဆက်သွယ်မှု
ating
lone
မင်္ဂလ
▁တောက်ပသော
▁၂၀၅၆
လှသည်
ရောက်လျှင်
တပုဒ်
▁စက်ရုပ်
▁မြဲ
▁အပေါ်ပိုင်း
ashio
▁နေ့လယ်
▁စာပေကျမ်းဂန်
နှစ်စင်း
တို့အနက်
ဖိုင်မှ
သမ္ဘာ
တော့သဖြင့်
▁စက်ဘီး
ကလိ
မတတ်
▁ဘဲဥပုံ
▁ချေး
▁ရက်စွဲ
▁၂၀၄၅
▁ပါရှန်း
▁အိန္ဒိယမှ
ပေါ်ထွန်း
▁ထိန်းသိမ်းခြင်း
▁တစ်ဦးအဖြစ်
ရောက်ရှိခဲ့သည်။
မြာ
▁ဇန်
=49
="109
▁အသွင်ပြောင်း
အတိ
▁လူဦး
တည်ဆောက်ခြင်း
ထည်များ
အလုပ်သမားများ
▁ကလောင်အမည်ဖြင့်
▁ဖမ်းဆီးခြင်း
▁စီရင်သည်။
▁ရာဇဂြိုဟ်
နိသျ
▁ငရုတ်သီး
▁ကြင်
ငှာ
လာပြန်သည်။
▁ဒိန်း
▁ကျောက်ပုံ
▁လယ်သမားများ
ရွိုင်
တို့ရှိ
သမိုင်းကြောင်းအရ
▁မခံနိုင်
▁ခုနစ်နှစ်
ရွ
▁နှိပ်
▁အချိန်ပိုင်း
ခံစားခွင့်
ရှိသလို
ချို့တဲ့
များအနက်မှ
မှုံ
▁ခြေရာ
နဉ္စ
သေး။
ဒီယာ
စပ်ကြား
ရွာကြီးရွာ
ပြဋ္ဌာန်းချက်
ပြုမှု
▁ကျဉ်းမြောင်း
▁သူမအား
ရက္ခ
ထုထည်
အချိန်ထိ
လတ္တီတွဒ်
▁ကွဲပြားမှု
▁Corporation
▁ဆန်ဖရန်စစ္စကို
▁တစ်ပြိုင်တည်း
▁ပနားမား
ī
▁ဂရိတ်
▁ဘီအိုစီ
=125
▁crew
▁Society
ြဖစ်
▁ထိခိုက်မှု
▁ဘုရားသုံးဆူ
ကုန်ကျစရိတ်
▁အောက်စဖို့ဒ်
IF
▁အိုဘားမား
အနာဂတ်
▁အောက်မြန်မာပြည်
ကြမ္မာ
▁ထိုအချက်
ingyan
▁နှစ်မျိုးစလုံး
ဂျု
သိပ်သည်း
▁စွမ်းဆောင်နိုင်
စကြာဝဠာ
ပေးခဲ့ကြသည်။
▁မူကွဲ
စိန့်
ဆေးကို
အဖွဲ့တစ်ဖွဲ့
▁ရာဘာ
နေရခြင်း
▁လက်သမား
="125
▁နတ်ကွန်း
ဒေသတို့တွင်
▁မန်ကောင်း
ဝင်လာ
▁#
▁၃၃၀
ကြပုံ
နယ
▁သုံးပုံ
▁နရ
▁ကူကီးလူမျိုး
▁အမျိုးသားစာပေဆု
▁ကတ်ဖ
▁ဆံထုံး
▁၅၈၈
ဆည်း
ကောင်းမွန်အောင်
ခဲ့ဖူးသော
▁မင်းသားကြီး
စွန့်ပစ်
▁တရားမျှတမှု
စာရင်းကို
▁ကြွင်းကျန်
မြို့အနီးတွင်
▁ရုန်း
▁ဖရန်
ပါရဂူဘွဲ့
▁ချဲ့
▁သံစဉ်
ကျေနပ်
တွား
သတ္တုတွင်း
ခြင်းကိုလည်း
▁Col
▁ကဏန်း
အနေဖြင့်လည်း
▁သာဂရ
အသီးသီးတွင်
သေးသေး
တွက်နည်း
▁စစ်ကူ
▁May
အသုံးပြုရန်
▁ဗော်
▁တေးရေးဆရာ
ပန်းချီဆရာ
ဘွဲ့များ
▁ဂရိတို့
▁မာရှယ်
▁ကွယ်လွန်လေသည်။
အားလျော်စွာ
▁ဂန့်ဂေါ
တစ်နေ့
▁စီမံချက်
▁This
▁စံနှုန်း
ဆိုရသော်
ထူထဲ
▁ရည်ညွှန်းသည်။
လပြည့်ကျော်
▁ဒုတိယဝန်ကြီး
▁တွေးခေါ်
▁သီတင်းသုံးနေ
လမ်းပေါ်တွင်
နိုင်သလို
▁ပလိပ်
စဉ်ကပင်
ded
▁၂၀၉၉
▁ရိုဟင်ဂျာ
ရှိသမျှ
ရပ်တွင်
▁မိနမိ
ဠိ
ရေးနည်း
မဂ္ဂ
▁ပိုင်ဆိုင်သည်။
တစ်ရပ်မှာ
▁ပေးနိုင်
69
ပတ္တ
ကာလကို
▁ဗမာပြည်ကွန်မြူ
ခဲ့ပြီးဖြစ်သည်။
▁သည်း
▁ခင်မင်
▁လိမ္မော်
▁အငူ
ထွက်ကာ
▁တန်ခူးလ
▁ကျုပ်တို့
ပန်းများ
▁ရိုက်ခတ်
ဝါသ
ပေးဖို့
▁ပမာ
▁အရှေ့ဘက်ကမ်း
▁IM
▁နေရာအနှံ့အပြား
သွားခဲ့
တွေ့ရသော
tila
▁အင်္ဂလိပ်တို့က
ပြည်၌
▁ကျွန်မတို့
▁မရှိသေး
ထိန်းချုပ်မှု
▁အဋ္ဌ
▁၅၄၀
မျိုးနွယ်ဝင်
▁ကုမ္ပဏီသည်
မှုများလည်း
ောက်
▁ပံ့ပိုး
="90
▁ပညာသည်
ရိုးမ
အမျိုးပေါင်း
▁စည်ပင်သာယာ
▁တစ်လက်မ
▁စီစဉ်ပေး
▁သွားရောက်ကာ
▁ဘေ့စ်
ကတုံး
ဘာဘာ
▁၁၆၈၆
ဒေသများမှ
မြွာ
ဌာနကို
အာပတ်
▁မာယာ
▁သူတော်ကောင်း
▁စွယ်
▁သထုံမြို့
အခြားသော
ဂါဝါဘူတာ
▁စိတ်ဝင်စားမှု
မိုဟမ္မဒ်
س
အဖုံဖုံ
▁တစိတ်တဒေသ
}
▁Country
▁အရောင်အသွေး
▁အဆင်မပြေ
=121
ပြိုင်ပွဲဝင်
▁ဗုဒ္ဓအယူဝါဒ
▁ရှဲ
▁ခြံရံ
စိတ္တ
▁ပုတီး
ကောလိပ်ကျောင်း
▁တည်ထောင်သော
▁Pon
▁data
▁hard
▁တွန်းအားပေး
▁ခါးပတ်
ခေါ့
လေ့ကျင့်ရေး
▁ငှက်ဖျား
▁၇၆၈
သယ်ယူ
ရောက်အောင်
▁ကျစ်
သားသည်
ခေါ်၍
▁Yet
ဂျောင်
ဟိတ
▁Book
အရာရှိချုပ်
lip
▁ဝေလ
လဒ်
ပြဒါး
Di
▁ဘာဝနာ
ပြောင်မြောက်
▁စတင်ပြီး
▁မြူနီစီပယ်
ပုဏ္ဏ
နယ်မြေတွင်
▁ဆိုသည်
အေးမောင်
NO
အမျက်
တောင့်တ
ခဲ့ပြီးလျှင်
များပြားသည်။
▁ကိုယ်လက်
="121
▁သို့မှသာ
▁အလှဆင်
▁၎င်းတို့တွင်
▁သင်္ချိုင်း
vir
လှည့်ပတ်
▁စကားလုံးများ
▁CS
ကမ်းနား
အောက်ဆိုဒ်
ွစ်
▁လမ်းပြ
ဖွဲ့စည်းထားသော
▁လမ်းခွဲ
မရဘဲ
လာမည်
▁ဆိုပါက
▁ဇီးကွက်
စင့်
▁ဂူဘုရား
ဗိုင်းရပ်စ်
ပေချပ်
▁တစ်စောင်
အထက်စု
▁ခေါ်ဆောင်
တစ်လက်
▁၁၃၉၄
နေရာချထား
=141
တပ်မ
ama
▁တစ်ဦးဖြစ်ပြီး
ရန်သာ
▁မုတ်
ရေတွက်သော်
ပါတီမှ
▁ကျေးကျွန်
ရေးသားခဲ့သော
▁ပါဝင်ပတ်သက်
▁ဘတ်ဂျက်
ကဏ္ဍတွင်
ဝန်ရာထူး
▁ထိုဥပဒေ
▁ဒေသရင်း
လိုက်ပါက
သဘောအရ
ဒူလာ
အသုံးပြုသူ
▁၄၄၀
ဝါရီ
▁နတ်ကြီး
▁အသုံးပြုခဲ့
ဖြင့်ဖြစ်စေ၊
ပွဲကြီး
မျိုးရင်းဝင်
နာဂါ
၎င်းတို့
▁ကွင်းချောင်း
ကြီးအတွင်း
ဖူးသော
ချမ်းအေး
▁ဌာနမှူး
လှုံ့ဆော်
="141
▁ကူမင်တန်
▁တည်ဆောက်ခဲ့သော
▁အောင်ချမ်းသာ
ပင်ဖြစ်လေသည်။
▁အာအိုစီ
ာ။
စီရင်ပိုင်ခွင့်
▁မည်မျှပင်
ဟူ၍ပင်
73
အားဖြည့်
▁ရုံးစိုက်မြို့
ao
▁စောင့်ကြပ်
▁ပေးသနား
ဆိုသည်
▁ထားရှိခဲ့သည်။
ကျမ်းကြီး
▁ဘိုးဘွား
▁ထိုစကား
▁ပိတ်ထား
▁နှစ်ဦးစလုံး
▁တပြိုင်နက်
မျှသော
▁ထိုသူအား
▁Texas
▁လပွတ္တာ
ထိမ်းသိမ်း
ပုပ္ဖ
ဝဇီရ
သူတဦး
▁၂၀။
bwe
အဖ
ဖွန်း
သည့်နေရာတွင်
▁စီမံထား
ဒဏ်ကြောင့်
▁River
▁တစ်ဖွဲ့
▁သဖန်းချောင်း
ဘိုကျေးရွာအုပ်စု
NC
▁အကြီးအမှူး
×
ဆဲ့
▁ပတ်ဝန်းကျင်ရှိ
▁၁၅ဝဝ
အပြုအမူ
ခြင်းစသော
▁အကျိုးဆောင်
ဝါဆို
တင်းတိမ်
▁အာဖရိကန်
▁၂၁၅၇
▁ဂီတနှင့်
မီးပြတိုက်
တျ
သမိုင်းကို
ဂုဏ်ကျေးဇူး
▁Cup
▁Trans
=227
▁၂၀၇၅
▁ဆက်ကပ်
သူတိုင်း
သိရှိရ
ဘိုရွာ
တတ်သောကြောင့်
▁တပ်ဖွဲ့များ
DA
▁Twin
▁ပန်းဘဲ
စေဖို့
▁ပြိန်း
▁အခွေ
▁ဘုရားပွဲ
▁လေ့လာလိုက်စား
နှစ်ခုစလုံး
▁ဂုဏ်သိက္ခာ
▁၂၀၄၄
▁ကြည့်လျှင်
ခန့်ကို
Mar
▁ဤသည်ကို
▁ပြောင်းရွှေ့လာ
▁တိုက်ဖျက်
နန်းစံ
▁၂၀၅၄
▁တပို့တွဲလ
ဗေဒါ
ငေါ
tus
ဆုန်
စီအီး
▁၂၀၄၇
လေ့ကျင့်မှု
▁ထုတ်ပစ်
ထရွန်
▁ဒေါ်သန်း
gin
ဝင်ခွင့်
လျှိုး
ဘွဲ့တံဆိပ်
▁ပြန်ကြား
တစ်မျိုးတည်း
▁မှတ်စု
အသေး
ကောင်းသည်။
▁ရန်အောင်
ကြိုးဝိုင်း
▁တရပ်
▁၂၂၀၂
fo
လျှပ်စစ်စွမ်းအင်
▁နှိပ်ကွပ်
၂၀ဝ
▁ပါး၊
ထွက်ရာ
ကြာကြာ
ဒီပနီ
ခြင်းပြု
▁Wil
ကုဒ်
▁ကင်းဝေး
၁၉၉၉
▁ဇီးဖြူ
▁ကုလသမဂ္ဂ၏
ွံ့
▁၂၁၂၆
ကျော်ကြားသော
▁လွန်း
▁ပြည်ထောင်
ပေးခဲ့ရသည်။
မှုန်း
ရေးကိစ္စ
▁Hen
ကြောင်းဖြင့်
▁နရပတိ
▁သခင်မြ
မင့်
▁တို့လည်း
▁မွတ်ဆလင်
▁စွမ်း
▁လျော့ပါး
ဒမ်းရွာ
ကြည့်ခြင်း
ရေးသူ
▁အိမ
▁ထူးခြားသည့်
▁လဆန်း
စတော့
လွန်းသော
▁ထွင်း
ဝက်ဝံ
အထဲတွင်
▁ဟောင်
▁state
▁ချည်မျှင်
ဇာတ်ရုံ
▁ဆိပ်
▁Pat
yaw
▁ဖခင်ကြီး
▁မန္တလေးသို့
▁Robert
စက်ဖြင့်
▁လဟာ
▁အမည်များ
ခွဲစိတ်
▁အခြံအရံ
1%80%
▁လုံခြုံမှု
တခွင်
▁တောရိုင်း
ပြည်ထောင်စုနှင့်
▁ရောင်စဉ်
သေးသဖြင့်
ပုကျေးရွာအုပ်စု
စမြဲ
▁ကြီးမှူး
ိက္ခ
▁မရှိခဲ့
အထပ်
▁ပိဋကတ်သုံးပုံ
တစ်ဦးတည်း
မသတ်
အခြင်းအရာ
uan
▁အချိန်ကုန်
Ne
▁ကျုံတုံး
▁ရက်စက်
ရွှေနန်း
▁ဖြစ်စေခဲ့သည်။
▁အာဆီယံမသန်စွမ်း
▁ဝါခါယာမ
▁ငွေတာရီ
▁ရောဂါဖြစ်ပွား
▁ခြုံငုံ
သုသာန်
▁ဆိုဗီယက်ယူနီယံ
မပေးဘဲ
▁ဇလုပ်ကြီး
ကုန်သည်များ
▁အတန်ငယ်
▁ဂျူဒို
川駅
▁ဟိုးမား
ချောက်ချား
မြို့တစ်မြို့
စကားဖြင့်
▁ထိုနည်းတူစွာ
▁၆၇၀
▁ဖျားနာ
မှုနှင့်အတူ
ပမာဏကို
▁လှော်ကား
▁Blue
အိုင်းယွန်း
▁ရရှိပြီး
▁ဂျပန်တို့၏
▁အက္ခရာသင်္ချာ
နိမ့်သော
▁Dar
▁ကီလို
▁စက်ပစ္စည်း
rop
yar
လက်ထက်၌
အခဲ
အသေးစား
ဂရိတ်
▁သံလျင်
ဒုံးပျံ
မသေ
▁နားရွက်
ငှက်သည်
▁Ok
▁အဏုမြူ
ရပ်တန့်
▁သန်မာ
▁ဖိလစ်
▁အတီး
=228
ကုထုံး
▁အာဟာရဓာတ်
▁မကြား
လွှဲပြောင်း
▁ရတနာသုံးပါး
အခံ
ကွဲပြားခြားနား
ပွဲကျင်းပ
▁သပ်
အနီးအနား
▁ထူးခြားစွာ
▁ဗဟိုအစိုးရ
▁ဥတ္တရ
ဆီလျော်
ဘုရင်က
ကျက်သရေ
▁ခွဲခြားထားသည်။
of
လေးယောက်
▁မြို့ပေါ်
▁၂၉၇
▁ရွှေထီး
▁များများ
လုပ်သည်။
တစ်ယောက်၏
▁အခင်း
ရယူနိုင်
တစ်ဦးချင်းစီ
▁they
▁ဘာသာဖြင့်
ပြုလုပ်ထား
ကလာ
မှန်သမျှကို
▁နှစ်ရှည်
▁ဒေသအတွင်း
ပဗ္ဗ
▁အိန္ဒိယသို့
▁ဟယ်
▁မောက်မယ်
ာယတန
▁အနည်းငယ်မျှသာ
ဆောင်ရွက်ခဲ့ပြီး
စ္ဆာ
▁တောင်ပိုင်းတွင်
▁မသင့်
ငါးခု
နမ့်လင်း
▁မြည်
▁ပြင်းအား
သာသန
ခေါင်းဆောင်တစ်ဦး
ဆိုရလျှင်
▁ထော
အပ်သည်
ပြုလျက်
▁လင်းတ
စနေ
စစ်ဆေးရေး
ကြီးပင်
စစ်မျက်နှာ
▁၃၅၅
SI
▁မိတ္တူ
▁ရှန်ဟိုင်း
▁အရှင်မင်းမြတ်
▁စွဲလမ်း
ဖြစ်ပျက်
ပလူ
▁သရဏဂုံ
ပ်စ်
IN
ring
▁အိုဆာကာ
ကရီ
▁နှစ်ကာလ
ပုဒ်ကို
စာမေးပွဲကို
ကမ္ဘာထက်တွင်
▁လုံးချင်းဝတ္ထု
သောအချိန်
▁ဦ
၍ရသော
▁၎င်းနှင့်
ချပြီး
လိုသောအခါ
လှုံ
▁ဘွဲ့ဖြင့်
▁ပေါင်း၍
▁၂၁၉၀
▁လူ့ပြည်
ပုဝါ
▁Don
▁မျှော်လင့်ချက်
ဝင်းမောင်
▁ပထမပိုင်း
ဝိသေသလက္ခဏာ
သေးကြောင်း
၇၄၅၃
မျိုးကွဲ
မပြော
▁မကျည်း
ဂျုံး
ပေါ့ပါး
▁ဘုရားရှင်သည်
ပြင်ဦးလွင်ခရိုင်
▁အဖွဲ့အစည်းတစ်ခု
ငယ်ရွာ
▁လိုအပ်ချက်များ
တံဆိပ်များ
ပေခန့်
စာဖြူစု
အရပ်ရှိ
▁မသွား
▁Europe
များကြား
日
ရင်းနှီးမြှပ်နှံ
▁ဆင်ဖြူမရှင်
ပွဲလမ်းသဘင်
寺
▁Network
▁စိတ်ပါဝင်စား
▁spacecraft
အတွက်ကြောင့်
▁ပုံပန်းသဏ္ဌာန်
▁ဆွမ်းခံ
▁Kyaik
▁ဦးရီးတော်
▁မုံရွေး
▁တိမ်မြုပ်
သတ္တာဟ
လူဝင်မှုကြီးကြပ်
ဆီမှ
ပါမည်
▁ခင်ပွန်းဖြစ်သူ
▁ပတ္တလား
▁တပါး
အဲဘူတာ
ပန်းပွင့်
duc
▁Laung
▁တသ
▁၂၂၁၆
ဖြစ်စေသည့်
▁အပင်ငယ်
▁ပြည့်နှစ်မှ
မကွေး
▁အက္ခရာများ
▁ဖြန့်ကျက်
အရံ
=280
▁ဒေါ်အေး
ထဲဝင်
MT
▁၂၁၅၂
▁ဆရာတော်ဦး
▁မြေခွေး
ကုသမှု
▁ပေါက်တူး
ford
်း
=349
ဒိတ်
▁၂၁၇၀
ပေးမည့်
သွင်း၍
▁၂၁၄၆
▁ဗြာဟ္မဏ
ဘိသိက်
စိုစွတ်
▁ဆုကို
▁ဆိုရင်
ဘဝဖြင့်
▁စားနပ်ရိက္ခာ
ရုပ်သံလိုင်း
အသေ
ပရမ
တခုခုကို
▁၂၁၉၃
▁မြောက်ဘက်သို့
များကြားတွင်
▁ဏ
▁ကျန်ရစ်ခဲ့
▁ပထမတွင်
aff
လာကြပြီး
၃။
▁IC
သံဃ
ရဘဲ
မရှိသော်လည်း
▁စပြီး
သမားများသည်
▁စားစရာ
▁ခရီးသွားများ
သက္က
အဖွဲ့ချုပ်၏
▁တာဝန်ရှိ
ထိန်းသိမ်းမှု
အတတ်၊
▁၁၂၁
▁လိုက်ပါသွား
▁၂၁၄၅
ဗေဒပညာရှင်
ဖာလုံ
▁ရည်မှန်း
အမျိုးမျိုးရှိ
▁ပုဂ္ဂလိကပိုင်
▁ရေးသားသည်။
▁Pyi
▁တစ်ရွာ
▁Mark
နှစ်ခန့်
▁မြောက်ဘက်ပိုင်း
ပါလို့
တဆူ
▁ဂျာဗား
ဆုရရှိ
▁တည်ရှိကြသည်။
▁ရောင်းအား
ပန
▁ဒုက္ခသည်များ
စုံစမ်းစစ်ဆေးရေး
▁စီမံကိန်းများ
ပေးအပ်ချီးမြှင့်
="80
▁လွှတ်ပေး
အရိပ်
▁၂၁၆၉
▁ဘွဲ့မည်
ကျွန်မ
ရုံသာ
▁စစ်တရားရုံးက
သုတ္တ
▁ပင်ဖြစ်သည်။
▁သွယ်တန်း
▁ကျန်ရှိသော
cal
လှန်း
▁ကုတ်
dam
ကန်ကြီး
▁နာကျင်
▁AD
ရေပူစမ်း
လက်ယာ
အချက်အလက်များအရ
၏အစိတ်အပိုင်း
gh
ized
NS
▁၉၆၇
▁၂၂၂၁
▁ဘုရင်ခံချုပ်
▁ဘာသာဝင်
▁နဝတ
ဆောင်ရွက်သည်။
ကျောက်တန်းရွာ
သုံးစွဲခြင်း
▁ဥက္ကဋ္ဌသည်
▁အလွန်ကောင်း
အခြေနေ
▁ဖွဲ့စည်းခဲ့ပြီး
▁ကွမ်းခြံ
▁အစ္စလာမ့်
▁အေသင်မြို့
▁ကျဉ်း
▁ဆားတောင်
▁လွဲ
▁အစိုင်အခဲ
▁ငြီးငွေ့
=129
မြသန်း
ခဲ့ကြ၍
▁မိန့်
နေရန်
▁ပရောဖက်
ခါးကျေးရွာအုပ်စု
တစ်ကြောင်း
ဖြန့်ဝေ
▁တရားတော်ကို
ကလစ်
ညား
▁မြို့ဖြစ်သည်။
▁အသားအရေ
တီးရွာ
▁လယ်ပြင်
အမိ
▁မြတ်စွာဘုရားကို
▁တည်နေ
နှုန်းထား
သူဖြစ်
;2021-10-0
▁vowel
本
▁gothic
▁ရှော်ချောင်း
▁ရခိုင်ရိုးမ
▁တစ်သိန်း
▁ဦးဘဖေ
အသစ်များကို
ဘဝ၌
လှေး
▁ဥသျှစ်
▁နေမှ
▁ဂိတ်စ်
တျူ
၂၀၀၃
▁ထိုသီချင်း
=382
▁ဖြစ်ကြောင်း၊
=289
▁အုန်းပင်စုရွာ
ရရှိ၍
မြင့်မြတ်
ပိုက်လိုင်း
များစွာရှိ
▁ဒီဇယ်
▁ပါတီကို
▁သစ်ကိုင်း
▁ကြေးဝါ
အပြတ်
▁၁၀၅
▁အားလုံးသည်
▁ရှမ်းစော်ဘွား
▁ကွင်းပြင်
▁Pinl
▁Taing
ဟန်၊
▁မြန်ဆန်
ဂန္ထဝင်
▁su
▁သမိန်
▁နစ်မြုပ်
အစုအဝေး
▁ဖော်ပြသော
အကြီးမားဆုံး
▁ရေမွှေး
လွှတ်တော်ချုပ်
▁ဆီဆိုင်
တီးမှုတ်
▁မိန်း
အောက်မေ့
▁မြန်မာ့ဆိုရှယ်
ပိတောက်
▁အင်္ဂလိပ်စကား
▁ကွဲပြားသည်။
အရွေးခံ
▁မြေဖြူ
မောင့်
▁ထိုမြစ်
▁နေအိမ်၌
▁ဆေးထိုး
ဝမ်မိုင်ရွာ
ယဉ်ကျေး
▁သားကြီး
▁၂၁၆၅
▁ငုတ်
▁တရားသူကြီးများ
ments
ပြောဆိုခဲ့သည်။
လုံလောက်
▁၂၁၆၃
▁မှတဆင့်
မြောက်စု
▁ဂေါ်ရခါး
▁အရှိ
နီတိ
လက်တင်
လိုက်သည့်အခါ
မသာ
▁၁၂၇၄
▁မသိရ
ချက်နှင့်
▁William
တီထွင်မှု
သင့်ပေသည်။
▁ကုံး
016
▁James
သံများ
▁Mr
▁ရနိုင်သည်။
▁ကူးသန်းသွားလာ
ခေါင်းရွာ
တစ်ဦးဖြစ်၍
▁သတ္ထု
ကွက်သစ်ရွာ
ဝိန်
အီးစီ
စီးပွားရေးစနစ်
▁ထူးခြားချက်မှာ
တာပဲ
▁ဆင်ဖြူရှင်မင်း
▁ရွှေလောင်း
ထိုးစစ်
နိုင်ငံဖြစ်သည်။
ခံယူချက်
▁ဓာတ်ခွဲ
▁ပေးသွင်း
▁အစည်းအဝေးတွင်
▁ပုဂ္ဂလိကကျောင်း
▁မဇ္ဈိမဒေသ
ရုပ်ရှင်ရုံ
▁ပို့ဆောင်ပေး
မှစတင်
▁နှင်
ပီသ
▁အဖတ်
▁2.0
▁မော်တော်
▁ဗြဟ္မဏ
77
▁ဖင်လန်နိုင်ငံ
ကိုယ်တိုင်က
▁ဥရောပတိုက်ရှိ
▁မိန့်ကြား
သက်ရှိ
စောင့်ကြည့်
ပီတာ
mid
လွှတ်တော်၏
▁အကြံဉာဏ်
ove
ကျရွာ
▁အနီးစပ်ဆုံး
ဟူ၏။
▁ကွဲထွက်
▁တပ်မတော်နှင့်
ခွင့်ရခဲ့သည်။
Man
တာဝါ
▁တစ်ခုမှာ
တပ်ခွဲ
မြင့်မားသော
▁အများသုံး
▁စသည်တို့တွင်
ပြည်ထောင်စုသည်
အမှီ
▁ကသစ်
ဆန်းရွာ
▁ဓာတ်ပုံများ
ပေးနိုင်ရန်
▁Band
သင်ပုန်း
ဇောက်
▁လုပ်ရပ်
▁လမ်းခရီး
ဖြည်းဖြည်း
▁၁၀ဝ
▁တစ်လျှောက်တွင်
သမ္မာ
ကလေး၏
ချက်ကြောင့်
စန်းရွာ
ရှိတတ်သည်။
အနည်းငယ်အတွင်း
▁ပေးခဲ့ခြင်း
နေထိုင်သည်။
▁အများအပြားကို
▁ပိတောက်ကုန်း
="129
ဇီးဖြူ
သည့်ပြင်၊
ကြကုန်၏၊
ကြယ်ပွင့်
▁စီမံကိန်းနှင့်
▁ပါဝင်လာ
တလီ
သီချင်းကို
▁လိုအပ်ပါက
ထက်၌
သီးကို
▁ဟိုခို
CA
view
သဏ္ဌန်
▁အွိုင်လာ
▁ဦးဗဆွေ
▁ကပ္ပတိန်
ဒေသခံ
▁မြန်မာလို
ရည်းစား
မြို့တို့
▁မြင်စိုင်း
လိုသူများ
နဲ့အတူ
မြန်မာစစ်ပွဲ
ကော်မတီ၏
▁site
▁ဗိမာန်
လုံး၏
ဗုဒ္ဓရုပ်ပွား
=426
င္း
လွဲမှား
▁ပါဒ
=380
91
▁ပြင်းစွာ
▁ထိုဝတ္ထု
ခိတ
600
▁သစ်လုပ်ငန်း
▁ကျောင်းထိုင်
▁ဓနုဖြူ
=348
ib
▁သံချောင်း
ဦ
▁လက်မှတ်ထိုး
သမားတစ်ဦး
▁စစ်မှန်သော
bra
ရာထူးမှ
စာပေများကို
သင်္ကြန်
▁အနောက်ဘက်ရှိ
▁မဟုတ်၊
▁ရှေ့နောက်
ပန်းတိုင်
▁ဂျော့ချ်
▁Yon
▁ဥမှ
နိင်
▁Chin
▁မပေါ်
▁အချို့ကမူ
ခိုင်ခံ့
ဘုရားအလောင်းတော်
▁တစ်နေ့သောအခါ
▁၂၁၃၀
▁တတ်နိုင်
▁ဂီတသည်
▁အလှည့်ကျ
စီးနင်း
ရန်။
ဥဒေါင်း
ခုရ
မျက်နှာစာ
▁ဖွံ့ဖြိုးပြီး
စန့်
▁စာအုပ်တစ်အုပ်
▁၁၁၂၈
▁Bill
▁သောတ
▁မေး၏။
▁အနှစ်သာရ
▁ကျောင်းရွာ
ခြားနားချက်
gram
▁ဆုပ်
▁၂၀၅၅
တော့ပါ။
▁နမ့်တောင်း
▁ကမ္ဘာတစ်ဝှမ်း
ကြောင်းသိရသည်။
▁ဖွားမြင်တော်မူ
ဖွဲ့စည်းခြင်း
▁တန်ဖိုးရှိ
အဖွဲ့ဝင်နိုင်ငံ
ဝတ္တ
ဗျူဟာ
ဟုဆိုနိုင်သည်။
▁ရွှေညောင်ပင်
▁ကံကြမ္မာ
▁သမန်း
="81
▁than
▁မိုင်းကာ
▁ကော်မရှင်၏
▁ပုဏ္ဏ
မှုတစ်ခု
▁ကျုံ့
▁နိရှိ
▁imp
ပျက်စီးဆုံးရှုံး
စာသင်တိုက်
▁အတွက်လည်း
မ္မာ
▁ဝဏ္ဏ
▁ကက်စ
ဖုံးအုပ်
▁အရပ်ဘက်
ဉ
အလှူရှင်
ပေ့
▁ခုမှာ
ဒေသများကို
ဖန်များ
▁အရေးပါအရာရောက်
▁ဘုရားတစ်ဆူ
▁အိမ်ရှေ့စံ
▁under
▁အင်္ဂလိပ်လို
▁လက်ဆင့်ကမ်း
မျူ
စပါယ်
▁ကတိပြု
ထုတ်လွှတ်
▁၂၀၅၇
▁ထဲမှာ
လှဖေ
▁သုတ္တန်
▁သတ္တဝါတို့၏
▁အဆက်ဆက်
ett
▁မိုးမခ
▁သတ်မှတ်ချက်များ
အခြေစိုက်စခန်း
ငြ
▁ကျင့်ကြံ
▁သွန်း
90
▁၆၆၉
တာကတော့
TM
ကျိန်း
▁လက်ခုပ်
▁ဂျီ၊
▁ငါဘုရား
inme
▁ငယ်ရွယ်စဉ်
▁၂၂၇
ဖြစ်ကြောင်း၊
▁အနေနဲ့
▁Thu
ခက်ထန်
နှပ်
▁လိုသည်။
▁သတ္တိရှိ
▁မျိုးကို
ထဘီ
石
မိုက္ကရို
▁ဆူဟာတို
▁မန်မန်ဆိုင်
▁Royal
▁Ngap
▁Myin
▁ဟီလီယမ်
▁လူသိအများဆုံး
ထက်မနည်း
Sh
tharya
▁ဆိပ်ဖူး
မျှော
ကြည့်ပြီး
တောင်ရိုး
▁စခန်းကြီး
▁ပါသော
▁ဒိုမိန်း
လွှဲအပ်
ကိုဆိုလိုသည်။
▁ဆောင်ရွက်ရသည်။
▁သန်းပေါင်း
▁ဦးဘိုးစိန်
ဩဇာခံ
ခြူး
ချဉ်းကပ်
▁မိအဲခရိုင်
▁ကိုယ်အင်္ဂါ
=422
▁မြည်း
ဆုရ
=288
=381
အဆက်အသွယ်
▁ကျောင်းသုံး
▁သတင်းစာများ
ပုံစံမှာ
ဖိုရမ်
▁သေဒဏ်ပေး
တာဟာ
▁ဒေသခံများ
▁ရေခဲပြင်
▁စစ်ဘက်ဆိုင်ရာ
▁၂၁၃၂
▁အခေါင်း
▁သိ၏၊
▁တစ်ခုအဖြစ်
95
များမှလည်း
ပါတယ်၊
လုနီးပါး
လုပ်ဆောင်မှုများ
▁၂၂၀၁
▁၁၃၆၄
▁ပွဲတော်များ
ခေတ်မှ
▁ဒီး
သားဖြစ်သည်။
▁သတ္တုရိုင်း
▁မိချောင်း
▁ရဟန်းများ
အင်အားကို
▁အပူဓာတ်
▁အိမ်သို့
တစ်လျောက်
တစ်ယောက်သည်
ဘူတ
▁ဂျာမန်လူမျိုး
▁အရွက်ကို
မရှိကြောင်း
EO
စာချုပ်အရ
▁တိမ်တိုက်
အာရုံစိုက်
nk
မိတ္တ
▁တစ်ဦးအပါအဝင်
▁၁၃၇၇
▁မျိုးနွယ်
▁ကိုယ်ခံပညာ
ယူဆချက်
▁အနိုင်ရရှိခဲ့
▁စက္က
▁ပေးထား
▁ကုလားအုပ်
▁အောက်ပါအချက်
ဖြစ်နေသည်ကို
▁သားတစ်ယောက်
bus
cul
▁ဖွေ
အိုခ
cor
ငယ်သော
လုပ်ကိုင်ရန်
▁စုပုံ
တစ်ခုက
စကီ
ase
▁နန်းတင်
ဆက်တိုက်
▁ခေါ်ဆောင်သွား
ရော့ခ်
▁ကြွလာ
▁အီရတ်နိုင်ငံ
▁ကြေးစား
မြတ်စွာဘုရားသည်
လက်ထောက်
▁၂၃။
▁ဝိပဿနာတရား
အသျှင်
▁ရှိ၏
မပေါ်
ကြိုတင်
▁တာဝန်ဝတ္တရား
▁၂၂။
သင့်တော်
vers
ဒွ
ခွင်း
▁မေတ္တာရပ်ခံ
▁၆၂၃
ခွဲခန့်
နှစ်ခုမှာ
▁နတ်သား
ဆိုကြသည်။
ဖြေဆို
▁ဖီး
▁လပ်
▁ကြည်းတပ်
2018
မှီခို
▁ထေရဝါဒဗုဒ္ဓဘာသာ
▁သာမန်လူ
▁အကြံအစည်
စဝ်
တူညီသော
▁စကားလုံးကို
သရက်ကုန်းရွာ
မိကျောင်း
mph
▁စစ်ကုန်း
▁ဒွါရ
▁၃၂၆
▁မိဘနှစ်ပါး
▁နှောင့်နှေး
အမှုကို
▁nu
▁အဂ္ဂ
▁အမည်ရ
▁ခေါ်ပြီး
ရပြီးနောက်
▁ကျေ
စီမံချက်
▁ရွှေကျောင်း
ရှိစဉ်
▁အဖုံး
ရှာသည်။
ကထိက
တာ။
▁ကြွက်သားများ
တာမျိုး
▁ခရမ်းရောင်
ကျမ်းများကို
▁ဟံသာဝတီသို့
သွေ
သွားပါက
လုပ်ငန်း၏
ကိုင်၍
▁အရာရောက်
၀ဝ၀
▁ပန်လော့
▁သန့်ရှင်းသော
သို့ပို့
ကျောင်းများတွင်
▁ကျောင်းတောင်
ဟင်္သာ
ကြာမျှ
သော့
▁နမ့်မော်
ဌာ
ခရီးစဉ်များ
ဉာာဏ်
▁သက္ကယ်ကုန်း
▁ဂရုတစိုက်
▁ရေဒီယိုသတ္တိကြွ
ဘေးထွက်ဆိုးကျိုး
▁daily
▁after
▁စကျင်ကျောက်
▁ရမ်းဗြဲ
▁စံနစ်တကျ
▁ဘယ်လောက်
နိကာယ်
▁‘‘
▁ဦးကျော်ငြိမ်း
;&
▁အလက
▁ခေတ်စားလာ
ရေလဲ
▁တစ်စုံတစ်ခု
▁စကားဝှက်
=421
ကောင်းရွာ
အသည်း
▁လန်ဒန်မြို့၌
=347
▁ဖြို
▁နိုင်ငံတကာမှ
▁ဝတ်လုံ
လှစွာသော
▁အဆပေါင်း
ဖော်ပြသည်။
▁တွင်ကျယ်စွာ
about
▁ဖျာပုံ
▁သားဖွား
▁ယုံကြည်ကိုးကွယ်
ဖြစ်၏၊
ချိဘူတာ
▁နိုးကြား
အဖွဲ့အစည်း၏
အုတ်ကြွပ်
ဥက္ကဋ္ဌအဖြစ်
ရေပြင်
▁၁၃၈
▁လားဟူ
▁၂၁၅၄
non
▁နေကြ
နှစ်သစ်ကူး
▁ဣသရေလ
▁ပြည်သူတို့၏
ထရံ
ပဉ္စင်း
ပိုင်ဆိုင်သော
ီးယား
ပေးရလေသည်။
▁ဒေါ်သိန်း
အဆိုကို
▁ထွက်၍
ကြီး၍
▁ခမ်းနား
ဆွေ၊
သိပ္ပံပညာ
▁Ver
▁ရာသီဥတုမှာ
▁ရှုပ်ထွေးသော
အတောင်
-10
▁၁၀၈
▁အချိန်ကို
▁နေပြည်တော်သို့
မထားဘဲ
တိုက်ရွာ
▁ဆောင်ရွက်ရာတွင်
ဘဒ္ဒ
၈၀၀
▁တော်တော်
၁၉၆၈
ရေးသားထားသော
▁ဝိသေသ
▁၁၂၉၃
အဝါ
▁သစ္စာခံ
▁ရွှေကူ
ခန့်ခွဲမှုအဖွဲ့
စစ်သူရဲ
▁စာရိတ္တ
အုပ်ချုပ်သူ
▁ရေဒါ
ပေးလိုက်သည်။
အကိုက်
▁ရဟန်းတို့အား
▁ပစ်လွှတ်
တော်စပ်
မလေးရှား
▁စကားသည်
မအဲ
▁ဌာနများ
▁တည်ဆောက်ခဲ့
▁ချေးငွေ
▁ထင်ရှားခဲ့သည်။
pur
▁အန်ဒ
ဏု
▁စိုက်ပျိုးသည်။
▁တက္ကသိုလ်၏
▁ဖော်ပြရန်
တစ်ရပ်လုံး
▁မြက်ခင်း
▁သက်သေအထောက်အထား
ities
ခွကျေးရွာအုပ်စု
ငှက်ပျော
ါး
အစိုးရလက်ထက်တွင်
ခဏ်း
ဝိနိစ္ဆယ၊
ပျောက်ဆုံး
▁ရေဖြူ
▁ကိန္နရာ
="46
▁ပထမတန်း
▁၇၉၇
▁၃၆၉
လာနိုင်သည်။
▁ဆက်သွယ်ပေး
▁ပိဿာ
▁နန်းသက်
မျှတသော
▁၂၀၉၀
▁—
▁စိုစွတ်
ဆရာ၊
▁ညံ့ဖျင်း
လီရွာ
▁အသီးအနှံ
လွန်ကဲ
ရခြင်းသည်
▁စာရေးဆရာများ
▁ပရိယာယ်
သတင်းဌာန
▁အလယ်စုရွာ၊
ဖွဲ့စည်းတည်ထောင်
▁အကူအညီများ
mus
▁အဓိကထား၍
▁Kawa
ဟူသမျှကို
ပါ၍
နီးယန်း
▁ဆက်နွယ်နေ
▁အထူ
▁စစ်ရှုံး
မြှင့်တင်ရေး
ရန်အောင်
ရမှာ
ဖြစ်ရပ်များ
ions
▁မမှန်
▁၁၁၈၃
ဂစ်
▁သိမ်းပိုက်ထား
ရပါမည်။
▁သွေးထဲ
▁ရကန်
▁တကသ
▁ချီတက်လာ
သူဖြစ်ပြီး
▁မြင်နိုင်သည်။
▁ပန်းပင်
သစ်ကြီး
အလုပ်များ
▁ပုံစံဖြင့်
ဖြတ်တောက်
ကိုးကွယ်ခြင်း
▁ယော့
▁တစ်ခေတ်
ဆွတ်ဘူတာ
RS
စက္က
▁စာအုပ်ဖြင့်
▁သထုံပြည်
ချိုးဖောက်
▁ဆရာကြီးဦး
ကပ်၍
▁အလိုအားဖြင့်
▁တပ်ရင်းမှူး
ကရို
▁၂၁၇၁
လယ်ယာမြေစီမံ
▁မျက်နှာမူ
▁မိန်းမများ
ပါလာသော
▁မြတ်ဗုဒ္ဓ
အုံကြွမှု
ဦးစီးဌာနရုံး
စစ်မှုထမ်း
သုံးပုံ
▁ကြာကန်
▁ပစ္စည်းကို
နယ်ချဲ့
ဘူတာရုံ
▁ကြက်ခြေနီ
ဝိန်းရွာ
တည်ကြည်
▁နိဗ္ဗာန်ကို
တို့လူစု
▁လုံးဝမ
ပြည်တွင်းစစ်
vin
နုတ်ထွက်
ras
▁သွား၍
▁အခြားသူ
down
ö
▁ပလူတို
မက်ထရိုပိုလစ်တန်
သစ်ကြံပိုး
=117
▁လူမှုဖူလုံရေး
▁ခရိုအေးရှား
▁သုဝဏ္ဏဘူမိ
ရှိမဘူတာ
▁မိုင်းရှဲန်
နှုန်းကို
▁ပြုလုပ်ထားသည့်
▁ပူအိုက်
▁လူကြိုက်
▁၂၂၁၄
="117
=424
=425
သိုင်းပညာ
=284
▁အောက်ပါတို့
▁ထောင်စုနှစ်
နုန်း
▁ဆေးဘက်ဆိုင်ရာ
ညီအစ်ကို
▁နက္ခတ္တ
အရေ
ရေးထိုး
ဗ္ဘ
မျှဝေ
အတို
အညွှန်း
▁ငွေရောင်
▁၂၁၅၈
▁ကမ္ဘာ့ဘဏ်
▁တလုပ်ကုန်း
,000
▁ကိုယ်လုံး
ရမန်
=182
▁သက်ဦးဆံပိုင်
ဝါဒနှင့်
▁နာဆာ
တကား
▁တည်ရာ
▁အခြေခံကာ
▁ကမ်းနီ
ထုတ်လွှင့်မှု
▁ထုတ်လုပ်ပေး
ေမာမ်ဟိုစိုင်းန်
="182
▁စေတီတည်
၏မြောက်ဘက်
မတ
▁ကုမ္ပဏီကို
တည်းသာ
▁ဧတဒဂ်
▁ဘွက်
တင်ကာ
အသီးသီးမှ
ရောစပ်
▁နေထွက်
ath
▁စယ်
▁ပိုလန်နိုင်ငံ
▁ဆရာတော်အား
မျှပင်
▁အပင်၏
လျက်ရှိလေသည်။
▁ဖြတ်သွား
▁ထိုနည်းတူ
လုပ်ငန်းရှင်များ
စိစစ်ရေး
အကြီးအကျယ်
သံတမန်
ခဲ့ကြရ
ဖြစ်ပွားခဲ့သည်။
▁ငြင်း
mes
လျက်ရှိကြ
▁ဖရန်စစ်
▁ဆင်းသက်လာသည်။
▁ခန့်မှန်းကြသည်။
ထက်ပိုသော
ID
အစည်းအဝေးတွင်
▁သုံးသော
ကြံ့ခိုင်
00
▁ထိုနှစ်တွင်
အားကစားရုံ
မှုများပြုလုပ်
ဘာရီ
▁တစ်ပိုင်း
▁ပစ္စ
▁၂၂၀၅
ဝန်ဆောင်မှုများ
▁ပျက်သုဉ်း
▁၂၁၀၈
▁အစိုးရအဖွဲ့၏
="409
▁စာရေးဆရာ၊
als
ble
▁မိသားစုဝင်များ
▁၁၀၃၈
▁ပါးရှင်း
▁ထိုအချိန်၌
သတ္တဝါတို့
▁သို့အတွက်
ခေါ်ဆောင်
အစီအစဉ်ကို
ခိုင်မြဲ
တာဝန်ယူဆောင်ရွက်
▁ဒိန်းမတ်နိုင်ငံ
▁တောင်တက်
▁ရရှိလာ
▁ကပ်လျက်
="375
▁မစိုးရိမ်
▁Au
86
▁စုံတွဲ
ML
=143
▁စစ်တရားရုံး
ဦးဖြင့်
▁အခြေတည်
နှစ်ခွ
▁လင်းယုန်
▁စစ်ထုတ်ခြင်း
01600
ဗီယာ
▁ကွန်မြူနစ်ဝါဒ
▁၁၁၂
သတ်ရန်
▁ရရှိလေသည်။
ဆရာတစ်ဦး
ဒုန်း
ada
ရေးသားထား
နည်းသည်။
▁အခြေခံပြီး
▁ညီညာ
ယာယီ
ရှုံးနိမ့်
▁သုံ့ပန်း
="366
="370
းနစ်
▁အဆောက်အဦများ
▁ပါဠိစာပေ
ကြွယ်ဝသော
="143
အောင်ပြုလုပ်
တေန
="373
▁သတ္တုစပ်
▁ပစ်ချ
▁နာခံ
စီးဆင်းမှု
▁ဆွမ်
▁ခိုင်လုံ
သဘောမျိုး
="280
▁ခံရပြီး
ကာရီ
ချိန်မှစ၍
▁တရုတ်ပြည်တွင်
မရှိသဖြင့်
▁ပေါင်းဆုံ
▁မနုဿဗေဒ
ကြီးမြင့်
မနော
▁လိမ်း
▁၁၈၀
▁နှေး
▁ရောင်းဝယ်ရေး
▁ဥက္ကံ
▁အခြင်းအရာ
▁အသေခံ
ရရှိအောင်
▁သမိန်ဗရမ်း
▁သိပ္ပံအမည်
▁မြို့လှ
▁ပြဿနာများကို
ျူး
="410
ထွန်းအောင်
="227
="201
▁ဥယျာဉ်တော်
ညှို့
="404
="367
▁Zi
▁company
▁ထင်ထင်ရှားရှား
▁အဆိပ်အတောက်
ယေရုရှလင်
=128
▁ခန်းမ
▁မန်ချူးရီးယား
▁ပူဇော်ပသ
▁Ponna
▁မင်းမှုထမ်း
▁စေတီတစ်ဆူ
="312
တာရှည်
=427
ဂျေားဘူတာ
စေတတ်
=420
ဒွါ
▁Meik
=383
=384
▁ယနေ့ထက်တိုင်
ဆို၍
itt
=225
▁အဘူ
="128
="365
▁City
="372
▁Aye
▁သက်ဝင်ယုံကြည်
▁Office
▁တွေ့ရပေသည်။
ဂူး
▁အသတ်
▁သပြေချောင်း
ality
▁သာဝတ္ထိပြည်
SE
လှူဒါန်းခဲ့သည်။
="376
သန်းကျော်
▁so
▁သေစေ
▁ဘိုကလေး
ကျင်းပသည့်
▁ယီ
▁star
▁ကမ္ဘာတစ်ဝန်း
ခြင်းသဘော
="160
▁ဆီးချိုရောဂါ
▁ရိုက်နှက်
ပဏ္ဍိတ
▁၁၃၃၉
▁KNU
▁ယာမ
="259
ဌာနက
ကျင်းပလေ့ရှိသည်။
▁အနည်းအကျဉ်း
▁ဒန်း
oli
၁၉၆၇
="412
="254
="426
="369
မိတ်ဆက်
▁40
ရှိကာ၊
▁နောင်သော်
▁အင်ဒိုင်း
▁"'
▁ရောဂါလက္ခဏာများ
စက်ဝန်း
ပြခဲ့သည်။
▁၁၂၅၇
လိုလားသူ
="277
▁ပါတော်မူ
မိဘုရား
▁ယူဆချက်
="378
="403
▁စစ်ဆေးမှု
စာရင်းကိုင်
အပြောင်း
▁လက်ချောင်း
တဘောင်
▁၂၀၃၅
▁ကန့်သတ်ထား
rama
▁မသုံး
▁၂၂၀၄
▁အဟောင်း
▁စစ်ထုတ်
နိုင်ပါ
တစ်ခုရှိသည်။
="262
ကုလသမဂ္ဂ
လက်စွပ်များ၏
မီးသွေး
tar
▁Council
="261
▁လုံလောက်စွာ
▁ထို့ကြောင့်ပင်
▁သတိပြုမိ
="263
ဆုံရာ
="392
စတုရန်းမိုင်
▁ကာနယ်
▁စစ်ဆင်
▁၂၁၆၁
="382
ဝဝဝဝ
▁ဖက်ဆစ်တော်လှန်
တိုက်ခိုက်ခဲ့
▁ကပ်ခို
လူရိုင်း
="415
="408
▁ပန်မတ်
ဇွန်လ
spect
ကိုရီးယား
▁စပိန်တို့
▁မျှော်မှန်း
ပွဲ၌
="435
="422
ဂုရု
="417
▁သရသံ
="439
="264
▁တောထဲ
="414
="411
="253
▁ရွေ
▁Ce
▁မွန်၊
="399
MP
▁ညှိ
မြင်နိုင်သော
="250
အဖွဲ
▁အလေ့
▁အချိန်က
ချောင်းနားရွာ
ဖွင့်၍
="395
▁အေးချမ်းသာယာရေး
="257
▁ပြေပြစ်
="396
၂၀၀၄
ရာဇဝတ်မှု
ယောင်ဆောင်
▁Hall
="401
=1637
▁၁၃ဝ
="1637
="391
ကြည်နှင့်
="394
▁ရိုင်ဖယ်
▁ထင်ရှားခဲ့သည့်
ဇိတ
▁နှလုံးသား
လုပ်ဆောင်မှု
▁၂၇၅
=1747
="1747
▁တစ်ခြား
အားထုတ်ခြင်း
="288
သတ်မှတ်ထား
အိရှိ
▁tri
=1766
="1766
="368
ကာကွယ်ရန်
နိုင်သည့်အပြင်
ပါရာဇိက
="421
▁နုတ်ထွက်ခဲ့သည်။
ခင်မင်
▁အကြီးကျယ်ဆုံး
=1635
="1635
=1657
="1657
="402
▁၁၆၉၇
="274
အမိန့်ဖြင့်
=1612
▁၁၂၈
ပြင်ဆင်ချက်
="1612
=1636
="1636
="438
▁ပြာသိုလ
="289
ယာမမြို့
ညီမျှ
▁ဘော်တွင်း
ဆိ
▁ဥဒ
ဖျက်စီး
▁မောင်ဘ
ဖူလုံ
=1768
="1768
▁ဂျပန်ဘာသာစကား
▁Yangon
=1648
="1648
=1750
=1770
="1770
="1750
=1912
="1912
▁သတ်မှတ်သည့်
=1647
="1647
=1646
=1746
="1646
="1746
▁ဖာပွန်
နေခြင်းကို
=1642
="1642
=1614
="1614
="407
=414
ေရ
=1643
=1796
="1643
="1796
ရှာဖွေရေး
=1651
ပညာရှင်တစ်ဦး
="1651
="380
▁သတင်းထောက်များ
▁ပေးသော
=1644
="1644
="228
ဂလာ
အမည်ရှိသော
="347
ရေကျော်ရွာ
▁တာဝတိံသာ
ق
တွင်းငါးကြောင်
▁Sittwe
▁အပါယ်လေးဘုံသို့
▁အောက်စီဂျင်
ဦးသန်းကြွယ်
▁နက္ခတ်တာရာ
▁စနေဂြိုဟ်
▁အထီးကျန်
▁ခွင့်ပြုမိန့်
မှအစပြု၍
=1632
="1632
=423
=385
ခဲ့ကြသဖြင့်
=1753
=229
▁မြို့နေ
=226
▁လင်ကွန်း
="1753
ရုံး၏
ပွိုင့်
=1769
="1769
=1794
="1794
▁၉၃၉
▁ကွင်းယား
=338
="2003
ဦးတည်
▁လေးမျိုး
=1631
ကျိန်
="1631
=1633
="1633
=1743
="1743
▁ယှဉ်တွဲ
="424
▁အသဲ
▁ဝဘ်
နေကြဆဲ
ဓမ္မရာဇာ
▁ရေသတ္တဝါ
သည်ဆို၏။
▁အာယု
="413
▁မပျက်
="393
အမွေး
="252
▁ဆရာဝန်များ
▁ဆင့်ခေါ်
▁ဒေါ်လာသန်း
လက်ရှိအချိန်တွင်
="425
=2003
▁Fe
="433
▁ထိုစဉ်အခါက
="434
▁ကွန်ဆာဗေးတစ်
ရွှေဝါ
="284
▁ဘာလင်မြို့
▁မိုင်းကောင်
="270
ရေးသားသူ
လဲလှယ်
ံသ
သည်ဆိုသော
ပြတ်တောက်
▁ရွှေချ
▁ဠ
▁ချီး
လည်းရှိ
ဘိုက်
ကြေကွဲ
ညွှန်ကြားချက်
ညွန့်၊
သမ္မတနိုင်ငံ၊
ပွဲစဉ်
="256
▁နှစ်ထောင်
ဖြစ်ရ
oot
="290
▁နဝမ
စားပွဲ
▁Kang
စီဒီ
ကောင်းလျှင်
ရုံးမှ
နှံ့စပ်
▁၈၉၆
ဘက်ကို
▁မောင်တော
မျှတ
▁ရေမျက်
="436
ဝင်းအတွင်း
="349
="427
GC
▁war
▁ဘုမ္မ
="400
ပျမ်းမျှ
="416
ဒီပလိုမာ
="397
▁ခြေချောင်း
မဲဇလီ
ရသည်ကို
ရုပ်ရှင်ပွဲတော်
▁၁၅၅၀
="419
="430
="381
ရဟန်းသည်
="431
▁ပြစ်တင်
▁အလက်ဇန္ဒား
="420
="1999
ဒဂုံ
▁လွှမ်းခြုံ
="383
▁ဆုံးဖြတ်ချက်ကို
media
▁မြတ်လေး
85
မီးရထားလမ်း
ာင်း
="384
="272
▁White
="377
▁သတင်းစာကို
သည့်ကာလ
စက်များကို
ပြိုင်ပွဲကို
="398
="379
▁အခြေပြု၍
▁ကရ
▁အာဖဂန်
="371
▁နှလုံးရောဂါ
ပြားရွာ
မှန်မှန်
▁မီဒီယာများ
ဟုယူဆ
များစွာတွင်
ရေတပ်မတော်
erry
▁ကျောင်းအုပ်
နေကြရသည်။
="374
လိမ်မာ
ubin
ဆွဲ၍
▁အိချိ
▁ဖွံ့ဖြိုးလာ
▁ထောက်လှမ်း
▁၂၀၆၆
My
▁ဖဆပလအစိုးရ
ပိုင်းမှာ
ဘေးအန္တရာယ်
▁၅၆၀
ဗန္ဓ
▁ဆာဗာ
▁ထောက်၍
ကြီးများဖြင့်
နှစ်စဉ်
▁လာဘ်ကောင်
▁စေတနာ့ဝန်ထမ်း
▁လျှောက်ထားသူ
▁ဗစ်
▁ပါတီစုံ
၏မြို့တော်
လွင်၊
▁ဘီအေ
▁2012
▁ဂျပန်တို့သည်
ming
="258
▁နတ်စင်
=277
="304
▁သရက်တောရွာ
ရိက္ခာ
ဦးနှောက်
▁စာရေးဆရာတစ်ဦး
="437
="1760
=1760
▁မွေးဖွားခဲ့
="1700
=1700
▁En
mann
=312
="432
အသင်းက
="405
▁စစ်ပြီးခေတ်တွင်
▁ဘုရားရှင်အား
ဖြတ်၍
="1732
=1732
="423
="1639
=1639
="278
လပြည့်နေ့
=262
="385
=439
▁Sal
ခံပြီး
="273
="1749
=1749
▁အလွန်အကျွံ
=410
=1817
="1817
="406
=435
pin
="1730
=1730
သယ်ယူပို့ဆောင်
=1990
="1898
=1898
=409
="1899
=1899
=412
="1818
=1818
▁ဦးမောင်ကြီး
=1562
="1562
=250
=367
=370
=1640
="1640
=259
=375
="260
=261
=392
=1731
="1731
=1615
="1615
=263
="1815
=1815
="229
="1891
=1891
=366
ခြင်းသာ
=438
="1690
=1690
=372
="226
=1992
=417
=365
=1787
="1787
=1887
="1887
="1767
=1767
="1710
=1710
▁အထား
=1708
="1708
=1670
="1670
=1704
="1704
=1649
="1991
=1788
="1788
=1991
="1649
=1897
="1897
=1987
=257
="1962
=1962
=1587
="1652
="1987
="1587
=1652
=1719
="1616
=1616
="1719
▁ဇနီးမောင်နှံ
=274
="1667
=1717
="1717
=1667
="255
▁တိုက်ဆိုင်
=415
=1988
="1735
="1988
=1735
=1847
=1857
="1847
="1857
=1862
="1862
="251
="1842
=1997
="1810
=1842
=1810
="1659
=1659
=1689
="1689
▁ပါတီမှ
=1741
="1741
="1699
="1733
=1699
=1687
=1733
="1687
=369
="1979
=1979
=264
=1592
="1592
=1555
="1840
=1840
="1555
=270
=1872
="1872
=399
="1786
=1786
သိပ္ပံနှင့်
="1789
=1789
=450
=395
="1682
=1682
="450
=378
="1585
="1797
=1585
=1797
ထုတ်ဝေခဲ့
▁အစင်း
=1552
="1552
="1740
=1740
=452
=1870
="1870
="452
=254
=1695
=1722
="1695
=457
=1678
="1889
=1889
="1722
="1678
="457
တပိုင်း
="1668
=1762
="1762
=1668
မအူ
="1877
="1802
=1802
=1850
=1877
="1850
=376
="1537
=1832
="1832
=1510
=408
="1510
=1537
=373
="1709
=1665
=1986
="1665
=1709
=1588
="1588
="1761
=411
=1761
စုံတွဲ
="1720
=1720
="1885
=1885
="1792
=1792
=396
=1727
="1727
="1734
=1734
=1618
="1618
=1865
="1865
▁မြို့ပိုင်
="1602
ဗိုလ်မှူး
=402
=1669
=1855
="1855
="1905
=1905
="1669
="1696
=1696
="1570
=1570
=404
="1939
=1598
=1939
="1598
=1936
="1936
="1952
=1952
=1977
=407
="1977
="1925
=1925
=1888
="1888
=400
=1999
=448
="448
=1716
test
="1716
="1958
=1958
="1564
=1564
=252
=1679
="1679
="1600
=1765
="1765
=253
=1993
82
=368
=440
=459
="459
="440
=1688
="1688
="1655
=1655
="1955
=1955
="1973
=433
=449
=1973
="449
="1798
=1798
="1522
=1522
=391
="352
=403
=1625
="1625
="1599
=1599
=1927
="1927
="1677
=1677
=272
=1938
="1938
=1920
="1920
=430
="1868
=1868
=445
=436
=1937
="445
="1937
=1886
="1886
=434
=1755
=1775
="1783
=1783
=1866
="1755
="1866
="1775
=1617
ကိုယ်ခန္ဓာ
=1715
="1617
="1715
="1968
=1968
=1835
="1835
=1758
="1683
="1758
▁Service
="1945
=1683
=1945
=1790
="1790
=1799
="1799
="1882
တိရစ္ဆာန်များကို
=1882
=455
=1581
=1559
="1581
=394
▁လုပ်ခဲ့သည်။
="1559
="455
="1759
="1819
=1819
=1759
▁လိင်ဆက်ဆံခြင်း
="1686
=1686
="1849
=1602
=1849
="1556
=1556
=397
="1805
=1805
=1839
="1839
=1629
="1629
="1518
=1518
="1825
=1825
="1808
="1707
=1707
=1808
="1673
=1673
ဗိသုကာလက်ရာ
="1970
=1970
=1982
="1779
="1982
=1784
="1784
=1779
=1845
="1845
=1904
=451
="1904
="451
=401
="1539
▁ကြောင်းကို
="1611
=1611
=456
="1654
="1542
=1654
="456
="1828
=1828
=1539
=1600
="1596
=1596
="1658
="1916
=1658
="1859
=1916
="1879
=1859
=1879
=1901
=1858
="1516
="1875
="1901
=1516
="1858
="2005
=1875
=446
=431
="446
=1701
=1980
=1921
="1921
="1701
=1961
=1967
="1967
="1554
="1726
=1726
=1554
=437
="1876
=1520
="1520
=1876
=1703
="1703
ဂဏ
=413
▁Big
=1650
=1811
နှစ်အထိ
=393
=1513
="1513
="1811
="1836
=1836
="1650
="1933
=1933
=432
=1519
=1928
=377
="1519
="1928
=1966
="1966
=1884
=1934
="1934
="1884
="1863
=1863
=419
=441
ရမိ
="441
="1514
=1514
=398
=256
="1553
=1553
="1756
=1756
=416
=1542
="1684
=278
=1684
="1547
=443
="443
=1871
=1826
="1826
="1871
=1846
="1846
="363
လုပ်ကိုင်သည်။
=2000
=1509
="1509
ီရိလင်္ကာနိုင်ငံ
="1664
=1664
=453
="1873
=1711
=260
="1711
=1873
="453
=1705
="1705
=1511
="1511
="1861
=1861
="1529
=1529
=442
="442
="1681
=1681
="1883
=1953
=1883
="1953
=1547
=1567
="1567
=1864
="1864
=258
="1583
=1583
="1854
=1854
="313
=1902
="1902
▁ဟိုက်ဒြိုဂျင်
=283
=285
=286
=329
=341
=344
=386
=387
=388
=389
=428
=429
သမဏဗြာဟ္မဏ
▁thrash
=1694
="1801
=1801
=444
အာရိယန်
▁ကွန်ကရစ်
="1694
▁ခလရ
="444
="387
=122
=1613
=379
=1713
="1613
▁မရှိသော်လည်း
="1713
="388
ကုတင်ဆံ့
▁ဒူဘိုင်း
ကမ္ဘာလုံးခြမ်း
="285
="418
="428
="389
="275
="429
="386
="329
=1693
="286
="1693
▁Apple
="1881
=1881
=273
ခြိမ့်
=1924
=1984
="1984
="341
="1791
="283
=1791
="1924
="1773
=1563
=1773
="1723
=1723
="1563
=1675
="1675
ပလို
="344
▁orbit
=1702
=405
=1803
="1803
="1949
=1737
=1751
="1702
="1751
="1737
=1949
="1880
=1880
▁နအဖ
=323
=1833
="1833
တစ်ခုဖြင့်
="1776
=1776
=1721
=1812
=1943
="1943
="1721
="1812
=1507
="1507
=1508
ဌာနသို့
="1508
=1793
="1793
=1674
="1674
=255
=1954
="1954
မြှား
="1662
=275
=1662
=1676
="1676
="1869
=1869
="1821
=1821
▁ဤငါးမျိုးတို့
=418
=342
="249
="1780
=1780
=1914
="1914
="1546
=249
="1829
="1584
=1584
=1829
=1981
="1981
သောင်းကျော်
=2005
=290
="1603
=406
=1738
="1738
=1843
="1843
="1745
=1745
▁Nor
="1831
=1831
=1591
="1591
▁တင်ထား
=1995
=1774
="1774
=1724
="1724
="1573
=1573
="2001
=1804
="1804
=1619
="1619
="1739
=1946
=1739
="1946
=371
="1763
=1763
="1533
=1533
="2004
▁Myit
ရုံမျှ
မြွက်
=1996
▁ပီး
ကြကုန်သော
▁only
="1913
=1913
=1594
="1594
=1903
="1903
="1744
=1744
=251
="454
=454
=1714
="1714
ြိ
တခါ
▁မရောက်မီ
▁ဆင့်ကဲ
=374
ဆန်းသစ်
=1893
="1893
=1994
="1931
=1931
="1521
=1521
=1546
▁ယွမ်
▁ပန်းခိုင်
="1844
=1844
=1661
="1661
="1764
=1764
=1814
=1571
="1571
="1814
ခြင်းမပြုရ။
▁ပန်းတိုင်
စီမံအုပ်ချုပ်ရေး
=1781
="1781
▁ပုပ္ပါး
ခဲ့ရခြင်း
လောဟု
=1603
▁ဟိုက်ပါ
ဦးဆောင်သည့်
တကား။
▁တစ်ကြောင်း
▁စိုက်ပျိုးခြင်း
▁သာစည်ရွာ
="52
=2001
▁အသက်ဆုံးရှုံး
▁grunge
▁၂၀၇၈
▁စံချိန်တင်
▁ကြွေးကြော်သံ
▁area
ကြာပြီးနောက်
တစ်သက်
▁ကောလိပ်ကျောင်း
▁တပ်ဆင်ထားသော
▁လုပ်ကျွေး
▁သုံးစွဲမှု
▁ရွက်နား
▁ပါရှိသည့်
မှိတ်
▁၈၁၀
=2004
▁၂၇၀
="1993
▁အလင်္ကာ
="1992
တစ်ပွင့်
▁အောင်သာ
▁ဒေါင်
ဘဲလ်
အဆင့်မြင့်
▁အငှား
▁စာအုပ်စာတမ်း
▁အကြာ
▁သတ်မှတ်ပြီး
="1961
▁ဒုစရိုက်
နည်းနည်း
▁အဲ့
▁ဝမ်နား
လွတ်လပ်သော
▁ပိန်းအင်း
မနေရ
="122
ကုန်သည်။
▁ရေမြေ
▁အနောက်ဥရောပ
ကိုးကွယ်သူ
▁ရေးသားသူ
▁တရုတ်အစိုးရ
ပတီး
="1990
နည်းအရ
="1986
="271
လိုက်ကာ
▁ခွဲခြားသတ်မှတ်
="1997
="1994
▁ဧရာ
▁ဖယောင်း
="2000
▁ရိုးမ
▁တင်ပြချက်
▁နိုင်ငံအလိုက်
စံပယ်
တိုကျို
ဘရှိ
▁ဗယ်
="1996
▁ကျွန်းငယ်
▁တပည့်များ
ဆုများ
="1980
မှုစနစ်
="1995
အုပ်ချုပ်ခွင့်
▁အိမ်သုံး
ပတ်ပတ်လည်
ခုနှစ်မှစ၍
="225
နေခဲ့ရသည်။
▁ယခုကဲ့သို့
▁မက်ဆီ
▁ရှိကြပြီး
▁ရှိသည်ကို
ရမည်ဖြစ်ပြီး
▁တစ်နှစ်တာ
သဒ္ဓမ္မ
▁မရှိ၊
တယ်လ်
ဖြစ်သကဲ့သို့
လွှတ်တော်က
သွပ်
တိုဘူတာ
▁၁၂၉၀
▁တန်ဖိုးထား
▁အရင်းခံ
▁၄၈၀
လုပ်သော
▁အင်းအိုင်
ဝန်ကြီးဌာနက
ပါမောက္ခအဖြစ်
="364
▁ချင်းတောင်
▁ရှေးခေတ်က
▁clo
ဂုဏ်ထူးဆောင်ဘွဲ့
နှစ်ခုကြား
▁ရပြီး
▁တေးထပ်
▁၂၀၄၉
▁မဟုတ်ကြောင်း
လူ့အဖွဲ့အစည်း
▁ပေါလ်
87
▁ကျက်
စောစော
▁လူအများက
စက်မှုလုပ်ငန်း
022
တေ့
▁ပလပ်
ရွှေကျင်
▁တစ်ရာ
mas
▁တရားနာ
▁၁၁၃
▁နိဿယ
အပွင့်
တခြား
▁သဖန်း
▁ဖျက်ဆီးခြင်း
▁ခွဲစိတ်ကုသ
ထားရှိရန်
ပါတီကို
အလဲ
အာဏာပိုင်အဖွဲ့
▁အပေါ်သို့
▁၁၂၆၅
▁ကောင်တီ
="323
▁ပိုင်ဆိုင်ထား
▁ဟားဗတ်
▁၂၁၁၈
နိုင်မည်ဟု
inda
=1638
="1638
ရာ့
တည်ခြင်း
သင်ပုန်းကြီး
သောက်သုံး
ငွန်
ထွက်ပြီး
လို့ရ
▁Zh
▁အချိန်အထိ
အာရပ်
▁ကျောက်ခေတ်
ကြာသော်
▁တစ်ည
▁ကာယဗလ
="268
LP
="1627
=1627
="305
▁လမ်းဘေး
=1816
="1816
=1922
="1922
="1672
=1672
▁မိဖ
=1610
="1610
▁ကျယ်ဝန်းပြီး
ဖော်စပ်
=1998
=447
="447
="1706
=1706
=1867
="1867
="1932
=1932
ပိုများ
="1566
=1566
oth
▁ကျေးဇူးတင်
="1985
=1985
ym
မြို့သစ်
ဝိစာရ
=1935
="1935
=1777
="1777
=352
="1837
=1837
="1752
="1772
=1772
=1752
နှိုင်းယှဉ်လျှင်
="1948
=1948
=1900
="1900
=1517
="1517
=1989
="1848
=1848
="1590
=1590
လက်ခုတ်
="1827
=1827
မြင့်၍
="1974
=1974
▁အဖြစ်အပျက်များ
ခံရသူများ
=304
=1560
="1560
ဝန်ကြီးများ
▁၂၂၅
="1807
=1807
="1595
=1595
=1820
="1820
=1621
လောက၏
="1621
="1530
=1530
▁ရိတ်သိမ်း
စီးကြောင်း
တင်ပြထားသည်။
="1944
=1944
=1582
="1582
="1671
=1671
=1830
="1830
▁×
=1915
="1915
မရှိစေရန်
=458
="458
=271
=1976
="1778
="1976
=1778
=1622
="1622
နီးနီး
▁Pop
="1923
=1923
=1471
="1471
=1956
="1956
ဦးစီးဌာန၏
="1728
=1728
=1929
="1929
▁ဖြစ်တဲ့
▁ရွှေပြည်သာ
အတောအတွင်းတွင်
▁အစိုးရဌာန
=1623
="1623
=1841
="1841
ငါးဦး
="1506
=1506
သလွန်
="1653
=1653
=363
=1896
="1896
="1463
=1463
ခွဲကာ
▁အွမ်
▁တနင်္လာ
="1630
=1630
=268
နယ်မြေဒေသ
ف
▁between
▁ပြိတ္တာ
▁ဗျင်းညား
=230
=287
=327
ဍ္ဎ
市
အာနုဘော်
▁ဒါမှမဟုတ်
0100200
="287
="357
="267
="327
=1971
="1971
="230
▁version
▁ကားသေ့
=305
="291
=267
=357
=330
=281
=282
▁Thong
=326
▁ကြလေသည်။
▁ဦးဘိုးလှိုင်
=1634
="1983
=1983
="1634
=1645
="1645
ချောင်း၊
=322
="1691
=1691
▁နမ့်ရှို
▁စစ်သင်္ဘော
▁ရာသီအလိုက်
="1834
=1834
▁ရောထွေး
မှုန်များ
▁ထီးနန်းဆက်ခံ
=364
="1605
▁ဇရပ်ဆိပ်
ရွှ
▁စိုက်ခင်း
ဂုတ္တ
အတိတ်
ိန္ဒု
=1605
ဂျပန်နိုင်ငံ
ပြထားသည်။
▁ဦးဝင်း
=1813
="1813
▁သော့
▁သန်လျင်မြို့
▁နန်စီ
_1
▁နတ်မင်း
▁ရှိနိုင်သည်။
ချေပ
="350
▁၁၀၄
▁Zee
▁သတ္တမမြောက်
စောက်ရွာ
▁တေးသွား
နစ်နာ
▁ဆုံးရှုံးမှု
ထွက်၏။
▁ဘောလခဲမြို့နယ်
▁ရှည်၍
ဆောင့်
လူမျိုးတို့က
▁လူမှုရေး၊
ima
ခူရွာ
▁cr
ဘရူနိုင်းနိုင်ငံ
▁ငါတို့၏
လောရင့်
▁စက်ကိရိယာ
ပွဲ၊
="306
ကြတာ
ပိဿာ
=291
▁၁၂၆၆
box
▁ခိုင်လုံသော
အသွား
▁စစ်ကောင်စီ
now
haw
▁မီးတောက်
ရောင်ရောဂါ
သတင်းကို
လာစေ
▁မြေပေါ်တွင်
▁ဂီတပညာရှင်
▁၁၂၄၅
ကွက်လပ်
အစုအဖွဲ့
ကျအောင်
ငယ်ကလေး
▁ပပျောက်
="1998
▁မင်းကြီးက
ပါတော့သည်။
ကျောင်
01530
▁တင့်
အပွင့်များ
ဦးတင်
နေထိုင်သည့်
▁ယုတ္တိ
="1989
ဖြစ်ထွန်းသည်။
ဟင်နရီ
▁ဂတ်
ကပ္ပလီ
▁သင်္သ
▁၁၁၂၉
▁၇၀၄
▁သတ်ပစ်
▁(7)
အားကိုး
="348
="266
အဆိပ်သင့်
္မာ
▁မာ့ခ်
="342
He
သူဖြစ်၍
စုဝေး
သက်ရောက်မှုများ
▁သက်တမ်းမှာ
နူးညံ့
▁သွားလာနိုင်သည်။
▁ရှီး
ရပေ
0170170
▁ဖွဲ့စည်းရန်
ငုပ်
လုပ်ပြီး
ပိဋက
▁ဓလေ့ထုံးတမ်း
မှု့
ရန်ကြိုးပမ်း
▁ချုပ်ကိုင်
ခြယ်လှယ်
တို့အဖို့
ပါစိတ်အာပတ်
▁ပြင်ဆင်ခြင်း
အချမ်းသာဆုံး
စာနယ်ဇင်း
မဆွတ်
="361
ဖန်တီးမှု
▁၂၀၉၁
အလာ
▁ပြည့်စုံခြင်း
၁၉၆၄
ပါနဲ့
ောင်း
အမိုး
ရမှု
▁အသက်ကို
နွေရာသီ
▁ဆူပါနိုဗာ
စော်ကား
▁ချက်လုပ်
မတ်စ်
▁ဆင်းသက်လာသော
မက်စ်
သိရသည်။
▁သာပေါင်း
▁ဇာတာ
▁၂၁၈၁
အရပ်ဒေသ
▁ကျောက်စရစ်
လုံးရွာ
ရိယာ
▁အထူးထင်ရှား
▁ငုံ
▁ဆရာများ
နောက်သို့
ပေါလ်
▁ထွန်းလင်း
▁မဟာမုနိ
▁ဖြေရှင်းရန်
CI
သို့ရောက်လျှင်
▁နတ်သျှင်နောင်
01001
▁နေရာဖြစ်သည်။
တဖန်
သွမ်း
ဘမ်
▁မလေးရှား၊
အငြိမ့်
form
▁ကောင်းကောင်း
▁ငယ်ရွယ်
▁အမှန်မှာ
▁ပြည်သူပြည်သား
လောက်သည့်
▁ကျေညာ
လေးကို
ခင်ညွန့်
▁ဖြစ်ကုန်
="330
နေကြပြီး
="281
▁စားသုံးကြသည်။
ဆဲဘူတာ
="1748
=1748
▁သံတောင်
▁အမျိုးသမီးတစ်ဦး
▁ပြုလုပ်ကြ
="282
ထားရှိပြီး
▁အတန်
="326
ဂ္ဂါ
မာတာ
▁ရောက်၍
▁၂၂၁၅
▁long
တွင်တည်ရှိပြီး
=313
မဏ္ဍ
▁လူကြိုက်များသော
▁၂၄။
ect
ပိုလို
အခမ်းအနားကို
▁ဗာရာဏသီ
▁ကြံ၏
="1960
=1960
▁နောက်သို့
=1892
="1892
▁QID
="1462
=1462
▁၃၉၀
=1568
="1568
ကျော်မျှ
=1957
="1957
CR
="1950
=1950
▁ငုံး
မျှလောက်
="1975
=1975
=1910
=1800
="1910
="1800
=1558
="1558
တတ်သည်ဟု
▁ထံသို့
="1978
=1978
ခဲ့ကြောင်း၊
▁မျိုးချစ်စိတ်
=1515
="1515
=1838
="1838
="1536
=1795
=1620
="1535
="1795
="1620
▁ကဆုန်လ
=1535
=1536
▁လမ်းတွင်
=1680
="1680
lie
ပုံတော်
="1597
=1597
=1919
="1919
="1565
=1565
=1561
="1561
=1729
="1729
=306
=1809
="1809
ဖွဲ့ကာ
▁နေတိုး
AT
gal
=266
BB
=1742
▁ကုသိုလ်တော်
="1742
="1712
=1712
="1550
=1550
ES
="1685
=1685
▁အလောင်းစည်သူ
▁Rathe
=1725
="1725
=2002
=1806
="1806
▁ရှာဖွေခြင်း
="1540
="1641
=1641
="338
▁ပီကင်း
="1624
=1624
=1656
▁ဖိုလ်
="1656
="1911
=1911
ရာစုတွင်
="1851
▁ကြုံတွေ့ရ
=1851
အရိုက်အရာ
="1959
=1959
ရုံများ
▁Hp
=1540
=1692
="1692
=1782
="1782
jpg
=320
=345
▁major
▁အစဉ်တစိုက်
▁အေဘရာမိုဗစ်ချ်
=231
=333
=334
ရောင့်ရဲ
▁အိန္ဒိယတိုက်ငယ်
="1771
=1771
="1969
=1969
0120090
="345
="320
▁မွန်းလွဲ
="333
="231
▁ပြည်လုံးကျွတ်
="334
ပြည်ထောင်စုသို့
MC
="1534
ဒိုင်အောက်ဆိုဒ်
▁စကု
=1534
▁ဘဲဥပုံစံ
=337
တိုက်ပွဲဝင်
=361
များရှိရာ
="1853
=1853
▁အယ်ဒီတာအဖြစ်
="248
▁လေးမြို့
=248
▁ဝမ်ဖွီး
▁တနည်းအားဖြင့်
မင်းသား၏
▁ဟူ၏။
=1951
="1951
aba
▁လင့်
="1874
=1874
=1523
="1523
▁အစုလိုက်
တကောင်
▁Cu
▁ခေါင်းကိုက်
▁မြေပြင်ပေါ်
=324
▁စာတတ်မြောက်
ဇဝန
▁ထင်ဟပ်
▁သရက်အုပ်
တော်မူပြီးနောက်
တစ်လမ်း
▁Yat
▁အားနည်းချက်
▁ထည့်သွင်းဖော်ပြ
▁ဇရပ်ကွင်း
မျဉ်းကြောင်း
များမှတစ်ဆင့်
="1604
▁စူး
Be
ထားခဲ့သော
ဆည်ရွာ
အလိုအရ
="307
ero
ets
▁၆ဝဝ
ကာလီ
="354
="318
▁၁၉ရာစု
▁ဈ
81
=1604
▁အမည်းရောင်
▁ရှိတတ်
တည်းဟု
လှ၍
▁Out
▁မရှိသဖြင့်
ယူနိုင်
lex
▁သေးသွယ်
▁၁၄၂၂
▁ဦးသောင်း
အငယ်စား
▁ရည်ရွယ်ချက်များ
စေတီတော်ကြီး
="276
၁၉၉၇
osa
▁Gar
▁ကမ္ဘာပေါ်၌
▁မနု
▁ခြေစစ်ပွဲ
ဆိုရာတွင်
ific
နွန်း
▁အရာများကို
သောကြာ
▁နားပွဲ
အဝန်း
▁လက်လွှတ်
onic
▁သက္ကယ်ကျင်း
▁သူတော်စင်
▁ဟော့ဘစ်
▁ထွက်ရှိခဲ့သည်။
▁မရှိကြောင်း
သင်္ဘောကျင်း
ဘွဲ့တော်
▁တစ်ပုဒ်
▁trans
▁သတ္တမတန်း
အဘ
ဝိတက်
▁ပေးအပ်သော
ဒဲလ်
မကြား
ကုမ္ပဏီ၏
="322
="2002
▁စေရန်
မိယ
hang
သူများမှ
▁နူ
၁၉၈၈
သောင်းကျန်း
▁၂၂၁၈
အတိုက်အခံ
International
အတ္ထုပ္ပတ္တိ
အပြန်အလှန်
နတ်ရွာစံ
ထောက်ပံ့ပေး
အံ့ဩ
▁စုတ်ယူ
▁ဤသို့အားဖြင့်
မျက်မှောက်
="360
▁အခြေခံဥပဒေအရ
ဖျက်သိမ်းခဲ့သည်။
အာကာသယာဉ်
ခြောက်ဆယ်
▁အဝန်း
▁မျော
▁ကိုရင်
ဖမ်းယူ
စစ်ပွဲအတွင်း
စကိုင်း
▁အထက်အောက်
ကြေးမုံ
ရဲရွာ
▁အစေ့များ
ချုပ်ဆို
▁အစစ်
၆၄၉၆
အငြင်းပွားမှု
▁အရှေ့အိန္ဒိယ
သစ်တောက်
စိုးဝင်း
▁ထူးချွန်ဆု
တန်းအထိ
▁အဖွဲ့အနွဲ့
ကျမ်းစာအုပ်
▁၎င်းက
="390
▁နေကြသည်။
ကုံးရွာ
▁ကင်မွန်း
ဇာတ်လမ်းဖြစ်သည်။
▁ထည့်ပေး
▁တစ်စိတ်
▁ဘယ်ဘက်
▁စတင်တီထွင်
▁ပေမှ
▁ကျင်းပခဲ့ပြီး
▁မာလ
ခီးကျေးရွာအုပ်စု
▁main
ဖွယ်ကောင်း
▁ခန့်အပ်ခြင်းခံရ
=350
TT
="337
vent
▁တည်ကြည်
အလတ်
ပြုလုပ်သည့်
="303
="315
ခင်က
မတ်လ
▁နွားမ
="1460
=1460
▁back
ဘုရားဟု
မာ့
ငယ်က
▁ဆိုးလ်
=1785
="1785
cell
အတွင်းပိုင်း
▁လေးယောက်
ဒီဂရီကောလိပ်
="1908
=1908
စီရင်ခြင်း
=1718
=1512
="1512
="1718
▁Bon
▁အပါး
="358
=1947
="1947
▁အသင်းသား
="1757
=1757
▁ဖလန်
ချီးမြှောက်
balu
▁ရေလွှမ်းမိုး
=276
=318
▁ဆန္ဒခံယူပွဲ
အသင့်
ရန်အလို့ငှာ
=1666
="1666
▁ပေးကမ်း
ဟုခေါ်သည့်
နေမည်
▁သူကြွယ်
ress
▁ဒိုင်ယာ
=1572
=1926
="1572
="1926
တပင်ရွာ
အားလုံးအတွက်
▁အရိ
="308
nan
=1577
="1577
stone
="1663
=1663
=1906
="1906
▁တိမ်ကောသွာ
▁အိပ်ပျော်
="717
=717
တရားတို့ကို
▁ဘန့်ဘွေး
=1593
="1593
မြို့တည်
▁အမြစ်များ
=1569
="1569
=328
ó
ဆိုပိုတေးမီးယား
▁04.11.2010
▁Language
▁မည်သို့မည်ပုံ
=321
=331
=346
အဖြာဖြာ
▁အစာရေစာ
ဖျဉ်း
="328
လေ့ရှိသည်
▁ရောဂါပိုးများ
=315
="346
="269
="1601
="316
="321
="331
="314
=325
=1586
▁indie
="1586
▁စုံထောက်
ရုပ်ကို
="1551
=1551
သမ်း
▁ပျောက်ကင်းစေ
ဟုခေါ်၏။
ရှိတယ်။
=303
=269
▁large
▁တယ်ပင်ဆိပ်
=316
▁လေဆိပ်အဆောက်အဦး
ငြင်း
တလျောက်
="1736
=1736
ult
▁ညီဖြစ်သူ
အခြေအနေအရ
=314
=1601
▁မိုင်းမန်း
ရေးဝန်ကြီး
▁ထိုစာ
နှင့်ချီ၍
▁အထူးတလည်
▁အခြားထင်ရှားသော
▁ဆိုလိုခြင်း
တက္ကသိုလ်သည်
▁ရောက်လျှင်
ဖိစီး
ဆေးခန်း
▁ညွှန်း
စာအုပ်များကို
▁နေစဉ်
="353
▁ပဒ
▁အမည်ပေးထား
▁၁၂၈၈
▁500
▁ခုတင်
ရေးဆွဲခြင်း
west
▁မြဝတီခရိုင်
▁ဟမ
▁နမ္မတူ
▁ဖွဲ့စည်းသော
▁ပွန်
နေထိုင်သူများ
▁မရှိသလောက်
ကျွန်းတော
▁ကိုယ်စားပြုသော
နယ်အတွင်း
လာကြသော
▁၁၂၈၂
ဗီဇာ
ရေးပါတီ
▁ထိုမှတစ်ပါး
▁၇၆၉
▁ပါဝင်ခဲ့သော
ဝင်ဆံ့
▁တွယ်
မော်ဒယ်
သည်မဟုတ်၊
▁တူသော
▁ထပ်တူ
တွင်ပါရှိသော
ထမ်
▁ဖြိုဖျက်
များနှင့်တကွ
▁တစ်ချိန်တည်း
တိလောက
ကယ်တင်
ပျို့၊
ရာကျော်
ခံလိုက်ရ
ျော
အစတွင်
၁၉၅၆
▁ရာဟု
နယ်ပယ်များ
ane
ကြီးကွင်း
ဖဝါး
="356
▁သံအမတ်
အသုံးအဆောင်
▁ကမ္ဘာနှင့်
▁မြစ်ဆုံ
နှုန်းသည်
▁လွှတ်တော်တွင်
▁၁၀၇
စသည်တို့ဖြစ်သည်။
မွေးမြူရေးနှင့်
စီမံကိန်းကို
နောက်ကျ
▁မူဝါဒများ
▁ဥပဒေပြုရေး
ဝေရ
▁ခုဖြင့်
ရာတွင်လည်းကောင်း
▁၁၄၃၁
▁အဆက်အနွယ်
▁ရေးသားခဲ့သည့်
▁သေခြင်း
▁စော်ကား
ခရီးသည်
="362
▁သခင်စိုးက
▁ဆင်တဲ
▁သျှ
ပေါ်လစီ
တစ်စုံတစ်ရာ
▁ဟေဂျားဘ်
ကျွေးမွေး
▁ဟိုက်ဒရို
ရရှိသူ
လုပ်ရပ်
မြော
သာမိ
ဘုတ်အဖွဲ့
00670150
ဂန
ညာဏ
▁တစ်နှစ်အတွင်း
ပွင့်လင်း
ကန
-18
▁တစ်ပုံ
▁လီဆူ
▁မောင်းထုတ်
▁ထိစပ်လျက်
▁ဆင်းရဲဒုက္ခ
စားသော
▁စာချ
▁Zin
ီယာ
လာတတ်သည်။
▁စည်းမျဉ်းများ
လှ၊
▁ဆိပ်ကြီး
▁မြေရိုင်းများ
မှီး
▁ကီလိုမီတာခန့်
▁ဦးဆောင်ခဲ့သည်။
▁ခရိုင်အတွင်း
▁စပျစ်
▁ဟူ၍ဖြစ်သည်။
="325
ပျော်ပါး
ဘင်္ဂ
GB
=307
ယေား
ကျပ်တည်း
▁အကယ်ဒမီဆု
▁၁၇၀
▁ကျောင်းသို့
▁အမေရိကန်လူမျိုး
▁ကျောက်ချောင်း
78
▁သွားသည်။
နှုတ်ခမ်း
▁Paul
ပြေပြစ်
ရေးစနစ်
="359
▁ပြေးလမ်း
ျဲ
ရွာသွန်း
="309
ထုတ်သည်။
▁time
၂၀၀၆
လာခြင်း၊
နှစ်ဆင့်
▁အရှို
▁ကာလကတ္တားမြို့
=390
=360
▁ရှေးကျ
▁သန်းမျှ
နူနာ
pon
=354
▁ဘုရင်စနစ်
▁မွေတော်
="1532
=1532
▁မြို့တော်၏
=358
="1972
=1972
ခွင့်မရ
▁ဂျပန်နိုင်ငံရှိ
▁ပြန်မ
▁တစ်ဦးက
ကိုလိုနီနယ်
▁နန်းရင်းဝန်
EA
Wa
တည်ဆောက်ခဲ့သည်။
▁ဆိုရှယ်
တပ်မဟာ
=1856
="1856
=1965
="1965
ဗယ်ရီ
မှန်နန်း
79
▁မြတ်စွာဘုရားက
▁ဘာလင်
ike
▁ထုတ်လုပ်သည်။
="1531
=362
=1531
="1501
အွတ်
=1501
=356
="1860
=1860
အင်အားမှာ
ကောလိပ်တွင်
ရုပ်ပွားတော်ကြီး
ကောဇာ
=343
▁ကူရိုဆာဝါ
▁စဉ်ဆက်မပြတ်
▁အတင်းအကျပ်
с
▁တဆက်တည်း
ကော်မီတီ
▁ဦးထင်ကျော်
=127
0120030
▁ဆက်နွှယ်သည့်
="343
▁မိမိနှင့်
ဆန္ဒပြပွဲ
▁ခရစ်သက္ကရာဇ်
▁ပေါင်းစပ်၍
▁Post
=359
▁တုန်ဟုန်း
▁လက်ဖက်ခြောက်
သူ့ကို
▁ကောင်းကင်ဘုံ
▁ထိုးသတ်
▁ရေနံစိမ်း
▁Islands
=1754
="1754
▁အစရှိသဖြင့်
ပေးနိုင်သည့်
meter
ဟရဘူတာ
▁အသိုက်ကို
▁သဘောမတူ
ဒိုင်းဘူတာ
▁ရေနံ့သာ
သီတင်းသုံးတော်မူ
▁ပျဉ်းမနားမြို့
▁၆၃၉
▁By
▁အိပ်စက်
ျပ်
▁Muse
လာရွာ
ထင်မြင်
အနုပညာရှင်များ
▁ကောက်ရိုး
ခြင်းစသည့်
▁၂၁၈၀
လိုသောကြောင့်
▁ခရစ်ယာန်ဘာသာဝင်
▁လိဂ်
သမားများက
="292
▁ကန်သာ
="319
▁ရခိုင်လူမျိုး
▁ခတ
▁ဘတ်စ်ကား
aga
မရဏ
▁၂၂၁၁
▁၁၂၄၄
ငယ်တို့
ဆယ့်ရှစ်
▁ရောက်လာသည်။
ညျ
ရာမြို့
▁၁၂၆၉
▁၁၂၈၃
▁စာရေးသား
▁ဂုဏ်သတ္တိများ
ဝိုင်းကြီး
ကောင်းစား
▁စားကျက်
▁နေထိုင်ရန်
ware
ဒွမ်
▁Glo
▁သန့်ရှင်းရေး
လိပ်ချောင်း
▁ပန်ဟုန်း
▁ပေစာ
▁မန္တလေးမြို့၌
ရတော့
▁ကရင်လူမျိုး
attle
သမ်
="355
0170180
▁၁၈၅
လော။
▁သပွတ်
▁၁၆၃
▁ခိုင်းစေ
▁၂၉၈
Li
="279
▁အာမခံချက်
▁မျိုးကွဲ
▁ကျွဲ၊
tch
▁more
▁သွင်းကုန်
▁ဝေါ်
az
ဂျိမဘူတာ
တဲ့အခါမှာ
=183
အပ
▁၄၀၁
="183
▁ငါးခု
▁ကျောင်းဆောင်
0170150
▁ပြည့်နှစ်အထိ
မြန်မာစာ
မွေးနေ့
▁မမြင်နိုင်
မဝ
နိုင်ခဲ့ပေ။
▁ပန်းပဲ
တခုလုံး
တွေ့နိုင်သည်။
ပေါင်းစပ်ထားသည်။
ကွဲလွဲ
သန္တာ
ဓိပ္ပာယ်ဖွင့်ဆို
▁Sub
▁Sir
New
ကွဲပြားမှု
ာနံ
သွားခဲ့ရသည်။
▁တာရာ
ပျောက်ပျက်
▁အင်းကြီး
▁ဆန့်ကျင်သော
▁ရုန်းကန်
▁ထိုစစ်ပွဲ
ဖြစ်လာ၍
မလွဲ
uri
▁သတင်းဌာန
▁အခြောက်
စစ်သူကြီး
▁သယံဇာတ
▁မြင်ကွင်း
▁၂၁၂၀
▁တိုက်ခန်း
ယာန
သရော
နေလေပြီ။
▁ချမ်းသာကြွယ်ဝ
ဩဝါဒ
ဆယ့်နှစ်
လှု
▁တစ်ဖက်တွင်
=308
▁မြို့တော်ကို
▁ရာစုနှစ်အတွင်း
အပ်သည့်
PU
ဒွင်
▁ဘီယာ
▁လိန်
▁၁၄၀၀
လုံး၊
ဖွယ်ကောင်းသော
▁လက်တင်ဘာသာ
▁Dan
ဆောင်ရွက်ပေး
ရေပူ
ings
တွက်ချက်မှု
မုရ
▁ကန
▁ဆုံးပါး
▁ရုပ်နာမ်တို့
200
▁အုံးပင်စု
စမ်းသပ်မှု
=1626
▁ဖြစ်ရမည်။
="1626
နိုင်ဖို့
▁အလုပ်မှ
=353
=309
▁ဒုတိယအဆင့်
ယ္
▁Shin
="1456
=1456
တမန်တော်
နည်းများကို
ခွဆုံ
▁နှစ်ပြည့်
ဥပဒေပုဒ်မ
▁ဖာဝေါ
▁ပြန်သည်။
▁ဤနေရာ
=319
="1852
=1852
="1465
=1465
▁၉၈၀
▁ဗြိတိသျှအစိုးရက
လည်ကောင်း
ချင်းစီ
▁ဆက်သွယ်ရန်
ချက်လုပ်
မြန်မာနယ်စပ်
▁မွေ့
▁ပါတယ်။
နာမ်စား
▁ကလေးမြို့
▁ဂျော်
▁ကုန်းဆာရွာ
▁Br
ui
▁မူးယစ်
=336
‍
▁second
▁အဆမတန်
▁မှီငြမ်း
▁House
တတ်တဲ့
▁သုတ်လိမ်း
Electro
▁အဖူး
ဖလဒါယကထေရ်
=292
="336
▁တားရော့
နှစ်သား
▁Class
▁အင်းတရော်
▁စည်းကြပ်
▁Temple
▁ယေဘူယျအားဖြင့်
▁ဗြိတိသျှဘားမား
▁သတ်သေ
▁မိုင်းဟဲ
ဥက္က
ခြင်းမပြုဘဲ
▁ရေးခြယ်
▁မိုင်းနင်း
="127
မ်ား
▁ကွယ်လွန်သူ
="1541
▁မှတ်ဉာဏ်
▁ပျဉ်းမကုန်း
မိပြီး
▁ဥပဒေနှင့်အညီ
▁wave
▁သန်လျက်
▁လေလံ
idae
၁၂၀
▁ရော၍
▁ဝါတ
▁၁၁၁
ဖြူဖြူ
သမ္မ
▁ဗညားဒလ
▁ကွန်မြူနစ်ပါတီ၏
▁ဧရာဝတီမြစ်၏
=1541
Lo
လိပ်စာ
▁ပန်တျာ
▁ငွေတံဆိပ်
မပြေ
ဘာသာတရား
▁ဖြစ်ကုန်၏။
မက်မော
▁တကြိမ်
▁မိန့်ဆို
မရှိခြင်း
တော်သူ
ရက်စွဲ
မြတ်စွာဘုရား၏
▁မဂို
▁နာရီခန့်
ရစေရန်
▁Pra
▁အလျားလိုက်
သောအသံ
လုံးမှာ
▁၁၂၄၇
▁ဣန္ဒြေ
▁ကစားသူ
တုံကျေးရွာအုပ်စု
▁ဟန့်တား
▁ဝတ်ဆံ
▁အလားတူပင်
ဟန
▁သတ်ဖြတ်ခြင်း
▁ဆိုးလ်မြို့
မင်းဆက်၏
ခရိုင်၏
ထိုင်းမှိုင်း
ချုပ်နှောင်
▁မန်ကပ်
▁တွင်းနက်
အကြို
ပြောရလျှင်
▁card
အစဉ်အလာအရ
▁ပြန်ရောက်လာ
၌ဖြစ်စေ၊
▁စိုစွတ်သော
ရက်စက်ကြမ်းကြုတ်
လမ်းမှ
အပတ်
▁အံ့
▁ရန်ကုန်တွင်
ပေးသောအခါ
▁သင်္ဘောဖြင့်
▁၈၄၉
များအကြားတွင်
="351
▁သာရ
▁သောကြာနေ့
စာဆိုတော်
▁အဝိဇ္ဇာ
▁Mil
မရှိပါက
▁Cal
EP
▁ဒေသဖြစ်သည်။
ပြတ်ရွေ့ကြော
▁ဝိနယ
နားကျေးရွာအုပ်စု
ငယ်တစ်ခု
ပေးခြင်းနှင့်
▁Men
▁လုပ်ပိုင်ခွင့်၊
များလည်းရှိ
ဆက်ဆံမှု
▁Hol
▁မအဲဘူတာ
စံနစ်ကို
တစ်ချက်
တစ်ယောက်ဖြစ်သည်။
▁ဗဟန်း
ရရှိပြီးနောက်
▁ရောက်သော
="310
ပေါက်သော
=180
="180
ရှိနေသေး
▁လက်ဝါးကြီးအုပ်
အသံလွှင့်
နတ်ရုပ်
ကံပေါက်
အဖွဲ့ခွဲ
ချမ်
▁နည်းတူ
▁ဆားချက်
သွန်းလောင်း
ငွေများကို
ဂျော်
▁ထင်မြင်ယူဆ
အစိုးရအဖွဲ့၏
အခွင့်အရေးများ
အဖြစ်ပြောင်းလဲ
▁ကြားသိရ
▁စွမ်းဆောင်ရည်
▁အလုပ်အကျွေး
တိုးတက်ဖွံ့ဖြိုး
▁လက်မအထိ
rum
▁စောင့်ရှောက်မှု
▁စာချုပ်ချုပ်ဆို
တောင်နှင့်မြောက်
တယော
▁ပါဏဗေဒ
▁အသုံးပြုလျက်
စောင့်ထိန်း
အစီအမံ
၂၆၅၅
ကြိုးများ
▁ကူညီရန်
အချက်အချာ
▁ပညာသင်ဆု
ဗာရီ
ငှားရမ်း
▁လယ်ကြီး
ခဲ့မှု
ပုခက်
ုး
▁၂၂၀၉
အဖြစ်၎င်း၊
အလှမယ်
ညီလာခံတွင်
ရေဝတ
▁ဝန်းကျင်တွင်
▁Thin
တွင်းရွာ
ပြေးဆွဲ
ခဲ့သူလည်း
▁ထံတွင်
▁ဖြစ်လာခဲ့ပြီး
▁စသည်များ
များ။
▁Van
=279
▁စီ၊
ဧပြီလ
တို့ကိုပါ
▁နှုတ်ထွက်
ဦးထုပ်
မေ့လျော့
များထဲက
▁အယူအဆများ
ပြီးပါက
▁မဟာဓမ္မ
ယူထား
▁ရေထု
ထူးခြားသော
ဆိန်
▁လေ၊
▁ဗလာ
ပန်ကော်
="1907
=1907
ငင်းရွာ
=355
ရပ်ရွာ
itis
၂၀၀၁
▁ဖြည့်ဆည်း
▁အိုလံပစ်ကော်မတီ
▁ဖြစ်မြောက်
လာသည်နှင့်
▁မမြင်ရ
▁သင်္ဂ
ယူဆောင်
=1909
="1909
▁ဗုဒ္ဓမြတ်စွာ
ဖြတ်ကျော်
="1918
=1918
▁လက်တံ
▁၂၃၃
ရောဂါပိုး
ရောင်းဝယ်
▁ရုပ်ရှင်လောက
တိုက်ခိုက်ရာ
▁Record
▁ဆိုးဆေး
ကုက္ကို
=1878
="1878
ery
ဇေယ
▁ဖြစ်ခဲ့လေသည်။
ချိုးဖောက်မှု
အငြင်းပွားဖွယ်ရာ
▁ဖေါင်
=339
▁Buthidaung
▁Kyaukpyu
▁ပိုတက်ဆီယမ်
▁အမြဲတစေ
ပရိက္ခရာ
▁အေအိုင်ဒီအက်စ်
▁နျူထရွန်
▁မေဆွိ
="339
=351
▁ပင်လယ်ဓားပြ
▁ဘုရင်သည်
▁အရာဝတ္တု
ဘု၊
ဆမ်း
▁ကြယ်တာရာ
▁ပြစ်ဒဏ်ချမှတ်
▁ဇာတိမာန်
▁ရွှေဟင်္သာ
ဂေဇက်
စိုထိုင်း
▁အရွက်သည်
▁မဟုတ်ပဲ
baung
▁ဇာတ်တော်
▁အနတ္တ
▁အစဉ်အတိုင်း
ပြည်သူလူထု
▁အခါ၌
▁ဗိုင်း
▁ရွံ့
▁တိုင်းပြည်များ
▁ကျီဝန်
▁ဒေလီ
▁စင်စစ်အားဖြင့်
▁ဖုံ
လက်မခန့်
▁၄၂၉
▁ယိုးဒယားနိုင်ငံ
▁ဘုရင်များ
ပါဝင်ကာ
နန်းတွင်း
▁လုပ်ပေး
▁ငယ်မည်
Ca
ပြင်းထန်သော
ချောမော
▁နတ်ချောင်း
ရိုးရာယဉ်ကျေးမှု
▁ဟန်လင်း
▁နှစ်သိမ့်
▁၁၈၁
▁သရက်မြို့
▁အဿ
▁ပေ၊
ကြီးမျိုး
လုံးကျွတ်
2017
ထွက်ကုန်
▁စေတီတော်တစ်ဆူ
▁မဟာဝိဇ္ဇာဘွဲ့
▁၃၃၁၁
▁ဤနေရာတွင်
▁၁၂၉၇
ကျော်လွှား
ကုမ္ပဏီက
88
▁အမဲသား
▁ပျော့ပျောင်း
="96
များရှိ၍
မှတ်တိုင်
▁ဆေးရွက်ကြီး
ခန့်အထိ
သာမန်
hara
▁ra
▁၁၂၁၃
▁ကထိန်
ပြောဆိုခြင်း
▁၁၃၂၅
မြစ်ဝှမ်းဒေသ
ဦးမည်
▁စောက်
▁ပုသိမ်ခရိုင်
▁ခိတ
ဂျဲ
▁ဝဋ်
▁ဂီတစာဆို
▁မီးယပ်
ခြောက်သွေ့
▁သိပ္ပံဘွဲ့
▁၁၂၉
▁အသုံးပြုပါသည်။
နေမျိုး
▁ရေ၏
▁ဘဏ္ဍာရေးနှင့်
ဖျော်ဖြေမှု
မပြ
တည်ဆောက်ရန်
="311
အမျိုးသားကျောင်း
sky
ရီယယ်
တရော်
အာခါ
▁စသူတို့
▁ဘုရား၏
="302
နီနီ
="324
ရေးလှုပ်ရှားမှု
▁ကျောင်း၌
▁အရွက်များသည်
=172
="172
▁ယုံကြည်သူ
=175
တစ်ပတ်
="175
=177
▁ခံနိုင်
="177
ခွင့်မရှိ
▁ဧရာဝတီတိုင်းဒေသ
▁နတ်တို့
မကွာ
dom
ိုင်
▁ခရစ်စမတ်
▁မအူကုန်း
▁သီချင်းသည်
တို့ထံတွင်
▁အရေးကြီးဆုံး
▁Up
▁ပလ
▁၂၁၇၂
အကဲ
="317
▁Fin
ကြ။
▁ဖန်ခါး
ဆုံးရှုံးမှု
▁Top
ပြားများ
▁အခြေခံထားသည်။
▁လုပ်သည်။
ဌာပနာ
ကြိယာ
▁ကျမ်းပြု
မိုးရေချိန်
နားတောင်း
ထွက်လာသော
▁တောင်ထူထပ်
ဟာလည်း
▁ပြည်ပသို့
025
ချန်ပီယံရှစ်
ကျောင်းဆောင်
မူဝါဒများ
တဲစုရွာ
ခြိမ်းခြောက်
▁ဘဂဝါ
အရှေ့ခြမ်း
မွေးမြူခြင်း
ထုတ်လုပ်နိုင်
ဇီးကုန်းရွာ
ရရှိထားသော
▁ဂုဏ်တော်
▁အစစ်အမှန်
ငိုက်
▁ဖွဲ့စည်းပြီး
=310
▁၂၅။
▁၂၆၈
နေသာ
▁စာပေဆိုင်ရာ
မှီဝဲ
=1015
မကြာ
="1015
ဆင်ဖြူ
ved
ကြီးထွားလာ
▁အစိုးရအား
▁ပုရိ
▁ရေးသားခဲ့ပြီး
ဖရန်
မန္တလေးတက္ကသိုလ်
▁ဦးအေး
ပေါက်ဖွား
▁Charles
▁မော်တာ
▁သဇင်
▁ဖြစ်လေ
▁ထင်ရှားလာ
▁ဂင်္ဂါမြစ်
မှာရှိတဲ့
▁ဒါရိုက်တာအဖြစ်
▁ဆင်းသက်လာခြင်း
ရပ်ကွက်၊
▁တစ်ဖက်နိုင်ငံ
bil
▁ခန့်မျှ
nch
▁မိခင်၏
▁ထိုက်
=302
▁လက်ထက်၌
▁ချို့တဲ့
=317
ငယ်လေးများ
စေတီတော်သည်
ikkyi
=1930
="1930
▁အင်းဝဘုရင်
="1455
=1455
pre
▁စသည်တို့မှာ
▁စိတ်ကြိုက်
▁တောင်ငူခရိုင်
နိဿယ
▁ဝိုင်းရံ
▁ဖစ်
▁တစ်စက္ကန့်
ကွန်ဗင်းရှင်း
▁ဂျားဗားကျွန်း
=332
ဟွတ်
▁ဝိုင်းလ်ဒ်
WHO
=119
▁စတီဖင်
▁တံသမ္ပယုတ္တကာ
▁စုန်ဆင်း
▁Ltd
="332
▁ကလိုရင်း
စလို
="488
▁ထိုဘုရား
▁မသိရပေ။
="1469
=1469
ဖြိုခွင်း
▁အော်ဟစ်
ရာစုခန့်
ထိန်းချုပ်ရေး
တရဖျား
ipaw
▁ရွာပုလဲ
▁သူ့ဖခင်
▁ဇာစ်မြစ်
ဂျွန်း
လတ်၊
▁တစ်ခုဖြစ်သော
=488
▁ရဟန်း၏
▁လိုသလို
သွားသောကြောင့်
သေး၍
▁ဘုန်းတန်ခိုး
▁သုဓမ္မာ
▁ညောင်ဝန်း
anda
▁တောင်တွင်း
ယဉ်ပါး
▁အမေရိကန်တွင်
▁ဦးထွန်းရှိန်
▁Cho
တစ်ယောက်အဖြစ်
ists
တိုင်းလိုလို
အမှတ်အသားများ
ရင့်ကျက်
ကြည်၊
▁year
▁ပျ
▁ဗမာနိုင်ငံလုံး
▁7-
လှုပ်ခတ်
▁ယဇ်ပူဇော်
▁Ann
၁၉၉၅
▁ဖြောင့်
▁ဝက်တိုး
▁မြန်မာပြည်ကို
ဖေါ
▁ကြီးကြပ်မှု
တောင်ပိုင်းနှင့်
▁အိုင်တီ
▁ပိုးကောင်
▁အသီးအရွက်
▁ငါးကြီး
ထားပေသည်။
▁လင်းပိုင်
ထည့်သွင်းထားသည်။
▁၆၁၂
တစ်မြို့
▁အပြေး
ကော်ဇော
▁ကိုယ်တွေ့
bb
▁ပူတာအို
အသျှင်ဘုရား
▁နွေအခါ
ယီး
သို့ဝင်
သဗ္ဗညု
▁Pale
▁တစ်သောင်း
ချိဂို
▁ဟာရှယ်က
▁ဖြ
▁ဇာတ်ကွက်
zan
▁တိုက်ထုတ်
လုပ်ငန်းများမှာ
ban
လူမျိုးများက
-4
ဖွံ့ဖြိုးရေးပါတီ
တာလဲ
▁တစ်ခါက
၏အရှေ့ဘက်
▁နမ္မ
ဝိနည်း
▁ဖြစ်ပေါ်လာပုံ
▁ရွှေတိဂုံဘုရား
▁လယ်တီဆရာတော်
မိအောင်
နုံ
သတိုး
▁ဒိုးတန်း
တဆင့်
based
အဆောက်အဦးများ
ပစ္စယော
များဖြင့်သာ
▁အောက်တိုဘာတွင်
▁သမန္တ
မွန်ရွာ
▁ချယ်
kha
သားသမီး
▁တမံ
talin
▁ရှိသမျှ
ball
ကောင်းအောင်
=179
▁ဦးမင်း
လှိုင်၊
="179
▁လွန်မြောက်
သဲကုန်းရွာ
▁မျိုးစိတ်ပေါင်း
ပြီးချိန်တွင်
▁လုပ်ရန်
မဂ္ဂင်
▁ဦးတို
▁မည်သည့်နေရာ
▁ကြာရှည်စွာ
place
ကုန်ထုတ်လုပ်ငန်း
ဗော့
စမှတ်
▁စို
တိုးပွားလာ
သည်သာလျှင်
ရလောက်အောင်
▁နေထိုင်ခဲ့ကြ
▁ထိုပွဲ
မီးတောင်
▁ဂါး
▁စည်းကမ်းချက်
▁ကုဗ
▁၁၁၆၄
၁၉၉၂
သက်ရှည်
RA
▁ကျင်းပခြင်း
▁နေနှင့်
▁Pen
▁လုပ်ဆောင်ရန်
▁၉၅၉
▁ကာကွယ်နိုင်
‘
ကမ္မဋ္ဌာန်း
မွတ်စလင်
တွန်းလှန်
သဲကန္တာရ
အသီးအသီး
▁ဂျာနယ်လစ်
▁ကျောက်စာများ
ချီးကျူး
ခံစားခဲ့ရ
▁၂၁၆၇
၁၉၈၉
▁ဘန့်
=144
မီးရှို့
ပြုပြင်ခြင်း
လိမ့်မယ်
သို့ပြန်လာ
ဝမ့်
အလယ်စုရွာ၊
▁ဤကျမ်း
ချို့ယွင်း
▁အချိန်ကြာ
ကြည့်ပါ
▁ဂျပန်လူမျိုး
နှမ
▁မည်။
▁အားကစားသမားများ
▁Ran
=311
စပိန်
=1036
မြို့အဖြစ်
SC
="1698
=1698
="1036
▁you
▁သမိုင်းဆိုင်ရာ
ဆုတံဆိပ်
▁တစ်ပေ
="1450
=1450
▁သေနာပတိ
▁အပေါ်မှ
kar
စိုက်ထူ
▁၄၅၃
အကြား၌
▁ပညာရပ်ဆိုင်ရာ
▁သူတို့အား
မှာလဲ
▁Australia
=1059
="1059
ရှေ့တော်
▁ကိန်းဂဏန်း
တစ်ခြမ်း
ခြင်းတို့ဖြင့်
ကျမ်းဂန်များ
="1940
=1940
တရုတ်နိုင်ငံတွင်
▁၁၂၁၄
အောင်နိုင်
▁သိနိုင်သည်။
▁emo
ပြဿနာကို
▁အားရ
ဂျိုင်း
တစ်ပါးဖြစ်သည်။
▁ပေါက်ကုန်းရွာ
မှားယွင်း
ပေးရာ
အလုပ်ရုံ
▁Cas
tkai
နှစ်ခု၏
▁ကာလီဖိုးနီးယား
အကျော်အမော်
▁အမြင့်မားဆုံး
0120020
▁Project
▁၅ဝဝဝ
ပေတရု
0070030
နှိုး
နာမည်ပေးခဲ့ခြင်း
ကွန့်
▁ဘန်းယဉ်
▁ဖတ်ကြား
▁ကြခတ်
▁သုံးရက်
▁Kyet
လိုက်တယ်။
▁လစ်လပ်
▁acid
="119
စွမ်းအင်ကို
▁အတည်တကျ
ဟုခေါ်ဆို
ဘက်လိုက်မှု
▁Gyo
သုံးထောင်
▁Pya
▁တင်းနစ်
ကြီးများမှာ
လာရီ
▁၂၈၀
▁ဦးဘဂျမ်း
ရုပ်ကြွ
များဆီသို့
▁အမြင်အာရုံ
2011
rror
▁ဒေါင်းဒင်္ဂါး
ဇစ်မြစ်
ညီညီ
တည
▁ဆေးခန်း
▁အတိုး
▁ဒပ်ချ
▁ဘလော့
ဇီးယား
သုန္ဒရ
▁ဆေးဝါးများ
▁စက်တင်ဘာတွင်
ister
လှိုက်
လေးဆူ
နှစ်ပင်
ဒုန်
ခန့်မျှ
▁ကတိုး
ခံကာ
▁နေရာများကို
▁နိုင်၏။
▁မရမ်းချောင်း
▁မြို့မရပ်ကွက်
▁စာများ
▁မိုင်ခန့်အကွာ
လယ်သမား
ပြီးသည်နှင့်
▁အရှေ့ဘက်ရှိ
▁ဦးချစ်
▁မြေနု
▁Loc
▁ယိမ်း
iti
▁အမျှင်
ကော်မတီကို
ရှမ်းစုရွာ
မပါဝင်
နုရောင်
စပီ
▁မပြုနိုင်
မလွတ်
▁မာန
▁ကွင်းကလေး
မနား
ရုပ်အလောင်း
▁ရယူနိုင်
019
▁ကျုံဖါး
မကျေ
ကန်တော့
အထက်တွင်
▁မာရ်
ပါးလွှာ
သေဆုံးမှု
မပေးနိုင်
ဓာတ်အား
ရုပ်ရှင်ဇာတ်ကား
▁ရူပဗေဒပညာရှင်
ဂရင်း
ပြုလုပ်ကြသည်။
▁ချောင်းကြီး
="200
သည်မှစ၍
action
▁အကျင့်ပျက်
ရွေးချယ်ခံရ
ကိုးကား
ဒေသနာတော်
▁ထုတ်ဝေခဲ့သော
▁ဆန်စက်
ဆက်နွယ်
ထင်ပေါ်ကျော်ကြား
သေဆုံးပြီးနောက်
ဂျေး
သည်ဟုဆိုကြသည်။
အင်ဒီ
တည်ဆောက်ခဲ့ခြင်း
သိမ်တော်
▁Hill
▁မပါရှိ
▁ဖန်တီးခဲ့သည်။
▁နည်းပြဆရာ
အတူတူ
ora
ကောင်စီဥက္ကဋ္ဌ
▁မုဆိုးမ
▁တစ်နေ့တွင်
▁Thing
ဖွေး
iss
▁Bay
▁ဘောဂ
▁Buddhist
ဗီဇ
▁George
▁အရာရာ
▁လူနာများ
သမ္ပ
တမြို့
ava
တပ်ဆင်ထား
74
▁ဖြစ်လာပြီး
နေသေး
အကျော်
ခြေတော်ရာ
လုပ်ငန်းမှ
▁ရောက်ရှိခဲ့ပြီး
၁၉၉၁
▁ဒွေး
လူမျိုးနှင့်
ပြားပြား
▁ကျူးဘား
To
OR
ons
ထိတ်
တစ်ခုအား
အသံကို
uth
ပြုစုခြင်း
သူဇာ
ခိမြို့
▁လွတ်လပ်ရေးရရှိ
▁သာသာ
▁စစ်ပြေငြိမ်း
▁ဘွဲ့ကြို
များဖြစ်၏။
▁ချပေး
စစ်တပ်များ
▁နေအိမ်တွင်
▁အဖျက်
တိုင်းမှူး
▁ဖြစ်ကြသည့်
မွန့်
▁အန္တရာယ်များ
နမိ
အတွင်း၌ပင်
လိုဏ်ဂူ
▁ဖွံဖြိုး
စီမံခန့်ခွဲရေး
▁အထောက်အပံ့ပေး
▁Inter
ကျယ်ကျယ်
▁မြင်းဝန်
တစ်ဆောင်
▁၁ရက်နေ့တွင်
▁Er
bur
အိုလံပစ်ကော်မတီ
▁ပယောဂ
▁လာအိုနိုင်ငံ၊
▁ငွေကျပ်
ပေါင်း၍
သိင်္ခ
အထ
ရရှိနိုင်သော
▁အလယ်ကျွန်း
လေ့လာခြင်း
▁သက္ကတဘာသာ
ဘတ်စ်
▁၃၅၉
ရှဉ့်
နေသည်မှာ
▁ရံ
သလ
ခမ်းနား
ငါ့သျှင်
သိရှိနိုင်
▁သေးသည်။
စက္ခု
ညနေ
▁ဖြစ်လာသော
▁ဝီကီပီးဒီးယား
▁သောင်ကြီး
▁ဗျူဟာ
ကြောက်ရွံ့
ပြောက်ကျား
စစ်တွေ
▁ရဟန်းဘဝ
▁Val
ရဲအောင်
▁စင်တာ
▁ကြိုတင်ပြင်ဆင်
mail
ပူဇော်ပွဲ
▁နရပတိစည်သူ
▁အညွှန်း
▁ပူးပေါင်းပါဝင်
▁ဘုရားဖြူ
▁ဟမ်း
▁ဆင်ခြေဖုံး
အသစ်တစ်ခု
qua
▁တစတစ
▁သဒ္ဒ
ကောင်းကျိုး
▁ထိုစက်
၁၉၉၀
မေရီ
▁ရက်အတွင်း
အကွာ
စွဲလမ်း
အဆိုအရ
▁ဝင်ရောက်စွက်ဖက်
▁ကျခတ်
ကလာပ်စည်း
▁အယောက်
▁အခြေအနေမှာ
ကိုပြန်လည်
▁လုပ်နေ
ရရှိမှု
▁ထိုင်နေ
ညူ
ခွာ၍
အိုင်ကြီး
▁စစ်အုပ်ချုပ်ရေး
▁အရှင်အ
▁နွား၊
▁ဟန
▁ချင်းတွင်း
စတုန်း
တောအုပ်
တစ်ယောက်က
▁မိုးခေါင်
တုံ့ပြန်မှု
ထားလေ့ရှိသည်။
မြင့်တက်
တစ်ဦးအနေဖြင့်
ဂုဏ်ပုဒ်
=1468
="1468
ချေမှုန်းရေး
▁၁၅၉၄
ကြမ်းတမ်း
tel
အမွှာ
ကျင့်ထုံး
ပရိဗိုဇ်
▁တသီးတခြား
▁ပါလောပါကယ်
▁သခင်ထွန်းအုပ်
▁အက်စ်အက်စ်အေ
=118
▁ပန်းတနော်
အပြန့်သရ
▁ပရိုတိန်း
▁လူနေအိမ်ခြေ
="710
=710
ပေါင်းသင်း
▁such
="118
▁ငါးရှဉ့်
▁ဒစ်ကင်း
▁some
Ja
▁ဒေါင်လိုက်
ဥတု
အရှိန်အဝါ
▁ဥဿ
ဂိဘူတာ
▁ဆောင်းခို
▁Naung
▁မိုင်းသောက်
▁Ton
သားဖြင့်
တစ်ယောက်ကို
▁မိုင်းဇင်း
▁ဘစ်
▁ပန်ကြူ
ဝန်ခံ
စင်စစ်
▁လူကြီးများ
အနိမ့်အမြင့်
▁ဓမ္မတာ
▁၁၀၉
▁ဖျက်ဆီးပစ်
▁အပူရှိန်
▁များအတွက်
ကြည့်ရန်
▁လျော့ကျ
▁ဘွဲ့ထူး
▁၈ဝဝ
ရည်၊
ချိုက်
▁ဗကပနှင့်
▁ဗောင်း
▁လောင်းရှည်
▁အကြီးတန်း
▁ထန်းကုန်း
▁စပ်လျဉ်းသော
လှသောကြောင့်
▁အဓိပ္ပါယ်
ထက်တွင်
▁ယဉ်ကျေးမှု၊
="1002
▁ဘာသာရေးနှင့်
▁၂၂၀
ept
▁သနပ်ပင်
ဓာတ်ပြု
၁၉၆၆
▁တစ်ကြိမ်လျှင်
ဒင်္ဂါး
ull
▁ပြစ်မှုကျူးလွန်
tre
▁လုပ်ငန်းကြီး
eus
▁ဘရန်
▁ထဲမှ
▁ရှဉ့်
▁ကျောင်းနေ
▁နောက်ပါ
▁ဧကန်
▁အခါက
▁ခုနှစ်ခန့်တွင်
▁သာလျှင်
မှုရှိသည်။
rich
မှန်ကင်း
ကောင်းသူ
▁မန်ကျောင်း
အချိန်များတွင်
▁အခွင့်အရေးကို
▁ခရို
▁ကြီးသော
▁ဖော်ပြသည့်
ရရှိစေရန်
▁ထိန်းချုပ်နိုင်
▁၂၉၀
▁လူတစ်ဦးချင်း
▁ခရီးလမ်း
စနစ်တစ်ခု
▁မနာလို
ကြပြီးနောက်
ဇိန်
ရူပီး
▁စစ်တပ်က
ကို၎င်း
▁သတ္တဗေဒ
▁အကြောင်းအရင်း
▁ဦးအုန်း
▁ကြီးမားစွာ
ဆရာတို့
▁ကားလ်
▁မှာကြား
တန်ရွာ
▁ဘာမျှ
▁အချက်များကို
▁အယ်လီ
▁ကာလပတ်လုံး
နုဂ္ဂဟ
ဟောကိန်း
▁စိတ်ထဲ
ပြုလုပ်ရာ၌
▁မြန်မာမင်းများ
▁ကလေးဘဝ
▁၁၃၀၆
▁မြို့တော်အဖြစ်
စီပီ
အစင်း
▁ခွင့်မပြု
▁မှတ်ချက်ပြု
▁ဝယ်ယူခဲ့သည်။
▁နေထိုင်သည့်
▁သံချပ်ကာ
▁တိရစ္ဆာန်ဥယျာဉ်
တစ်စောင်ကို
နှီးမြှုပ်နှံသူ
သွက်
▁၇၄၇
▁ကြီးကျယ်သော
▁ဘာကြောင့်
="265
AO
▁လေးအိမ်တန်းရွာ
▁ဝမ်းဘဲ
▁အရှေ့ဘက်သို့
▁ယူဆောင်သွား
▁အလောင်းဘုရား
▁ကွန်ဂို
▁ပန်းနာ
ဇေး
▁သမ္မတရာထူး
▁Sy
ညိုရောင်
ပြုသည့်
▁Ten
ပြိန်း
▁plan
ြိမ်ဝပ်ပိပြားမှု
သို့ဝင်ရောက်
▁ကြံဆ
▁ပညာရေးဆိုင်ရာ
▁Thea
ပါလိမ့်
ထွန်းကားလာ
အဝိုင်း
▁ဝါရင့်
▁ခန့်ညား
ဟွန်
လေ၏
▁ဝန်းသို
လိုက
မြစ်ကြီး
အံ့။
▁ကျောင်းကြီး
နေထိုင်စဉ်
▁အဆိုရှင်
တွင်းများ
▁ပြုစုရေးသား
▁ပထမကမ္ဘာစစ်ကြီး
▁မဆွတ်
▁ထုတ်ဝေသူ
▁ခေ
နည်းလမ်းဖြင့်
ထာဝရ
အရင်းအနှီး
Master
ဗညား
▁ကျယ်ဝန်းသော
▁တိဿ
ခြေရင်း
fore
Su
၁၉၇၄
▁မိခင်မှာ
လူမျိုးပေါင်းစုံ
▁ညွှန်ကြားမှု
▁ကြို့ပင်သာ
မည့်အစား
▁ကျောင်းတက်
▁ဖရက်ဒရစ်
▁နေထိုင်ကြပြီး
▁အလို့ငှာ
▁ကြေးနီ၊
▁လက်ထပ်သည်။
▁ပေးရသည်။
နိုင်သည်ကို
၂၀၀၂
အစဉ်အဆက်
ခံရသဖြင့်
▁Wund
▁Py
ရည်း
ပါလို့၊
▁၁၄၃၀
လက်လွတ်
▁တန်းတူ
▁ဖြစ်တည်
▁အရှေ့မှ
သုဓမ္မ
မှရရှိသော
▁ငြိမ်
ses
မိမိတို့
▁ဆားပြင်
Con
Lu
၁၉၄၅
မှုများအတွက်
=1002
သံလွင်
ကြိုဆို
ဖြန်
▁အပ္ပ
မရှိသူ
=335
▁Magazine
▁ထူးထူးခြားခြား
▁အညီအမျှ
▁သင်္ဃန်းကျွန်း
▁အမြတ်အစွန်း
▁ဂျူပီတာဂြိုဟ်
="335
▁begin
▁ကောက်ချက်ချ
▁ရှင်အရဟံ
▁တည်ထောင်ပြီး
▁ရွေ့ရှား
▁will
▁ခိုအောင်း
ရပ်ဆိုင်း
▁ဘုရားမြတ်စွာ
မွှန်း
▁People
▁မကြာခင်
▁မဟုတ်။
▁၂၈။
ထိပ်တန်း
▁တင်လှူ
▁နတ်များ
▁ဒါယန်း
▁ဖုခုအိုခခရိုင်
▁များပြားလှ
တံကို
စည်းကမ်းချက်များ
▁ပွင့်ဖတ်
နိကာယ
ရာဂ
▁ကမော့
စာရီ
udaw
▁ရှမ်းစုရွာ
ပုလွေ
▁၂၁၇၇
ခေါင်းပါး
၁၀၀၀
▁ဝါတော်
=157
ခုနှစ်က
သိုမှီး
▁အမှန်အားဖြင့်
ပေါက်ပင်
▁ပြောင်းဖူး
▁Awards
azi
ဗြူ
လိပ်ပြာ
="157
▁အဝေးမှ
▁သွေးတိုး
lum
▁ထိုအခါတွင်
▁ပတ်ဝန်းကျင်သို့
▁လေထုထဲ
▁အစုအဖွဲ့
▁ကျောက်ဆစ်
=211
အဲလ်
▁Land
ဧည့်သည်
▁ရောက်ရှိလာသည်။
လက်ခုပ်ပင်
▁ရခိုင်ဘုရင်
▁ဖြစ်သကဲ့သို့
ရရှိလာ
▁ယုဒသန်
သော်ကြောင့်
▁ဦးစီးချုပ်
▁သွင်ပြင်လက္ခဏာ
သွားသည်ကို
▁ထိုလူ
ရှိခိုး
="1424
=1424
▁ချယ်ရီ
▁ခြေလှမ်း
▁ကျေးရွာပေါင်း
▁24
▁အကြည်
▁တောင်စွန်း
ခန်းပျို့
▁ကမ်းနား
မြင်းမိုရ်
▁ပလက်
အစ်မ
▁ယောက်အနက်
▁တည်ထောင်ရန်
▁ဖိတ်
ဝဏ်
ရထားများ
▁ရေနစ်
▁ပိတ်ပွဲ
▁တွေ့ရပြီး
▁ပရိုတက်စတင့်
စရာကောင်း
ဉာဏ်တော်
azole
▁ဘုရင်အဖြစ်
▁အုပ်တွင်း
▁၅၄၅
▁နိုင်ငံများ၏
▁အပင်နှင့်
၈၈၄
မှူး၊
တော်မူ၏၊
ထေး
သိမ်းပိုက်ရန်
ပိုင်ဆိုင်သူ
ဋ်
AL
ထိတွေ့မှု
▁တူးချောင်း
▁အနောက်ဂျာမနီ
ပြီဖြစ်ကြောင်း
▁တစ်ယောက်တည်း
▁ပြည်နယ်အစိုးရ
▁စကော့တလန်ပြည်
ဝါသနာ
စွယ်တော်
ဘယ်ရီ
ကလင်
turn
လက်ဖြင့်
တူသော
For
▁သေလွန်
ခြွေ
cla
▁မွေ့လျော်
ပြိန်ရွာ
အဖြစ်အသုံးပြု
သာသနာ့
လွှတ်တော်တွင်
▁နောင်တ
▁ပလက်ဖောင်း
▁၃၄၈
▁Hk
▁သစ္စာလေးပါး
▁နေမင်း
▁ပြည်ထောင်စုမ
▁ယောက္ခမ
ပေးပါ
ဝဂ္ဂ
▁၄၃၈
မြှော်
▁ဘိတ်
▁ထောက်ခံသူ
▁ဥပါသကာ
▁၉၄၉
ဒေသဆိုင်ရာ
ates
▁ဂျော်ဒန်
▁ပေါက်ပင်
▁ဖွဲ့စည်းခြင်း
▁သုံးကြသည်။
တွေ့ရှိခဲ့သည်။
▁ဒေသ၏
▁http
▁အမှီပြု
▁2014
▁ထိုအခါမှ
▁အမျိုးသားညီလာခံ
▁ကစားခြင်း
▁ဗန်းမော်မြို့
▁တည်ရှိနေသည်။
စက်ကွင်း
▁မြေဆီ
ရရှိခြင်း
ထိန်းသိမ်းခြင်း
ချု
▁ဖားစည်
▁ပျိုးထောင်
bing
▁ဆရာ့
ကြည်နူး
ကလေးများနှင့်
▁America
ရပ်၊
သံဖြင့်
▁Ny
▁တိကျ
▁ရှေးယခင်
▁မပြောင်းလဲ
▁နောင်မွန်
စရိယ
▁တားမြစ်ချက်
=265
▁ပညာရပ်များ
သဘောကျ
လုံ့လ
ကျော်စိန်
ညွန့်ပေါင်း
ရုံဖြင့်
နိုဗာ
တစ်ခုအတွက်
▁၃၆၈
▁တောင်ပို့
=100
မှတ်စု
ပ္ပါ
▁တိုးတက်အောင်
အရပ်ရပ်ကို
▁စည်းဝေး
▁လင်မယား
SL
ရှုခင်း
စာတမ်းကို
▁သတ်မှတ်ကာ
▁အထိန်း
▁၂၅ဝ
လာပုံ
ဧကပေါင်း
▁ခန့်သည်
▁ကမ်းရိုးတန်းဒေသ
▁၁၁၉၄
0170050
ဝိမလ
▁မြန်မာပြန်
▁၁၉၃
အရာရှိကြီးများ
ဖြစ်လာသောအခါ
ကြီးဟု
="992
▁ဆန်ကန်
▁နှ
▁Khan
ဖြေကြား
▁Michael
▁အစုလိုက်အပြုံ
▁တီးဝိုင်း၏
ပေါက္ကံ
▁အမြတ်တနိုး
မဉ္ဇူ
▁ဆာလဖာ
▁ရှိတ်စပီးယား
▁လူသိရှင်ကြား
▁သတိုးမင်းဖျား
▁မိုင်းဒခွန်
▁Linux
ကွာခြားချက်
သံဝေဂ
▁အကြမ်းဖျင်း
▁အစ္စလမ်
▁အပြောအဆို
▁ရီနွဲ
▁ဆိုသည့်စကားရပ်
▁ကြယ်အစုအဝေး
▁မျက်မမြင်
▁အုပ်ချုပ်သည့်
▁ရှောင်တိမ်း
▁မကြာခဏဆိုသလို
▁မည်းနက်
▁နန်းပုလင်း
=992
▁ကျိုင်းလွန်း
▁ဦးနုသည်
လွှတ်၍
သွက်လက်
ဂြိုဟ်တု
ဖျော့ဖျော့
▁Wide
ပေသည်
▁စန္ဒကူး
▁ချားလ်စ်
စေရမည်
▁ချာချီ
▁ဟယေားဂိုးခရိုင်
▁မြင်းတပ်
▁use
▁ယောင်ပ
▁အီဂျစ်ပြည်
▁ဘုရားစေတီ
▁Kyaw
ညိမ်း
▁ထောက်ရှာ
▁ကင်မရွန်း
▁ငှက်ပျောတောရွာ
သဖြန်
when
သုတေသနဌာန
▁တွယ်ကပ်
▁ဧတဒဂ်ရ
▁NLD
▁နားမလည်
anghk
▁အနောက်ဘက်လွန်
▁စမတ်
ဖွဲ့စည်းထား
▁အဘယ်သို့
▁ပျဉ်ပုံ
▁တမန်တော်မြတ်
နေကာ
▁နန်းမွန်း
မင်းတရား
▁မဟုတ်ပါ
▁ပက်သက်၍
▁Kingdom
ရှိခဲ့
▁ရေတိမ်
ဟိရ
ကျင်းပရန်
▁ပေါက်သည်။
လှသော်လည်း
▁၁၁၂၅
စည်းလုံး
▁ဝန်းရံထားသည်။
▁၁၃၄၉
aka
▁ရှေးလူ
▁ဆိုသော်
မှာပါ။
▁စာအုပ်ထုတ်ဝေ
▁နောက်တစ်
မင်းများလက်ထက်
ခင်ရွာ
▁တစ်ဖက်ကမ်း
အဖွဲ့ဝင်များသည်
မောဟ
▁သဘောသဘာဝ
▁စကားများ
ကိုယ်တော်
▁ဆောက်လုပ်ထား
▁မာရီယာ
▁နီကယ်
▁လက်တက်
တိုး၍
ပေးဆောင်
ector
0170140
▁ရောက်ရှိလာပြီး
▁ဒေါ်စော
▁၂၆။
ဒကာ
▁အတွေ့ရ
▁Way
အခေါက်
ကုဋိ
သက်ဆိုင်
▁လူများစု
▁PC
▁ထိုးထွက်
ella
▁တည်ရှိ၏။
▁လိုက်သည်။
ဇီးကုန်း
▁လုပ်ငန်းရှင်
▁ဗမာလူမျိုး
ather
ဇောတ
▁ရဟန်းခံ
▁သံရုံး
ဘာသာဝင်
လိုင်းရွာ
▁ရက်ကြာ
▁Ve
▁ဖက်ဆစ်ဆန့်ကျင်
sign
▁မဂ္ဂဇင်း၏
▁ပြောင်ချော
ရှိသည့်အတွက်
=195
▁ထံ
="195
▁ရှိနေခဲ့သည်။
စိတ်ချရ
▁ပိုးမွှားများ
သင်တန်းကို
သမိုင်းဝင်
-3
ိကထေရ်
▁ရေးသော
▁ကွယ်ပျောက်
▁ကနောင်
ခွင့်မပြု
▁ဆေးကျမ်း
▁Object
▁ဆစ်ဒနီ
▁ရှိသည့်အနက်
မျိုးတို့သည်
အပိုဒ်
▁စာလုံးပေါင်း
နေကြပြီ
ချလိုက်
▁၂၁၈၄
▁နေရပ်
ပေးသဖြင့်
▁တစ်ကျောင်း
စကော့
မြေကို
▁မင်းကြီးလည်း
▁ခံရသော
တံခွန်စိုက်
ပီးကျေးရွာအုပ်စု
▁အုပ်ရှစ်ကုန်း
မတူသော
ကျင်းပသည်။
လီဆူး
▁တောမတ်
တတ်ကြ၏။
မီးယား
ပေါက်တောရွာ
ဖေါင်
ကင်းရှင်းရေး
ဘားအံ
တိုင်း၏
▁ဂစ်
▁ပွဲစဉ်
ရယူခြင်း
▁ထရိုဂျန်
▁ပေတော
▁ဟွာ
ကျင်းပရာ
▁ဝတ်စုံ
သွေးကြော
▁လွင့်
ရှည်လျားသော
▁နီပေါနိုင်ငံ၊
▁စစ်တွေခရိုင်
▁ထို့အတွက်
▁ရှင်မဟာ
ရေးသားထားသည်။
▁ပြော၏။
▁မြန်မာရုပ်ရှင်
သန္ဓေ
mpi
▁အချို့ကလည်း
="1447
▁သင့်မြတ်
ဆိုဗီယက်
အင်ဒိုနီးရှား
▁ကွာလာလမ်ပူ
▁Bur
▁တေးသီချင်းများ
ken
သိ၍
စာတိုက်
ခြင်းဖြစ်၏။
▁အမြောက်အမြားကို
▁အင်္ဂလန်တွင်
▁ဟစ်ဟော့
=1447
▁နန်းတော်သို့
မချင်း
▁မတတ်နိုင်
=1557
="1557
▁ကုန်းကြီးရွာ
="1449
▁အင်ဒိုနီးရှား၊
အဘိ
▁တစ်ဦးလည်း
လက်မှတ်များ
▁ဆက်လက်ဆောင်ရွက်
ပျက်၍
▁အပါ
▁ဆေးရုံတွင်
ခံစားမှု
田
▁အတ္ထ
ခ်စ်
စာအရေးအသား
တစ်ဝှမ်း
ū
в
0130187015
▁Engine
▁တစ်ခါတရံ
ြောက်မှတောင်သို့
=1449
▁မိုင်းပွန်
▁ရုပ်သံလွှင့်
▁Church
▁1775
▁computer
▁သနပ်ဖက်
စေခိုင်း
▁နေထိုင်ကျက်စား
▁ဖွဲ့စည်းကာ
▁ဇော်ဆိုင်း
ဗကသ
="1001
ငွေစာရင်း
ဝင်ကာ
▁အနိ
▁ယင်းတို့တွင်
▁မဟာသက္ကရာဇ်
စေတီတော်ကို
▁radio
သင်တန်းများကို
▁၁၀၃၃
tron
▁ငွေချေး
အာဘော်
▁ပေါ်ပေါက်လာသော
▁i
▁၁၄၈
တတ်ကျွမ်း
▁ရေကြီးမှု
ထဲကို
▁ကြိုးကိုင်
နုနု
▁အကျပ်အတည်း
ရောယှက်
▁နားခိုက်
▁ကျော်ရှိသည်။
အမှောင်
00901
က္ခာ
နိုင်ငံတော်၏
ပညာရပ်ကို
ရှာဖွေတွေ့ရှိ
▁acc
ြွ
cip
▁စွဲချက်တင်
tical
ခုကို
ဒေရွာ
▁၁၀၀၀၀
အထိသာ
င်ပြွန်း
▁ပြန်လာခဲ့သည်။
▁သွားခဲ့သည်။
▁မစ္စ
▁ပုံစံကို
ကျယ်၍
အတန်းအစား
▁လိမ္မော်ရောင်
▁ဘွမ်
မြစ်လက်တက်
▁အခံ
▁ကျွန်းပေါ်
▁အချက်အချာကျ
အဇ္ဇ
▁စသည်တို့၌
ခါးပတ်
▁ညောင်ပင်ဆိပ်
လုပ်ကိုင်သူ
ပတ်ပျိုး
▁အသုံးစရိတ်
ဝဘူတာ
ယူရ
▁တစ်ဖက်မှ
တိုရီ
▁အာဏာပိုင်များ
လျက်ရှိနေ
▁အသံများ
▁မြစ်ကြီး
စိုက်ထုတ်
▁သွယ်ဝိုက်
▁၁၂၉၁
▁ဂဲ
▁အသုံးပြုလေ့
▁အမေရိကန်ပြည်
သတ်မှတ်နိုင်သည်။
▁၂၃၆
သမိန်
▁၁၇၁၉
0120080
ဖွဲ့စည်းထားသည်။
အင်အားကြီးမား
▁မြောက်ဘက်ရှိ
▁တည်ရှိလေသည်။
မနေဘဲ
▁ခရီးသည်တင်
▁ကသာ
▁ပြက်
သောအပင်
▁ပါဠိဘာသာဖြင့်
▁လူအများစု
▁ဂုဏ်ပြုသောအား
▁၁၂၃၀
ာင်
▁နိုင်ငံရေးလောက
▁there
pet
▁၂၇။
▁ပါတီဗဟို
▁၆၅၄
▁စကော
မြေအောက်
▁ကျင်းပခဲ့
ပြည်၏
▁ကဲ့သို့ပင်
▁ဂျပန်တပ်များ
တွင်၎င်း၊
ကလက်
▁ဆန့်ကျင်သည့်
ota
▁ဖြူစင်
▁၁၂၆
ဖျော်ဖြေရေး
▁၁၆၉၃
▁တေးစီးရီး
ED
▁၉၀၂
▁စာဖတ်သူ
▁များသည်။
▁ဗိသုကာပညာ
▁ထူးဆန်းသော
အရေအတွက်သည်
စေသည်ဟု
ပြောဆိုသော
ဖော်ပြခြင်း
▁အပူပေး
မှာကဲ့သို့
၁၉၆၁
Pho
=187
▁အစပိုင်း
="187
get
ရိက
alk
သတ္တုများ
▁ဋ
▁ရေနီ
ဆုံးနှင့်
▁၂၆၇၀
ကြလေ၏။
ခြင်းဟူသော
▁တမန်
▁ကန်နီ
ပလက်
▁တစ်စ
▁ဘုတ်အဖွဲ့
▁စုစည်း၍
သတဲ့၊
▁ဖွဲ့စည်းထားသည့်
မှုမရှိသော
စည်ကြီး
▁အခြေခံဥပဒေကို
▁ကလေးများအတွက်
မြို့တော်ခန်းမ
လီယံ
▁လူဦးရေအများဆုံး
တော်မူသဖြင့်
701507
နှင့်တွေ့ဆုံ
▁ဒေသများ၌
ရှိရို
▁သူတို့နှစ်ဦး
▁သဘာဝတွင်
▁မိုးကုတ်မြို့
ခန်းခြောက်
▁ဖြစ်လာမည့်
▁အေးသော
ec
▁၂၂၃
▁ထည့်ဝင်
အမည်ခံ
▁၆၂၈
▁အပျက်အစီးများ
▁၁၃၅၅
ဟုသာ
မြို့အနီးရှိ
ဝါကျ
▁၁၃၅၈
အလယ်ပိုင်းတွင်
မီနီ
hr
ခြင်းခံရပြီး
=1580
="1580
ule
▁ကပ္ပ
ကုန်းလေးရွာ
အရဆိုလျှင်
ပုစ္ဆာ
TC
နောက်ဆက်တွဲ
ယိုးဒယား
ال
ဗိုလ်မှူးချုပ်
နုနယ်
ဦးစားပေး
နယူး
▁လွတ်လပ်ရေးအတွက်
ကင်းရှင်း
ရှိကြောင်းကို
ဆံပင်
ထွက်ကုန်များ
တိုင်များ
▁နေရာမှာ
▁အချက်မှာ
▁ကတ္တရာ
▁၆၃၈
▁စတင်ပေါ်ပေါက်
ထိုင်ဝမ်
ောင်းဝယ်ဖောက်ကား
="1964
=1964
▁ဖြစ်လာကြသည်။
မိစ္ဆာ
▁တရားရုံးများ
▁သိုလှောင်ထား
ဂစ်တာ
ကျိုက္ခမီ
▁ကပိုင်
="971
ကတ္တား
ကျောထောက်နောက်ခံ
▁မန်းဘဇံ
=340
▁people
▁ရွှေကြက်ယက်
▁အသျှင်ဥဒါယီ
=1528
▁အိုင်းစတိုင်း
="1528
▁Daily
="340
▁Club
▁Hkam
တခွန်တိုင်
ချက်များနှင့်အညီ
▁သူဌေးကုန်းရွာ
=120
သညကထေရ်
▁Life
▁၃၄၅
သခွား
▁most
▁four
အက္ခရာများ
▁လှည့်လည်သွားလာ
▁တပေါင်းလဆန်း
▁Labu
▁မြှင့်တင်ပေး
လျောက်ပတ်
▁စစ်ဦးစီး
▁နတ္ထိ
ထိန်းသိမ်းထား
▁တက္ကသိုလ်၌
▁ထိုနှစ်မှာပင်
တောင်ပံ
▁မျိုးရင်းဝင်
လက်ရာများကို
▁ဘက်မလိုက်
▁တွားသွားသတ္တဝါ
▁control
="1548
ခြိမ်း
သတိပေး
စတိုး
အရှည်ဆုံး
ဟူသောစကား
▁စီးဆင်းသည်။
=1001
▁ကြေးတံဆိပ်
▁years
=1548
▁ဘီပိုး
▁အညံ့ခံ
ထက်ပိုမို
▁ခေါ်ဝေါ်ကြ
▁နှစ်စဉ်ကျင်းပ
ပြည်နယ်မှ
မုခ
ရုံးနှင့်
မတူချေ။
▁ဝမ်ဝပ်
ဆိုဒါ
မြွေဟောက်
အားဖြင့်လည်း
ison
▁မိညို
နှစ်ပုဒ်
စစ်ဆေးမှု
▁ဖောက်ထွင်း
▁ဖြစ်စေသော
၍သော်လည်းကောင်း
▁ထိုအချိန်မှ
ခရို
▁လေးဦး
▁ကုရ်အာန်
▁ရည်စူး
▁Space
▁သံသယရှိ
ကျု
▁သီချင်းကြီး
▁Anti
▁တံတားကြီး
ပိတ်ဆို့မှု
နာမည်ကြီး
ဦးစီးအဖွဲ့
▁ဝက်ဘ်ဆိုက်
ကိုယူ၍
▁လုပ်ဆောင်သည်။
သို့ရောက်လာ
▁မြေစွန်း
▁ကြိုးစားခဲ့သည်။
ကော်မတီဝင်
လက်မှ
ကြေးနီ
▁၁၆၃၇
နည်းပါးသော
▁၁၃၄၂
ပါတော့တယ်။
▁ရွက်ရင်း
▁၂၀၁၀ခုနှစ်
▁အဝတ်အစားများ
ဆူပူ
▁၁၂၄၉
▁၈၅၉
▁တူတော်
မြီ
▁ကယ်လီ
ဟာရီ
ကျော်ဝင်း
▁အချက်ကို
တက္ကသိုလ်သို့
=971
▁မိတ်ဆက်ပေး
▁အဆုပ်
လက်ဖက်
အမိန့်တော်
ပြောင်ပြောင်
▁နောင်း
▁ပေရွက်
အကျင့်ကို
tz
▁ဝေဖန်မှုများ
▁သိန္နီ
လျော်ကြေး
▁အရစ်
▁နှိမ်နှင်း
▁ဟုခေါ်ပြီး
TR
နေရာသည်
▁ဖောက်ခွဲ
▁ကင်ပွန်း
ကြေးငွေ
▁ထက်ဝက်
လေလျှင်
▁ဆက်ခံသူ
ပြည်ထောင်စုမှ
▁ဆူညံ
စီယာ
▁ပုံနှိပ်စက်
တရုတ်နိုင်ငံ
▁မင်းတုန်းမင်း၏
▁ဤကာကွယ်ဆေး
မောင်ကြီး
▁ကောလင်း
▁လမ်းစဉ်ကို
▁ကံကွင်း
▁ကတိပေး
ခတ
▁Fi
▁လပ်တော့
:5
အုပ်ချုပ်ရေးအာဏာ
အများစုက
▁Ber
ကုမ္မာ
ရိမြို့
▁ပြင်ပမှ
တော်မူခဲ့
အစွန်
ဒဏ်ရာရ
here
=191
ဘောလုံးကွင်း
▁သီးနှံများ
▁ပြီးပြည့်စုံ
="191
ခြင်းမရှိသော
▁နဝဒေး
အအုံ
ဒေါ်နယ်
=159
▁သဒ္ဒဗေဒ
="159
pha
stro
▁နှုတ်ဆက်
▁သီချင်းတစ်ပုဒ်
တစ်လျှောက်၌
▁ကမူ
▁မြန်မာရာဇဝင်
▁ဘဝင်
▁ကန်ချောင်း
သည်ကိုတွေ့ရသည်။
အသုံးပြုသည့်
▁ကုန်းဆာ
▁အရေးကြီးသည်။
▁ကျွန်ုပ်တို့၏
far
နှင့်ဆင်တူ
▁အမြဲစိမ်း
▁လက်ရုံး
▁အရေးဆို
ဖြန့်ချိရေး
ပေးမည်
▁သူတို့ရဲ့
အကြောင်းကြား
▁အခမ်းအနားများ
▁သုံးပိုင်း
nium
▁ဂွမ်
▁ကဒါ
စေ၏
▁အသုံးချနိုင်
▁ဖလင်
oon
▁ငါးယောက်
▁၂၀၅
▁အခိ
ဝါသနာပါ
▁မတူညီသည့်
▁တရားရေး
0170060
▁ဂျာနယ်၊
ani
ဖြစ်စဉ်များ
ထားသည့်အတိုင်း
▁နည်းဖြင့်
▁၇၆၃
▁ဇာတ်ကောင်များ
▁သုံးပါတီ
ခေတ်စား
ကာကွယ်မှု
▁သခင်တင်မြ
▁ထာ
▁ပေကုန်း
▁စီမံဆောင်ရွက်
sia
စက်မှုဝန်ကြီးဌာန
▁တည့်တည့်
သနည်းဟု
▁ပေး၍
နယ်ချဲ့အင်္ဂလိပ်
နေတယ်။
▁ပုပ္ပါးတောင်
[...]
